#version: 0.2 - Trained by `huggingface/tokenizers`
Ġ Ġ
ĠĠ ĠĠ
@ @
a r
i n
ĠĠ Ġ
Ġ =
ĠĠĠĠ ĠĠĠĠ
r e
Ġ (
) ;
Ġ *
s t
v ar
e r
Ġ ĉ
a t
o r
o n
- >
Ġ Ċ
a l
s e
l e
Ġ i
in t
Ġ {
Ġ c
Ġ 0
e n
Ġ @@
Ġ }
d e
Ġ t
_ _
ĠĠĠĠ ĠĠĠ
l o
s i
c t
u r
Ġi f
ĠĠĠĠ Ġ
Ġ re
Ġĉ ĉ
a n
m e
Ġ= =
Ġ v
Ġ f
Ġ +
ĠĠĠĠĠĠĠĠ ĠĠĠĠĠĠĠĠ
Ġ p
Ġ /
u n
i t
i d
e d
Ġ s
Ġ 1
ur n
Ġ "
Ġ b
t urn
st r
i g
Ġ __
e l
e t
6 4
m p
Ġ* /
c h
lo c
Ġ &
r o
u t
a d
@@ ,
L L
e x
t r
i f
Ġ A
Ġ g
Ġ |
c o
Ġ n
) )
Ġ int
Ġre turn
h e
Ġ/ *
Ġ d
Ġ a
Ġ o
ĉ ĉ
P I
" ,
c e
Ġ )
p e
l i
m a
er r
a me
i on
l a
in g
M T
Ġ| |
z e
G R
ig in
PI X
F MT
ĠA V
p y
en t
B GR
Ġ ;
u e
0 0
u l
Ġ -
f f
s s
st at
or igin
i le
Ġ w
si ze
L E
c on
Ġ r
( @@
ĠĠĠĠĠĠĠĠ ĠĠĠ
o t
a se
c k
Ġ N
- -
Ġ !
at a
b u
se t
Ġ <
loc al
O R
g n
v al
Ġ* )
E R
s p
o id
el se
y pe
le n
u m
1 0
U LL
Ġ m
si gn
py x
o l
Ġ 2
ar g
i l
Ġt he
Ġc h
Ġ origin
I N
Ġ [
ex t
g e
i c
p r
b le
t h
4 8
o p
Ġ in
ul t
o de
t e
Ġ/ /
@@ ;
Ġ u
e ct
ĠN ULL
i s
re a
Ġ! =
f a
Ġ* (
Ġ else
sign ed
) ,
an d
Ġ S
g et
n ame
err or
at e
@@ );
( "
r a
Ġc on
) );
B E
b j
Ġĉĉ ĉ
( (
V ar
" );
re e
en d
Ġch ar
d ata
Ġ( @@
Ġ #
u ct
Ġ %
u p
t a
< <
R E
u s
al l
f o
str uct
e w
Ġ F
Ġf or
Ġ l
Ġ e
S T
Ġ stat
Ġ P
Ġĉĉ ĉĉ
v e
Ġ G
Ġt o
un signed
t ype
s c
Ġ( (
d i
BGR A
Ġ _
Ġ );
Ġ& &
ĠĠĠĠĠĠĠĠ Ġ
3 2
Ġ C
Ġ local
s ult
Ġ h
Ġ >
re turn
1 2
* *
Ġ ,
ĠĠĠĠĠĠĠĠ ĠĠĠĠĠĠĠ
rea k
ĠĠĠĠ ĠĠ
int f
@@ )
in e
+ +
ad d
Ġv oid
a s
Ġ T
Ġ* @@
A T
OR D
Ġ '
er t
Ġ x
1 6
d o
a ck
Ġ :
k e
li st
W ORD
1 1
Ġc ase
n t
bu f
a p
de f
u b
F F
ch ar
D E
] ;
S E
p o
/ *
bj ect
f ile
t o
-- --
Ġo f
Ġ ?
Ġstat ic
O N
t mp
t er
val ue
Ġ size
or d
p ar
it e
U N
m s
1 8
( &
Ġcon st
ĠĠ Ċ
A L
Ġt h
v i
ff er
Ġ 4
o f
Ġ st
o ut
or t
p tr
@@ [
A R
Ġ ma
b o
r b
1 4
a ge
p t
r c
pr intf
R e
si on
i x
p ro
Ġ de
2 0
Ġb reak
v er
Ġ 8
I T
re ad
Ġre sult
Ġĉ ĠĠĠ
( __
ĠĠĠĠĠĠĠĠĠĠĠĠĠĠĠĠ ĠĠĠĠĠĠĠĠĠĠĠĠĠĠĠĠ
t ext
] .
Ġ( !
in fo
at ion
p ut
Ġi s
on g
i me
v oid
ct ion
g s
I n
Ġ str
1 3
Ġ ex
Ġ se
ER R
c all
un t
ke y
me m
Ġ M
loc k
2 8
ar t
s h
Ġc o
* (
Ġ 3
E N
P y
= =
Ġ unsigned
] ,
f or
Ġ*) (
e s
al loc
a ble
u re
co de
i r
r sp
i v
i st
m m
t k
q u
( );
rb p
L A
o d
1 5
l f
s er
h t
: :
l ine
i p
de x
Ġ D
Q WORD
n um
f ree
m at
ot o
Ġv al
con st
n o
at h
Ġd o
c ur
re f
n ew
Ġ I
T E
fa st
n d
i m
ct x
r r
bu ffer
m ent
fast call
in ed
E T
<< <<
Ġu Var
Ġ j
Ġw h
re t
O P
y te
Ġ arg
s o
co l
Ġs ub
u ble
2 4
s a
Ġ struct
v ent
Ġ y
c ase
tr y
Ġ un
def ined
C T
1 7
ig ht
int er
L O
stat e
Ġ*( _
Ġb u
Ġ* *
str ing
@@ .
ch e
P E
** **
p l
ff set
Ġ E
S S
++ )
Ġ \
Ġ+ =
a m
in d
w ord
n ode
s y
la gs
ra y
ĠĠĠĠĠĠĠĠ ĠĠĠĠ
Ġĉ Ġ
Ġ en
M A
lo g
Ġp r
Ġb e
la y
ro m
ma p
s k
I D
on e
g th
op t
Ġsize of
4 0
add r
9 6
3 0
ĠP y
f d
re s
r ite
O bject
co unt
---- ----
A M
ĠF UN
w id
1 9
ĠĠĠĠĠĠĠĠ ĠĠĠĠĠ
f s
c p
2 5
o bject
p a
Ġ B
Ġg oto
c l
IN T
C H
do w
Ġ len
rr or
e st
C K
ĠĠĠĠĠĠĠĠĠĠĠĠĠĠĠĠ ĠĠĠ
Ġ 5
I G
Ġn ot
Ġ L
Py x
ss ert
d b
p er
Ġd ata
Ġ at
r i
Ġ and
c mp
C E
o w
Ġ k
] );
rea m
p h
c a
t ime
V al
A N
( )
m o
Ġo ut
st d
Ġ1 6
ar e
ERR OR
Ġf ile
in dex
un d
Ġp ro
Ġ# #
q ue
l y
p ort
T Y
mp le
C on
. .
u int
ro w
a ct
B U
vi ce
b er
m d
in it
an n
p ath
re g
re nt
li b
Ġre t
con f
Ġ H
o k
m ode
@@[ @@
3 8
e m
Ġval ue
st art
a x
and le
i al
S t
or y
se lf
re sult
it h
he ad
C o
Ġw e
in dow
i ve
a c
la ss
stat us
ms g
n ext
Ġp o
A D
Ġwh ile
Ġ 6
r ame
G et
T R
C h
Ġg et
Ġl ong
i o
Ġth is
ce ss
* )
il d
00 00
ar ray
r an
it s
Ġ W
Ġ V
Ġ R
Ġ> =
t x
Ġ error
m b
Ġ< =
fa ult
ma x
lo at
SE T
TY PE
D e
Ġ< <
ss age
Ġ& @@
f lags
Ġ X
as h
U E
S tr
po s
h o
ta ble
ma ge
pr iv
Ġ set
C O
a b
Ġ( *
Ġĉĉĉĉ ĉ
Ġ mem
a g
D WORD
re ate
Ġp ar
b reak
end if
Ġ on
P R
f un
a ce
p re
el d
i ze
ur ce
Ġs o
f t
) (
lo w
Ġ+ +
at or
Ġ U
F I
++ ;
Ġt mp
" ;
V E
s rc
i eld
2 2
o ffset
p s
i b
u se
Ġ1 0
ĠĠĠĠĠĠĠĠĠĠĠĠĠĠĠĠ ĠĠĠĠĠĠĠ
te st
b ack
Ġi t
p p
m l
d r
m in
Ġ an
co mp
Ġf ree
Ġn ew
p an
c ro
] [
S I
E rror
pt ion
re d
e vent
l d
it er
at ch
RE F
e g
or k
in k
M E
O T
con n
( *
G T
/ /
le an
o bj
y y
ĠĠĠĠĠĠĠĠ ĠĠ
it y
e c
Ġ z
b ase
pe c
con text
FF FF
n c
Ġth at
Ġf a
Ġ( "
en try
Ġĉĉĉĉ ĉĉ
, "
b yte
w rite
u st
@@ __
)) )
len gth
I S
] )
2 9
Ġn um
2 3
la b
5 5
Ġg tk
de v
it ch
he ck
arg s
Ġ al
di r
la st
Ġc ur
Ġ" %
a v
u Var
Ġ> >
Ġ O
me ssage
T ype
S et
00 0
li ent
o g
Ġu int
a ve
Ġdo uble
2 7
lo se
st ream
o m
ir st
ST AT
Ġn ame
at tr
Ġt ype
5 0
2 6
an g
P tr
re ct
Ġf printf
Ġ 7
c r
Ġs y
l ong
re ss
Ġĉĉ ĠĠĠ
n s
p i
t ree
t y
L I
e le
Ġbu f
re c
ro up
D ata
p ack
c b
v el
il l
s ub
Ġb o
Ġun defined
U T
E x
ile d
3 3
bo x
do uble
6 8
w itch
\ "
ĠĠĠĠĠĠĠĠ ĠĠĠĠĠĠ
d d
( _
Ġma cro
Ġpr intf
Ġ q
bu g
ta g
E X
m t
u le
2 1
an t
AL SE
Ġ err
Ġ le
Ġd g
head er
D I
Ġs h
A r
ap p
ol d
' )
L ist
ul l
i es
f p
IN G
b lock
I ON
P ar
**** ****
a ssert
d ate
e mp
m od
e p
wid th
so urce
ra w
ar d
std err
U L
B u
con t
a y
id x
V AL
fa ce
f rame
h andle
si t
f e
" )
C ON
re q
o c
el l
M P
o re
p c
co mm
G ET
P AR
n al
<<<< <<<<
N ULL
Ġw ith
# #
val id
la g
ite m
te mp
== ==
lo ad
P ro
3 4
fa il
Ġ' \
_ ;
vi ew
Y TE
t on
k en
-> @@
ĠĠĠĠĠĠĠĠĠĠĠĠĠĠĠĠ Ġ
Ġ or
C A
an ge
ST R
lo b
arg et
pe ct
s n
ect or
Ġ 32
w indow
Ġ end
N ame
Ġ add
O K
8 0
t s
Ġex pan
@@ ))
5 6
us h
Ġo p
i de
c lass
F A
u g
U S
Ġĉ ĠĠĠĠĠ
w ork
_ ((
I nt
q l
c s
c py
p ert
Ġse lf
ar y
P o
che ck
ut e
ff ff
' :
ar ch
Ġd i
er s
( *(
de sc
on t
) ->
o lean
ma in
Ġre ad
Ġ( _
Ġt r
g l
EN T
6 0
In fo
GT K
Ġ key
O L
5 8
h ash
f loat
Ġr ax
Ġ list
Str ing
B YTE
an ce
Ġf rom
F LA
( !
el y
N O
a st
he ight
c c
que st
Ġ signed
wid get
t p
O FF
conf ig
er y
-------- --------
il ter
Ġ( __
c md
cur rent
ann el
col or
Ġ2 0
ĠF ALSE
O B
se s
Ġexpan sion
Ġa s
3 7
opt ion
Ġc ol
F ile
arg v
l l
ma sk
lab el
U R
M O
f rom
D O
P O
Ġ* __
th read
3 6
us er
Val ue
se d
s g
mo ve
ĠT R
at s
4 4
s l
Ġi d
re n
FLA G
@@ ]
un ction
' t
o b
i mage
ut ton
li c
en u
ar k
v ert
de d
Ġt est
ul d
in put
ĉĉ ĉĉ
d up
Ġbu ffer
Ġl ine
b l
err no
at ed
OP T
Ġ( &
conn ect
Ġs c
Ġ 9
OFF SET
a ms
Ġb yte
G E
sp lay
u mp
tr an
um ent
o y
Ġ are
) _
I L
3 5
size of
f ield
li k
g ra
Ġn e
fun c
@@ ));
up le
Ġst art
IT E
un defined
DE C
for mat
de vice
Ġ LA
a i
Ġt ime
S C
c lient
S U
lik ely
ĠĠĠĠĠĠĠĠĠĠĠĠĠĠĠĠ ĠĠĠĠ
pr int
G L
00 10
b it
file name
BU G
S H
V ER
S ize
en v
IN E
l s
and l
Ġc heck
E CT
Ġs rc
PAR AM
Ġma x
re en
N ode
8 8
Ġcon t
st ack
n g
Ġa ssert
te m
c lose
un k
D B
Z E
Ġ Re
OB J
u LL
out put
d st
Ġ si
ĠPy Object
n ot
if y
Ġn ode
d s
in ue
DE BUG
if def
Ġstat e
A B
g oto
7 0
A CK
op en
str cmp
Ġ me
Ġre g
g tk
b e
Ġre s
D AT
P Y
Ġ2 4
Ġu p
ist er
Ġr c
FI LE
Ġ( *(
12 8
' ,
3 9
U n
g r
g roup
. \
Ġ| =
ce s
pert y
i z
@@ =
str oy
t op
po int
ca che
w h
Ġy y
de bug
LO G
for m
[ @@
B IT
Ġn o
Ġco mp
T I
or m
le ct
p ix
r ix
ck et
Ġde fault
* /
B O
g en
U M
n e
(& @@
s b
9 9
l ink
ro ot
bo olean
Ġs witch
le ar
le vel
in s
w n
ame ter
mb ol
V I
h is
qu ery
' ;
t ing
E n
th is
Ġstr len
byte s
@@ ),
a ut
c reate
A P
F S
de fault
Ġin fo
W id
C ol
K E
co d
7 8
al se
sit ion
AM E
sign al
s w
lob al
] =
ĠS T
" ))
di m
I d
Ġp tr
m it
ord er
in st
ig n
Ġco unt
ut ex
f l
pect ed
ĠF I
un likely
par am
ĠTR UE
he re
40 96
Ġa v
p age
se q
po ol
p ol
W IG
3 1
f printf
m y
bu s
if i
Ġp re
Bu ffer
ql ite
E D
o und
ho st
n et
Ġc tx
Ġ lo
sp ace
le ft
Ġ ^
Ġfa iled
ch ild
s or
MA X
de st
Ġin dex
al e
9 0
tr a
co py
ER T
D i
f lag
Ġstat us
SI ZE
e y
= %
Ġstr ing
t arget
mat ch
R O
U RE
ex p
Ġex it
L INE
co re
Con text
u c
Ġo ffset
, &
que ue
ĠĠĠĠĠĠĠĠĠĠĠĠĠĠĠĠ ĠĠĠĠĠĠĠĠĠĠĠ
par ent
er o
r t
s um
Ġt emp
to ken
BE L
Ġc ode
S P
h er
b utton
Ġbo ol
a in
s ure
h dr
p ref
LE N
s r
OBJ ECT
@@ ].
Ġc an
Ġb y
" :
Ġ In
Ġ" \
Ġm ode
ser ver
O C
Ġ log
var i
" ),
ar n
f irst
DEC REF
Ġh ave
I P
7 7
d p
Ġe vent
s v
s pec
5 4
ta b
L en
u x
K ey
cp u
se c
i ck
Ġĉĉ Ġ
P r
w in
Ġnum ber
A dd
* @@
Ġcur rent
@@ ++)
al in
ĠĠĠĠ Ċ
Ġlen gth
loc ation
um n
Ġf loat
andl er
le ment
m utex
T H
Ġn ext
" ));
ele ment
le te
po inter
u i
T o
ses sion
@@, @@
q word
un c
PY X
Ġfa il
T A
Ġc all
Ġint er
Ġf d
st em
u al
th od
Ġf unction
ri pt
re al
par se
c an
Ġin put
Ġ*) &
Ġst alin
ch annel
Ġ lib
value s
x ml
B o
ot al
qu al
ĠĠĠĠĠĠĠĠĠĠĠĠĠĠĠĠ ĠĠĠĠĠ
fun ction
ĠI f
Ġf irst
N um
d a
St ate
p en
u a
F O
ro l
num ber
Ġi Var
x y
Ġ mp
ĠĠĠĠĠĠĠĠĠĠĠĠĠĠĠĠ ĠĠĠĠĠĠĠĠĠĠĠĠĠĠĠ
7 6
st ore
o ff
par ams
M S
c f
mode l
Ġb lock
Val a
f ig
b s
se nd
Ġu ser
ot e
Ġ- -
<<<< <
Ġ< <<<<<<<<
Ġ<<<<<<<<< <<<<<
lo t
ĠT he
f ilter
b its
u id
ig h
c al
C C
Ġo ption
F OR
en c
ver sion
d y
con d
Ġd st
Ġ" ,
Ġ4 0
Ġs qlite
Ġt ra
Ġon ly
option s
Ġco mm
Ġ 64
w e
un ref
ĠLA BEL
Ar ray
Ġ all
M L
pl y
b a
INT ER
Ġpo s
Ġg char
N E
Ġu se
Py Object
par ser
Wid get
A V
Ġc p
4 9
Ġ- =
m alloc
Ġout put
B C
U P
A t
ĠG L
RE AD
y le
o s
Ġp a
Ġ li
(" %
A S
Ġr b
AR G
m enu
Ġo pt
app end
) [
Ġin line
if f
i ew
I O
Ġin it
Ġ( ((
le ase
lay er
RE G
v ector
Ġ1 2
@@ _
re quest
o st
Ġp ath
IG N
c nt
Ġ alloc
di o
sy m
_ (
Ġst d
s on
SS ERT
r ight
en er
en sion
de stroy
Ġa p
d is
I C
m an
c ap
pro perty
at ure
F UN
fs qword
read fsqword
Ġen try
un ter
a ction
s f
> >
G tk
en ce
F T
ann ot
Ġ last
Ar g
N AME
it ion
C CE
Ġm sg
9 8
4 5
*( _
D R
c at
up date
6 6
Ġh as
m i
qu i
a a
Ġ Q
k t
Ġf lags
f n
c d
ran ge
x x
ĠĠĠĠĠĠĠĠĠĠĠĠĠĠĠĠ ĠĠ
i ch
ve c
Ġĉ ĠĠĠĠ
T O
==== ====
N ew
Ġcont inue
ta in
ur face
b y
ĠT his
.. .
c i
di splay
ad er
r d
R G
u de
up port
Ġtr ue
E CK
Ġ .
S e
******** ********
par t
X T
co e
str dup
a f
sp on
u me
Ġx ml
) {
o i
Ġw rite
at ive
Ġ} ;
a pe
Ġt able
th er
de p
VE C
ug in
et sc
E F
IN VAL
AB LE
Ġ one
Ġ J
7 5
wh ile
00 1
M em
ĠP R
inter nal
Ġ( );
f in
} ,
L o
h s
PO S
F ree
M AT
Ġo bject
Ġw id
Ġ row
ag er
w r
)) );
sa mple
4 6
@@ +
OR T
7 2
ar b
pro c
tr ib
ch ed
Ġs er
c li
ent s
p d
Ġ ro
Ġarg v
RE E
n ect
al og
mp l
Ġ ext
Ġw ill
AT E
Ġp la
Ġo ld
S Y
so ck
a it
Ġre c
G OT
KE Y
Ġbyte s
at ter
Ġĉĉĉ ĠĠĠ
ĉ ĠĠĠĠĠ
x FFFF
UL T
B G
LO CK
Ġm alloc
Ġm in
T uple
f ind
Ġp ut
Ġb ase
e v
T ext
f ont
ĠG et
sy mbol
Ch ar
F or
A l
comm and
) \
: %
is h
A LL
CA LL
Ġo k
Ġc a
a il
le d
Ġt ran
n er
Ġs a
m ark
k s
Ġne ed
In dex
ĠĠĠĠĠĠĠĠĠĠĠĠĠĠĠĠ ĠĠĠĠĠĠĠĠĠ
' s
pol y
le ction
7 4
s d
Re f
ut f
25 6
r y
Ġde st
s witch
C P
Ġ array
Ġc pl
Ġan y
Ġop en
T K
] ->
se lect
Ġ*/ ;
Ġ) {
Ġ1 5
S L
ok up
ME M
g ment
ON E
si g
Ġf ield
i e
ho uld
Ġen able
it or
aut h
ĠĠĠĠĠĠĠĠĠĠĠĠĠĠĠĠ ĠĠĠĠĠĠĠĠ
O bj
Ġh andle
tr ies
! =
pack et
Ġ( %
T S
if t
v ed
p id
EN D
( ))
at rix
8 6
arn ing
Ġp h
im er
Ġ ad
Ġĉ Ċ
Ġpr int
o me
u dio
b b
Q L
Ġvalue s
T able
val a
c lear
s ing
Ġc reate
P A
7 9
e k
Ġ message
R A
N D
de l
pre v
Ġp l
Ġs pec
b p
Ġv er
DAT A
H e
b ar
ed ge
0 2
Ġarg ument
POS IT
call back
p la
RE S
S h
5 9
U SE
arg c
STAT US
1 00
CCE SS
b in
Ġm od
if ic
sh ow
g le
s u
C M
H T
W indow
Ġ** )
Ġmem cpy
Ġg l
ct or
no wn
ang ed
Ġmem ory
S A
d k
Ġo bj
Ġfor mat
0 8
Ġ(! @@
s m
.. /
Ġp er
E ST
ĠC o
IN FO
struct ure
l ate
sy s
ic al
i i
ph a
pa ss
T ER
all y
h andler
Ġ defined
bu ild
) :
Ġa c
L D
Ġs hould
I tem
Ġf alse
ĠG tk
Ġ( (@@
ĠĠĠĠĠĠĠĠĠĠĠĠĠĠĠĠ ĠĠĠĠĠĠ
lo op
M e
t v
AN D
ack et
bo ol
di alog
si c
Ġs v
spon se
f r
res sion
Ġb it
C ur
do ut
ĠC O
orm al
act ive
int s
Ġo per
ra p
g lobal
Ġf rame
I s
ta sk
mod ule
S y
reg ister
pref ix
Ġ2 55
add ress
Ġb ut
d x
ex it
ĠS WIG
Ġ 48
ta il
tr ace
O ut
) .
str ide
B ACK
Ġen sure
s z
Ġm atch
eg er
ur i
Ġp c
c el
GOT REF
A CE
TE ST
sc reen
v ol
CO L
b c
ting s
Ġi tem
ar ed
gra m
Ġm o
b r
Ġ\ "
er n
Ġ el
ĠG TK
Ġpro cess
connect ion
M ode
C all
attr ib
Ġarg s
Ġs n
i se
V iew
ON G
ĠS et
si ble
Ġĉ ĠĠĠĠĠĠ
STR ING
} ;
h as
T est
Ġmem set
(" \
A STAT
ĠW e
m on
E rr
r v
tran s
Ġt ext
) ",
sc ale
W R
use d
Ġ*( (_
def ine
vari able
__ _
d at
pa ce
S K
Ġsy m
sc r
Ġg boolean
STAT E
ce ption
d l
i Var
Ġf ind
iv ate
TI ME
Ġ" /
a ke
xFFFF FFFF
Ġ addr
tr ack
P L
Re ad
Ġ*/ ,
d ig
CT ION
op er
4 2
li ct
co m
Ġg r
me thod
Ġ K
N OT
S c
Ġf ound
PR O
py buffer
l p
as k
Ġ1 28
96 6
F rom
)) ,
atter n
l in
la ble
Ġp ix
4 7
N T
Ġm ust
Ġ' %
ang le
co mple
e e
g er
p ush
i a
Ġo ther
ĠĠĠĠĠĠĠĠĠĠĠĠĠĠĠĠ ĠĠĠĠĠĠĠĠĠĠĠĠĠ
uc cess
Q U
r g
Ġ ->
Ġs p
pro p
it le
L S
Ġ OP
act er
Ġs printf
T ime
Re g
ren ce
a ch
C ode
sc an
Ġ ]
ch r
Ġarg c
In it
W IN
g o
Ġto ken
arb on
sy nc
w ith
sa ve
Ġ( -
cr y
Ġ Y
r l
rect ory
L e
D U
l it
in c
_ );
ation s
c arbon
5 3
A VE
4 1
E vent
RE T
r un
m ult
tain er
VAL UE
ex pr
code s
en um
Ġ*/ )
st yle
P P
5 2
Co mp
A U
c ell
EX T
se ction
f c
I mage
Ġc md
Co unt
A SSERT
CH ECK
Ġcon text
en o
---------------- ----------------
read y
cod er
Ġ_ ("
ct l
Ġw ork
( ),
do c
qu ence
MO DE
Ġ ar
M M
Ġ} ,
Ġ IN
Ġ* ,
4 3
(( (
C lass
Ġ header
5 7
j ob
t m
mat rix
Ġex p
cur sor
a w
h el
Ġc l
fo re
U B
Ġi p
d raw
00 11
W EN
b ind
Ġst ream
C reate
Ġma ke
@@ ++;
ur l
Ġg st
re gs
ĠT EST
DE POSIT
(! __
pix el
TE XT
t uple
. ",
DI O
pro cess
Col or
Ġe v
Par se
5 966
k ip
ĠĠĠĠĠĠĠĠĠĠĠĠĠĠĠĠ ĠĠĠĠĠĠĠĠĠĠ
Ġh ash
Ġb ack
SU CCESS
rec ord
n r
i con
Ġw indow
Ġn et
f low
U INT
@@ ];
Ġd is
re move
Ġwid th
D L
do main
ut il
o se
Ġd b
li ce
Ġĉĉ ĠĠĠĠĠ
si d
l m
xFFFFFFFF LL
cl ude
Ġi mage
g p
S O
z ero
h w
ca st
Ġex pected
mem ory
er nal
a mp
op s
ma c
Ġ Z
ce pt
(( __
En try
f mt
Ġ** )(
CO DE
ĠM PI
conf lict
I X
GT H
Ġa b
di ct
Ġo ver
-- ;
_ ,
Ġse nd
Ġc lose
Ġd one
ĠP etsc
Ġde vice
an k
eg in
ri ver
t he
Ġin st
cod ing
( %
R C
x c
O F
cont inue
ript or
Ġt f
C L
B A
Ġt arget
I F
__ ,
Ġco py
f ull
iz ed
a iled
ug h
de lete
re l
m ote
se arch
o us
ĠM A
Ġ1 00
Me ssage
stat ic
col umn
ut es
x ffff
', '
f ix
ifi er
ial ize
s urface
C S
FA IL
LEN GTH
name s
Ġn ow
ins ert
) *
t c
Ġ ~
BU F
Ġw as
se nt
Ġcon fig
cf g
al ign
CH K
Ġf l
LI ST
V AR
Ġp ort
lean up
INVAL ID
8 4
ĠĠĠĠĠĠĠĠĠĠĠĠĠĠĠĠ ĠĠĠĠĠĠĠĠĠĠĠĠ
ITE M
Ġf p
i err
pl ugin
N G
Ġle ft
Ġwh ich
dow n
Ġu sed
Ġ def
Co mm
Ġĉĉĉĉĉĉ ĉ
A PI
inst ance
Ġp art
p x
Ġt ree
Ġa ct
i ct
d c
ro und
et h
St at
dep th
on ent
p m
Ġcol or
w d
T ree
Ġi ter
O UT
Con t
CH AR
Ġp age
I ter
to m
9 2
st dout
pro to
t otal
Ġpar se
Ġin valid
Ġĉĉĉ Ġ
gra ph
Ġwh en
Ġc lient
P S
re rror
S IGN
Ġth en
C R
@@ ++
sp r
LA Y
ĉĉ ĉ
Ġ" );
Ġr ange
S WIG
n p
AU DIO
f i
re sh
Ġma in
-> _
Ġre quest
ifi ed
c y
ex pected
C LA
Ġdo es
le t
I M
stat s
row s
Ġ*( *(
Ġsv n
L og
Ġi err
Ġm y
an e
ameter s
Ġsh ort
C heck
Ġpr iv
B yte
ter m
t d
i or
OR E
SI ON
Ġp acket
Ġstruct ure
F unction
Ġcomm and
upport ed
Ġe lement
str len
n b
er m
DO W
Ġg int
g char
0 1
et a
ch unk
d f
Ġ here
p ad
ut h
Ġma sk
ra g
BC ERROR
ra ph
Ġ var
un i
so cket
nect ion
A GE
pa ir
w ay
29 4
P C
ch ange
di st
P ath
N UM
ERR Q
j ect
a k
Ġr ight
H E
Ġma p
Ġle vel
ĠĠĠĠĠĠĠĠĠĠĠĠĠĠĠĠĠĠĠĠĠĠĠĠĠĠĠĠĠĠĠĠ ĠĠĠ
L ine
( ));
N ONE
S ER
d w
ser vice
de c
n ull
l u
ĠC H
Ġoption s
)) (
Ġpo int
ele m
Ġpo inter
E C
ht tp
si de
me di
po sition
c m
lo okup
ent er
St ream
t en
t l
u ff
Ġ2 56
Ġa pp
Ġre f
Bu f
E nd
r ate
9 7
ac c
Ġso ck
emp ty
ch anged
un lock
Ġr sb
[ ]
p end
pro g
Ġĉ ĠĠ
Ġc al
Ġ(* @@
se l
sh ort
lay out
ĠG ST
p uVar
Ġĉĉ ĠĠĠĠ
ri ption
9 5
r p
6 7
9 4
if ace
Ġn on
) @@
pla ce
( -
ĠE x
s ol
priv ate
T h
c v
time out
i ss
M od
d iff
H O
Ġw r
E M
Ġd on
E V
Ġpar am
di sp
w o
v a
ch an
Ġthe re
Ġso urce
Ġch ild
la s
Ġid x
", "
Len gth
Ġl ua
T ran
Ġe ax
are a
en able
Ġde v
I VE
Ġ qu
G LE
Ġ(! (
st er
ĠPy Tuple
6 5
AT ION
For mat
X DECREF
Ġf ilter
type s
Ġadd ress
Ġo ff
inter p
th on
p op
S o
ĠC heck
Ġtra ce
st op
j ust
S B
o ver
Ġd ir
= (
M ap
0 4
N A
ĠĠĠĠĠĠĠĠĠĠĠĠĠĠĠĠ ĠĠĠĠĠĠĠĠĠĠĠĠĠĠ
Ġc annot
e q
ex ec
cont ent
Ġ RE
@@ *
Ġint o
s ort
CLA SS
ic s
m ul
../ ../
L Y
CHK ERRQ
d one
reg ion
ĠFI LE
w rap
Num ber
at om
ta ch
F ailed
I B
f ill
FOR MAT
ed it
W rite
bu ff
Ġlo op
un it
st ep
Ġg roup
Ġ1 1
Ġ& =
W ID
vi de
St art
fo und
c error
T T
Ġat s
Ġf lag
ĠV AL
VI DE
cont rol
Q u
r x
set tings
De vice
id ent
Ġde sc
IT Y
00 12
UR N
Ġi o
' );
f ir
opt s
no w
h i
f ter
alloc ator
L ong
Re sult
Ġcp u
@@ <
Ġso me
Ġup date
um my
5 1
M an
ite ms
Ġsn printf
D D
} }
li mit
Ġser ver
case cmp
DE F
sh ared
AD D
MA SK
in sn
im g
l Var
ul ong
b i
mp ty
ĠI D
ĠĠĠĠĠĠĠĠĠĠĠĠĠĠĠĠĠĠĠĠĠĠĠĠĠĠĠĠĠĠĠĠ Ġ
pro xy
v id
lib s
r and
Ġreg ister
v p
E lement
G I
t imer
Ġ5 6
c ard
L oc
0000 0000
ert ex
ĠS QL
old er
Ġg ener
Ġf write
LE D
v s
CO MP
d ump
s size
g c
p w
e qual
Ġde bug
Ġsy s
VIDE O
N o
n l
v l
r ad
ctx t
Ġal ready
Ġth an
@@ ],
Ġg en
Ġpar ent
Ġca che
con tainer
c ert
w arning
EX P
fl ush
V ector
)) ))
Ġp thread
P AT
Ġp uVar
P ix
MA P
a udio
c re
il y
gen er
t itle
T his
T ra
ma g
Ġs kip
ba sic
Ġstr cmp
Ġrec ord
d bus
bo se
or age
Ġ*)( *(_
spr intf
Ġfile name
F ALSE
Ġp ref
lic y
Ġr un
Ġr v
Ġc b
Ġp event
F unc
Ġv a
on ly
P T
p g
Ġd im
Ġh ost
il t
F LO
p v
m id
g int
ĠA TS
la pack
Ġĉĉĉ ĠĠĠĠĠ
man ager
Stat us
file s
6 9
ur ation
Ġsy stem
TE D
MS G
Ġu s
IN C
et ch
i ent
ta ck
u d
RES ULT
x f
r s
ot her
USE D
P ER
\ ",
ĠD e
o u
k nown
) &
re ply
Int er
Ġb its
Ġma y
Ġval id
Mem ory
Ġl ink
// //
Ġĉĉ ĠĠ
iter ator
ĠĠĠĠĠĠĠĠĠĠĠĠĠĠĠĠĠĠĠĠĠĠĠĠĠĠĠĠĠĠĠĠ ĠĠĠĠĠĠĠ
F R
Ġ\" %
-> (
li p
Ġc or
en tries
Ġ*/ );
tr act
b egin
Ġ10 24
str a
H andle
' \
0 3
B ase
W AR
ad ata
p kt
" "
w ard
Ġ load
Ġh r
At trib
B lock
Ġch annel
il ity
RET URN
TR Y
ĠG WEN
Ġver sion
al pha
low er
st amp
m er
Ġ1 4
Ġth read
le ss
ro ll
Ġz ero
Ġs um
M B
bo dy
(*( _
se n
re sponse
P TR
Ġt ag
cur r
Ġ height
field s
sh ape
P UT
ma il
co unter
n a
O ption
v m
sh ift
an s
6 1
re ction
at al
Ġl Var
N one
A pp
to k
Ġpc Var
M ax
str n
S N
ch k
Ġ*) @@
BO X
c sa
Ġre al
ĠA RG
point s
. ");
6 3
Ġ1 3
col s
ĠC on
Ġĉĉĉ ĠĠ
FA I
w ait
D F
Ġ** @@
G F
F rame
ver se
De sc
H A
S ub
to ol
re p
M D
int n
) ==
l at
++ ]
Ġco mple
O p
Ġp ng
Ġ) ,
not ify
bo und
INTER P
Ġval a
n on
p attern
e ded
Ġa fter
Ġph ase
ĠFI R
Ġc s
ac cess
D o
ss l
ut ion
Ġg o
I V
line s
P RE
p b
comm on
an on
f req
UN D
xffff ffff
t ls
im um
r m
ĠC ON
Ġpa ss
S er
ĠĠĠĠĠĠĠĠĠĠĠĠĠĠĠĠĠĠĠĠ Ċ
Ġj ust
pert ies
Ġt op
ma ke
Ġ lock
n i
or g
Ġco unter
w c
Ġ1 8
as y
M IN
Ġ variable
p and
ret val
Ġme thod
H ER
6 2
R UN
ern el
N ot
pen ame
+ =
n tr
Ġg uint
M I
Ġs w
Ġstr cpy
scr atch
F lags
> \
F L
X X
F ield
Ġat tr
96 7
int nt
sy stem
Ġch ange
he ap
E W
um ns
H ash
Ġi a
se lection
R T
j o
fa iled
sk ip
de cl
MA IN
fe rence
ann y
Ġ LO
IN IT
Ġm ore
s ert
Ref N
RefN anny
Ġm atrix
me t
[ (
l c
BO OL
ĠĠĠĠĠĠĠĠĠĠĠĠĠĠĠĠĠĠĠĠĠĠĠĠĠĠĠĠĠĠĠĠ ĠĠ
an y
mem cpy
f g
r ule
AT URE
C I
Ġm ult
key s
M PI
N S
pybuffer nd
f name
p ed
L ONG
ĠĠĠ Ċ
DU LE
inter face
ap i
d n
Ġ DEBUG
ul ate
) "
ran ch
UN USED
ĠVAL UE
fin al
p f
sv n
Ġ! (
pre c
) -
Ġf in
Po s
n n
i mp
a ss
re set
O M
Ġs u
p ng
Ġs pace
LI BCERROR
Str uct
Con fig
Ġĉĉĉĉ ĠĠĠ
node s
E S
p k
id s
Re c
c le
i ro
======== ========
AT TR
Ġse ction
Ġsi g
s lot
vi ous
Ġtr y
OR Y
Ġs ame
U p
re mote
Po inter
N C
WIN DOW
x t
re v
Ġ root
7 1
oi ce
O pen
di rect
li m
7 3
del ta
I ST
I DE
in v
pe er
DB G
Ġi m
Ġĉĉĉ ĠĠĠĠ
d en
50 9
Ġt otal
ĠCO EF
MO DULE
] ))
cry pt
A UT
ca use
: ;
set up
Ġsa mple
s q
COL OR
t t
Ġ8 0
iv ed
S ele
at ing
O f
Ġĉĉ ĠĠĠĠĠĠ
ĠH AVE
coe f
g x
Ġ query
form ation
Ġre q
Ġt y
re source
Ġg lobal
E L
ai lable
(* @@
) ((
vari ant
Ġret val
Ġ20 48
Ġex ist
ca iro
de code
Ġa g
, %
Ġs m
] ),
ĉĉĉĉ ĉĉĉĉ
t ed
Ġs in
G ER
WR ITE
Ġput s
ĠS t
a mple
M ENT
int eger
Ġto o
ĠA l
Ġ $
f b
Ġf unc
sc m
n ump
' ))
RG B
ok en
ex ception
Ġse lect
[ \"
Y PE
PR INT
ot h
h ist
CALL BACK
Ġpo sition
AR T
BU S
Ġre qui
Ġ ...
Ġv ec
s in
O S
D IS
D raw
A C
bl k
> ::
gr id
Bo ol
ate s
Par am
th ing
Ġ" -
NO DE
e ar
- ##
. _
In put
c or
In valid
se g
FF ER
ly ph
Ġat trib
ial og
ab s
Ġw ord
g f
st e
Add ress
ĠE X
: \
co ord
O ffset
Pr int
o o
VER SION
Ġ label
co pe
ai se
> ,
sp lit
Ġ" ##
33 9
RA Y
@@. @@
00 13
OP ER
s lice
ai ro
ĠLA B
pand as
re r
nd er
TR UE
WAR N
A s
INC REF
Ġse s
si s
F E
ĠĠĠĠĠĠĠĠĠĠĠĠĠĠĠĠĠĠĠĠĠĠĠĠĠĠĠĠĠĠĠĠ ĠĠĠĠĠ
test s
D K
Ġs ave
se ek
bo ok
Ġal low
P ACK
yy ch
< /
," %
Ġinter nal
8 9
se gment
Bo x
294 967
Ġ order
Ġ signal
ver y
po st
Id x
Ġint eger
EN TRY
Ġv ector
Ġbe fore
at er
Ġg ot
k sp
M sg
sn printf
n am
C AL
Ġs Var
O W
Ex pr
c g
ĠĠĠĠĠĠĠĠĠĠĠĠĠĠĠĠĠĠĠĠĠĠĠĠĠĠĠĠĠĠĠĠ ĠĠĠĠ
ot tom
p lay
C UR
EN O
or s
Ġb l
i pe
vide o
DI R
Ġg pointer
Ġ{ {
p ing
sc al
Ġĉĉĉĉ Ġ
Ġa pr
build er
en code
F D
or ig
, (
ad oc
Ġĉĉĉĉ ĠĠ
rec v
bo ard
sp ar
char acter
G S
can cel
b d
ĠG ET
ro p
Ġinit ial
Po int
n ormal
sa ction
ĠMA X
re lease
ch ain
ff ect
d river
AN T
Ġm enu
m is
ĠX t
bit map
FAI LED
ĠU n
ext ernal
g t
Ġe ach
d ns
2 00
G roup
r w
st mt
Ġ ent
b f
A d
SS L
S tack
it ies
CON F
Ġstr dup
al t
T r
in ner
fe ature
ĠG N
Ġsh ow
Ex p
mem set
Ġbe en
b t
Ġc lass
x d
DO MAIN
em it
Ġv ir
Ġ sign
d t
Wid th
mem ber
gle w
FUN C
ĠS tr
BU FFER
Ġp s
Ġpla intn
WID GET
De stroy
comple x
d u
) +
\ @@
/ _
h igh
arg ument
Ġ& (
IG HT
m c
m tx
mo unt
le x
e f
Di splay
P age
a ir
Ġ* =
Ġcol umn
P er
Ġ DE
Ġpre v
N ext
Ġst ack
Ġ2 8
h r
; }
FA ULT
attrib ute
put s
pe ed
Ġch unk
Co py
it ten
T REE
f ra
ke ep
Ġm ark
M atrix
d m
Ġo ur
si te
Ġc airo
k w
Ġpar ams
te ct
Re lease
F in
25 5
G C
enc y
n v
Ġ( ;
ĠP ar
che ma
m ux
Ġpix el
sy n
Ġst rerror
d ay
p th
sit ive
us age
n ing
i as
s core
) /
Ġses sion
re port
pi pe
ĠF or
Ġstd err
p ub
code c
Ġ1 000
ĠI nt
E d
str ict
ar r
F REE
il er
de tail
in valid
O ID
ĠI P
ta ct
Ġb in
Al loc
l t
tr ue
pe ar
de rer
M ask
D S
fa m
f alse
ex tra
int on
P U
V ertex
9 3
TA G
Ġp e
cli p
eth od
Ġg sl
Gtk Widget
ar p
c red
So urce
Ġb Var
Ġalloc ate
N lm
ct rl
ro t
ro ugh
val s
di ces
l ang
U CT
l x
lic ation
sw ig
ĠN o
par ameter
Ġin d
Pr ivate
in a
ior ity
A CT
8 5
s up
ĠATS local
nump y
coe fs
n m
Ġ*) __
. @@
Ġa st
j son
le m
Ġ INT
VI CE
V M
Ġbe cause
G X
Ġso cket
Pro c
Ġse q
at t
ĠA dd
Ġ/* *
ĠS ET
Ġ7 2
Ġp ol
> =
ref e
Ġdi splay
text ure
res ol
Ġd ig
ĠA R
L ast
Ġd raw
C lient
pc Var
@@ ",
Ġ(( *
] \
E E
PAT H
cap s
ĠA SSERT
Ġ4 294967
v as
SU B
act or
fa ctor
Ġw in
B it
si o
FI L
k lass
ĠD AT
i od
in ation
we ight
lin eno
Ġi gn
A c
b x
@@ ]);
ĠV ec
6 339
Pro perty
Ġh andl
m v
**************** ****************
T ab
l ua
Ġsy mbol
Ġ PI
M ethod
AND LE
Ġcon nection
Ġpro p
i re
VER EF
T P
ĠGtk Widget
GI VEREF
Ġg f
GLE W
@@, "
/ %
Ġis l
desc riptor
al g
Mod ule
ĠPR OP
way s
T oken
sc ript
Ġu sing
Ġen um
M ET
I R
Ġ* _
t bl
= \"
Ġcon f
Ġ6 55
( '
ul ar
M enu
ann er
OP EN
SIGN ATURE
8 3
Ġcon vert
tra its
iz ation
Ġ' ?
D C
f ul
V er
ust er
word s
pro file
Ġc def
ut o
me ta
str casecmp
Ġe mpty
z one
Ġrb x
res sed
init ial
] ));
0000 000
@@ :
Ġde l
Ġerr no
Lo ck
8 7
AN GE
Ġĉĉĉ ĠĠĠĠĠĠ
Ġ" @@
Ġf s
ARG S
FLO AT
hel p
Ġre move
Ġ1 7
Th read
Ġf ix
Ġy ou
Ġap pear
ĠĠĠĠĠĠ Ċ
struct ion
Var i
po w
child ren
m ix
Ġd ist
ĠS pec
c x
Ġmo ve
Ġse arch
ver bose
ĠFI X
_ ->
igh b
RUN TIME
o ur
si p
ĠC reate
back end
fam ily
[ %
Ġh dr
ran k
a sc
UB LE
Ġ(& @@
R ect
1 000
not e
al le
X ML
g it
channel s
ate g
He ader
A G
00 14
ol ks
lib cerror
z z
ĠT h
ra m
mo v
FAIL URE
g a
FUN CTION
Ġs z
S QL
ĠS DL
Ġb fd
CC ode
comp are
read er
d py
A A
d er
strn cmp
ph y
D P
x p
Se q
i ce
Le vel
At tr
g boolean
aut o
Ġpo ol
F ont
ip her
GR O
con vert
Ġw ant
T emp
S PE
ĠX ML
Ġoper ator
Vala CCode
Ġp id
g g
Ġd y
i ats
b g
vol ume
Ġcon n
ĠĠĠĠĠĠĠĠĠĠĠĠĠĠĠĠĠĠĠĠĠĠĠĠĠĠĠĠĠĠĠĠ ĠĠĠĠĠĠ
E LD
R ow
VI EW
r ing
ĠN GX
Ġ queue
Ġ" ",
so und
CT X
ĠP o
ALL OC
t cp
fin ish
Ġ' "
Par ser
Ġtran s
cal c
er min
10 24
co o
sw ap
en e
Ġa ss
LI B
ĠS TR
d uct
Ġpref ix
p layer
C a
ĠM S
im it
k i
s ql
g round
EV ENT
ce ived
N ET
lo sure
ta x
block s
P LAY
medi a
j or
le g
Call back
x pan
ĠP ro
uni code
de lay
n def
Ġ1 9
OR M
Ġf ill
Ġĉĉĉĉĉĉ ĉĉ
Ġ `
G EN
B LOCK
S pec
pend ing
Ġ3 0
FIL TER
u v
se quence
Ġbo und
comm ent
tx t
ol low
> (
g ot
:: __
Ġc lear
__ );
c xx
S IG
ome try
x ff
di ms
Par ameter
E P
si mple
Ġen v
Ġbo ot
sf er
ip s
g b
Ġd at
m x
ax is
Ġcall back
arch ive
g ame
pa y
ing le
en coding
i an
ĠE rror
Ġchar acter
Ġs l
p thread
Ġi mp
mon itor
## '
Ġ{{ '
U ser
Ġse c
Ġ{{' ##'
ĠPy Err
desc ription
nc py
Pix el
hel per
\ \
C B
ĠSQL ITE
) ");
Ġh t
Ġde lete
al f
A nd
a z
di rectory
De f
al k
Qu ery
Ġn ull
Ġa ction
ve s
r id
E LE
! \
temp late
BU TT
con v
o red
5 12
UN K
Ġ++ @@
select ed
Ġw here
si z
b ad
B AD
Ġs ure
im al
Val id
gn ame
ed itor
RE AM
BUTT ON
I ZE
Ġdi rectory
Out put
, *
met adata
I FT
Ġc alloc
c leanup
Ġat om
Ġex pr
Ġat oi
ĠS CM
sample s
asy nc
Ġal ign
Ġ*) ((
& &
SU PP
1 64
BA SE
n eg
attr s
t ile
0 5
@@ ==
C ell
op code
EX IT
ar m
Ġab ort
Ġstr chr
] *
ĠF T
A p
Ġc y
P ort
var s
mult i
so ap
UM ENT
_ @@
ĠC h
pi Var
X m
TR ACE
event s
r on
0000 00
UN ET
com bo
Ġs d
PARAM V
ĠL o
OP Y
Pro cess
iv en
Ġf open
ĠG st
AD DR
M ult
Ġf e
er a
fa ct
Ġc ell
Ġbo x
8 1
, @@
v c
s inton
, *(
T he
Ġt p
. (
t i
ing s
d ition
Ġn gx
Ġv ol
con ds
Ġl p
s ched
Ġa cc
Ġf ull
ON LY
pro gram
si st
if ndef
Ġa uth
BIT S
Ġ^ =
ap s
arg e
b fd
Ġ ];
0 6
Bo olean
Ġ*( (
ne ed
ct ype
Cur rent
8 2
SS AGE
AUT H
ext ension
inter val
enable d
14 7
SH A
Ġ(( *(
db e
fd s
_ @@;
B L
Ch annel
9 1
O n
RE Q
P l
Ġp t
Ġ 96
Ġf close
ĠCo mp
h y
A F
w ib
sp ort
Comm and
Ġw ait
Ġ% %
Ġ la
Ġse e
at ype
Ġsc ale
ific ation
em on
Ġre l
ip le
in f
char s
w ise
Sc reen
LL OC
h d
B utton
P art
Ġty pename
ĠF A
Di ct
stra int
C an
DE FAULT
N V
ac count
Ġpar ser
ap t
Ġg t
x b
Ġto k
ĠĠĠĠĠĠĠĠĠĠĠĠĠĠĠĠĠĠĠĠĠĠĠĠĠĠĠĠĠĠĠĠ ĠĠĠĠĠĠĠĠĠ
DO UBLE
@@) ->
_ ("
ue st
Ġst ore
ĠCH ECK
la sh
U I
C RE
Ġbu ild
Ex t
di v
S R
ust om
Ġm b
in eno
g i
l ight
LE FT
SH IFT
OT O
to re
ĠĠĠĠĠĠĠĠĠĠĠĠĠĠĠĠĠĠĠĠĠĠĠĠĠĠĠĠĠĠĠĠ ĠĠĠĠĠĠĠĠ
H ANDLE
R o
d v
r ary
Ġ edge
Ġex ec
E A
[ -
k b
al low
w s
M o
frame s
int val
Ġv iew
(_ ("
Ġbe g
ent ity
Ġc leanup
Ġs ol
Ġb ad
io v
Ġĉĉĉĉ ĠĠĠĠ
W N
Ġb et
Ġ" .
min or
R D
Ġt wo
TR AN
d sa
st orage
Ġt d
D oc
Ġf ont
P LE
CO M
Ġ et
Ġinter face
Ġ head
s ink
si ve
ST ART
Ġ6 0
TH READ
Ġ' /
Ġ loc
Ġ er
ho ok
AN CE
1 10
Ġ" <
Ġsock addr
r hs
__ (
ĠIn it
re nder
Ġp v
Ġ ERROR
Ġ UN
io s
D A
pro perties
x e
h ex
Ġin sert
al et
Ġth rough
Ġn b
ĠA AV
E Q
Ġ3 1
k ind
Ġreturn ed
po licy
IN ST
w are
se m
ide o
g id
Ġsc reen
Co uld
N I
IN LINE
l g
G IN
v o
e pi
ss p
C F
arg p
M EN
a ux
FI X
ĠN O
Ġcur sor
p S
@@+ @@
ĠS y
x a
Ġm s
c ed
c code
g gle
mp z
vert ex
US ER
S W
o ugh
gn ome
Ġco uld
LO B
Ġmode l
w arn
b order
Ġe mit
00 16
mp i
Ġal pha
S M
ig ger
g ui
pass word
2 48
ch ine
Byte s
init ion
w ok
ĠE V
Ġr dx
Cont rol
v f
par ator
c ent
P ORT
opt arg
De bug
Ġf mt
Ġac cess
dig it
C lose
Ġoper ation
R L
n ative
ta ins
o uld
ĠĠĠĠĠĠĠĠĠĠĠĠĠĠĠĠĠĠĠĠĠĠĠĠĠĠĠĠĠĠĠĠ ĠĠĠĠĠĠĠĠĠĠĠ
v t
O G
ĠD o
in ode
3 64
PR OC
Ġmod ule
Ġs uccess
12 0
2 64
re sp
d ummy
u age
as m
alet te
ER O
CONF IG
P F
IN K
s qlite
Sele ct
ĠT O
IN D
Ġtemp late
ser ved
t b
ilt in
-- )
t ion
ith er
Ġs upported
Y P
proto col
el f
sh ell
Ġfile s
and om
b and
In st
Ġ[ %
sr s
Tran s
Ġit s
g ine
final ize
@@ ][
rb lapack
me tr
e val
Ġcal c
T ABLE
iss ing
gs l
ARG UMENT
Co ord
00 15
f il
prog ress
attrib utes
Ġreg ion
Ġm u
e sc
Ġ ulong
CA ST
Ġlo ok
AR RAY
f v
put c
Ġs upport
pay load
SY S
ad ow
m u
Ġsin ce
g st
o ol
la p
B R
m r
nam ic
Ġcur r
sp tr
cl ar
D T
w kt
Ġfield s
ĠS V
Ġ% .
Ġ2 00
ĠTR ACE
ow er
ser ial
jo in
ST REAM
Ġex tra
TE GER
M in
pre sent
] +
Ġg dk
dis k
i us
Ġh w
He ight
ut ter
18 0
Ġne eded
Ġx mm
rea ch
Par ams
Ġ @
oper ator
s cope
comp ress
or ld
he et
OPT ION
C LE
at tach
iz er
ĠX m
Mode l
SC M
che me
mple ment
Ġde c
ag ick
D ir
P M
Ġt c
v box
ĠW IN
Ġdel ta
resh old
De lete
Ġr te
Ġd if
Ġst op
Ġel if
Ġv i
vid er
W A
Ġc re
main ing
Ġ ERR
iter al
ho me
t ol
unk nown
ip v
b lob
HE AD
Ġ GR
MEM ORY
ĠS O
ma ster
vi sible
add ing
Rec ord
s uccess
Ġwid get
CON N
w y
Ġf ollow
F ind
Ġs ort
)) _((
track er
D is
p to
mp t
g pointer
Option s
F ilter
Ġspec ified
v d
el p
PO INTER
@@= @@
CON TA
Ġm an
Ġs q
Ġj ob
ok ie
g ed
B ER
(! @@
lo bus
x F
element s
b Var
ĠRe ad
Ġpre vious
< =
Ġ' -
Ġ LOG
Ġ ed
E INVAL
Ġ( **
Ġli mit
Ġhandl ing
Ġ{ "
Ġd p
X t
pp ed
h id
Ġre set
U ID
Ca che
C D
Ġt ri
s upported
Ġin formation
Ġ) );
Ġre ct
Sy mbol
Ġd iff
Ġtime out
L M
h box
h a
D b
AR B
ĠM em
Ġ*( *
Ġst ep
Ġĉĉĉĉ ĠĠĠĠĠ
C OPY
ĠO n
Re al
able d
& @@
Ġargument s
ĠFIX ME
Re quest
IT H
se p
Ġtra ck
G N
P re
time stamp
Ġp p
R ange
RO M
Ġa x
f older
ĠD B
se ss
Ġc t
tr i
fa c
q p
Ġ40 96
col umns
un pack
px i
WARN ING
P etsc
par e
++) {
b est
M atch
sa fe
Ġe p
wok sp
Ġthe m
D ialog
F loat
dl g
Ġbe st
ex ist
Ġun able
Ġpar ameter
0000 0
FLAG S
CO UN
up per
db g
ter min
Ġr t
Ġf t
.. ..
Ġsh ift
Ġpar ameters
tr l
Ġĉĉĉĉĉ Ġ
Ġĉĉ Ċ
con tact
Ġ/** <
Ġm on
d ot
Ġal ways
le ep
n f
ut ls
C LI
AT IVE
t ex
Ġ5 0
Ġp error
ro ut
bin ary
ĠM O
b ottom
Lo ad
DE X
Ġre sponse
ab el
pl it
ĠT cl
T ex
e red
EN ABLE
gn o
Ġc r
Ġq word
bo ve
Ġcon nect
se cond
am ma
Ġb utton
UR CE
Ġ3 6
Ġse cond
Ġs up
CON ST
c lock
Ġ ))
ET ER
comp onent
ĠGN UNET
sc roll
PR IV
Ġt a
4 00
st rerror
d h
B ack
ĠG F
p in
ĠStr ing
c enter
Ġrequi red
NE W
(( _
Ġex pa
sh are
); }
FI ELD
' re
t ot
lic it
Ġ2 2
ĠT YPE
ad just
a ded
PR OTO
ne ss
Ġdoes n
T ag
) ]
Ġn s
ap ter
m k
r at
vi rt
ase t
at ile
10 8
P K
test ing
Ġn ormal
AR D
Ġdim ension
NO WN
Ġus age
Ġpo ints
Ġen tries
a ff
e b
. %
W ord
is c
c cur
Ġse gment
m ime
:: _
pt s
dig its
refe rence
i code
VE L
Ġpro perty
G Object
O r
ow ner
g lyph
i str
S ec
-- -
Ġc i
IN ET
Ch ild
cp i
E nt
Ġsc an
Ġm k
B its
cl ineno
f olks
Ġav ailable
TH ON
Ġc li
b ig
alle l
J IT
Ġ" (
color s
Ġt ermin
and ard
L ay
ĠU INT
I A
detail s
rg b
sp in
H I
Cur sor
++ ,
in clude
ort ure
Ġm at
Ġj son
wr iter
rc buffer
@@< @@
coe ff
o v
LI C
to col
Val adoc
v is
stride s
c pl
SE LE
ĠT est
mer ge
Ġo wn
k ernel
Ġ! @@
Ġr ad
] ]
6 30
Ġan on
CH E
Set up
Ġg raph
16 0
e ad
Y S
= '
de coder
ent ial
end ing
ĠG DK
el ine
me d
19 2
Ġal so
Ġd ump
ĠH RESULT
pack age
Con nection
Ġin sn
GRO UP
ht ml
cont ents
ON T
F C
Ġco ord
Up date
//// ////
Ġk rb
Ġ1 12
R B
gener ic
N AL
par ameters
Ġ5 12
per m
s age
Re turn
n orm
Ġn p
Ġsy n
trans form
vi sion
FA CE
of t
dig est
ĠL I
US H
pix buf
error s
Ġy acc
i ces
Ġfail ure
CON T
t ual
ĠB O
Ġn c
l n
G WEN
AR Y
ĠA C
mtx Ap
ĠS C
Ġ20 64
we en
c ut
UNK NOWN
G MT
ren ces
Ġĉĉĉĉ ĠĠĠĠĠĠ
ĠĠĠĠĠĠĠĠ Ċ
Ġ low
Ġf f
t le
fo c
Ġo b
f id
s ch
ac cept
*) (
Ġ(" %
Ġd word
Ġbeg in
, -
Ġe cc
od y
Ġb ranch
N et
Ġde pth
f x
y g
Fin ish
ĠT r
Ġd ummy
f atal
IN ER
Ġr aise
W S
Ġ2 5
ĠG Error
W I
Tra ce
_ )
Ġde code
Ġattrib ute
offset s
UT F
aw k
ĠSpec ial
un ch
es sion
Ġcor rect
FOR M
Ġsi de
Ġ1 20
o om
B y
comm it
ĠM U
l k
Ġse quence
ĠS L
LO CAL
e ch
Ġdo c
Ġt x
Ġ( )
Ġ Value
Ġĉĉĉĉĉĉ ĉĉĉĉ
le af
App end
oper and
Ġdi ct
sh a
S V
00 17
W OR
s mb
P G
match es
ĠC K
Ġn a
~ ~
it ude
W r
to ggle
Ġre port
re alloc
14 0
| |
t f
St yle
Ġm m
V OID
s list
wh ich
un def
Ġt m
Ġd w
11 8
str cpy
G lobal
Ġc nt
ST D
10 4
C lear
Con vert
g d
ad j
ren derer
De fault
S F
c ipher
7 68
ind ent
W in
s x
sen sitive
gr p
Le ft
p at
_ ->_
@@ )))
OR TED
Ġcomple x
g uint
F lag
Ġh igh
ĠĠĠĠĠĠĠĠĠĠĠĠĠĠĠĠĠĠĠĠĠĠĠĠĠĠĠĠĠĠĠĠ ĠĠĠĠĠĠĠĠĠĠ
Ġc c
Ġ location
inst all
Ġm d
STR UCT
Ġwh at
pixel s
pol l
Ġd c
Ġsm all
fix ed
Cont ent
Ġun it
f etch
Ġo s
Ġ8 8
mo ved
set ting
ĠM ake
Ġu i
DE VICE
K ER
const ant
bu cket
sa ved
Ġcal led
Ġw arning
re nc
for ce
en ded
comple te
ME SSAGE
pr im
Col umn
ow n
v sp
t ctx
pr iority
Ġi b
Y THON
Ġpro gram
Ġf n
ĠG dk
CM D
act ivate
l v
m ar
TE X
i mpl
ĠD BG
wr itten
Ġdo wn
G ST
w p
Ġ" ");
p Parse
ri ve
sw er
su ff
ĠA L
p le
IN PUT
Un known
bl ue
p ic
al ias
ĠFA IL
ighb or
b atch
E num
DE D
re co
ĠS SL
Ġ*( &
la use
En v
S tore
Po st
M ON
vi ron
asc ii
ĠN um
sh ader
Ġpl ugin
S ample
A n
ĠL D
S D
CONTA INER
0 9
ld st
C annot
( (@@
DAT E
A ction
ty p
ver ify
58 4
Ġi i
T F
Ġd up
Ġ% [
Ġset up
it ing
Ġb p
I I
ent ic
Ġch anged
use c
Ġcont rol
E MP
ct r
Ex ception
Loc al
Ġre alloc
s peed
n x
Ġs ingle
n il
PARAM ETER
D el
oper ation
cur ity
CO MM
C tx
sk top
75 3
PR I
af ter
clude s
as n
a cl
pc m
in line
Ġ utf
Ġa uto
Ġb ind
av ed
me sh
P H
do m
Ġt erm
pp ing
Ġf ra
' ",
AR CH
]= ((
Ġp ack
S ig
in dices
SS ION
@@ ])
Ġg e
V ec
bu iltin
Ġa bs
local e
ĠRe g
IF Y
U sage
Ġ! *
Ġthe y
Ġp rec
LE VEL
g ing
di rection
Arg Error
Ġp ad
MA GE
Inter face
T OK
Ġlib cerror
us b
util s
G ener
X Y
MO D
Ser ver
V A
ĠP r
Ġdo main
) _((
act ers
Ġf flush
Ġr aw
Man ager
Ġh andler
ĠN T
Ġre strict
Ġ' .
SE C
qui re
re loc
ip eline
DEC L
CT OR
ific ate
Ġspec ial
Exp ression
88 8
Ġ% "
fo o
ĠS IG
z ip
N ORM
te ger
RE C
mpl er
Ġma il
MA C
Ġb a
QU AL
kw ds
imp ort
group s
ment s
Ġ* **
H andler
Ġg iven
Ġen ough
exp ression
Ġn eg
net work
Ġp j
13 0
en coder
A ll
en gine
Ver sion
w atch
la ck
() .
ĠP K
et her
00 2
se ns
ta gs
Ġstr m
Ġa void
l ush
STR IDE
ig no
qu ot
ry pt
b m
c alloc
PRINT F
Ġpro g
MEN U
arg in
Ġĉĉĉĉĉ ĠĠĠ
fe rent
CON TEXT
M UL
ĠD i
Iter ator
di ag
H awk
Ġn r
V dbe
Ġme ta
pl an
Ġpos sible
AT OR
fact ory
or ith
Last Error
e ff
Ġign ore
h p
A SE
Ġf o
NE L
u uid
r pc
unt il
X frame
O O
en a
T erm
IN DEX
1 12
up t
foc us
nd r
Ġ(_ ("
ver age
Ġs lot
cal ar
ro ute
Ġp attern
h l
re place
Ġact ive
Ex c
Ġs r
Ġstr cat
De clar
host name
I BU
Po sition
g ree
ateg ory
Ġr ule
Reg ister
pix map
N ative
pro ps
Text ure
S DL
68 3
Ġw ould
Ā Ā
g db
Ġp iVar
2 000
con s
AT S
; \
h ave
LA BEL
w m
S a
Ġĉĉĉĉĉ ĠĠ
ab ility
(" /
RE AL
Ġ" "
ce ive
x FF
el t
Ġnet wib
len d
PRIV ATE
err msg
Ġp ipe
lic ate
ĠW rite
r B
Ġt s
29 5
is o
te ms
Ġd t
ĠT I
Ġg s
Ġbet ween
ser v
Value s
c ar
G e
ex port
l on
Ġinst ance
L F
(& (
S pace
w t
header s
rand om
ĠB YTE
Ġd s
0 7
HO D
E qual
sn ap
Ġ10 4
Ġdata base
UR L
Ġ keep
A ssert
ĠA bc
C md
Ġl d
Ġre ference
air iats
)) ->
ss h
pan el
ĠRe turn
RO W
Ġ2 1
ENO MEM
Ġ' :
re size
if orm
so le
IBU TE
er ic
AN E
Attrib ute
Ġ6 3
an airiats
F irst
per f
ĠM P
L abel
Di rect
SO CK
ident ifier
Ġwith out
spec ial
it ical
@@ *@@
par m
Ġsc al
Bu ild
ĠN PY
Ġ ..
Ġp op
ĠI t
sc anner
hist ory
Un able
Ġt ab
COUN T
ĠN ote
PRO CE
S urface
get s
Ġen code
UE ST
FR AME
ab ort
L C
AL OG
size s
on s
ĠĠĠĠĠĠĠĠĠĠĠĠĠĠĠĠĠĠĠĠĠĠĠĠĠĠĠĠĠĠĠĠ ĠĠĠĠĠĠĠĠĠĠĠĠ
ut down
10 6
Ġid ent
Ġover flow
m ary
Ġas sign
c am
Ġrow s
Ġ REG
RE NT
thread s
r te
pr i
Ġs size
sign ature
ORD ER
alloc ate
Ġ4 4
R NA
pe g
L ink
Ġe very
ĠĠĠĠĠĠĠĠĠĠĠĠĠĠĠĠĠĠĠĠĠĠĠĠĠĠĠĠĠĠĠĠ ĠĠĠĠĠĠĠĠĠĠĠĠĠĠĠ
F IN
Ġbu ff
Ġr a
Con st
ĠN one
Ġm issing
u char
av ail
M U
g ap
sl ate
m and
mark er
f w
Ġh ton
app en
Ġd id
cli ck
ition al
nn z
ELE MENT
ĉ Ċ
end er
Ġdi rect
end or
J ob
ĠL IB
DE SC
e ps
MB OL
H AVE
", @@
sr v
exp and
Ġs cr
un ion
ĠD ata
DE V
2 10
Ġex pect
unt ime
id le
e a
tr ie
b v
ĠF OR
Ġg lobus
n z
0 48
SP ACE
Ġst uff
mb da
array object
se ct
Ġf i
Ġ2 6
ĠTO DO
Ġfin ish
col lection
ĠU se
Ġm id
S rc
Ġc ert
sh ot
err val
% %
err ide
Ġle ast
t ure
Ġn l
si x
c info
K P
Ġgr id
ST ACK
Ġstr ide
Ch ange
Ġt ask
Ġk w
Ġpro be
P ET
ĠĠĠĠĠĠĠĠĠĠĠĠĠĠĠĠĠĠĠĠĠĠĠĠĠĠĠĠĠĠĠĠ ĠĠĠĠĠĠĠĠĠĠĠĠĠ
S ession
ac ity
(& __
Ġh appen
C LO
38 4
Ġinit ialize
Ġare a
Ġab out
as sed
S AM
a u
se ctor
Ġif ace
147 48
19 7
c rc
: //
w here
Ad dr
Ġcomp ute
Ġp y
Ġ[ -
LOB AL
ĠS o
Ġf ft
c n
Ġser vice
. *
ĠA T
S eg
Ġp i
metr ic
rea son
6 55
up s
es ats
cl uster
page s
Z ERO
SUPP ORTED
) ];
Ġ! *(_
Ġs mb
Ġelement s
ĠF ind
Ġa bove
] ==
-> __
Ġlo okup
W M
pow er
Ġk now
Ġgr ub
Ġ*) *
Ġso ap
h ing
ur ple
ge ometry
sc i
LI KE
Ġ1 27
13 8
AR K
; )
Ġht tp
__ __
as sign
Ġb oth
Not ify
yy vsp
xpan sion
Ġ" _
A ct
Ġstr ncpy
x mm
part ition
pe at
A I
map ping
W ith
ro ad
24 753
Ġline s
R ight
ĠN ot
Ġt alloc
CLE AR
D ER
u ally
b n
ĠA rg
Ġpro c
y ear
ĠC R
ĠE n
Ġp ush
scan f
f h
suff ix
r q
sp a
doc ument
window s
if o
() :
qu ark
15 9
ĠM IN
cle s
C y
si ty
PR OPER
ĠI S
Py Exc
si b
Ġ655 35
Ġselect ed
w w
Ġy et
ĠR SB
result s
t orture
cl u
Ġexpan sinton
Ġag ain
ĠU p
el ist
Ġerror s
f re
CH AN
ĠG EN
p n
p lot
Ġc d
j it
sing le
G raph
ĠF ree
AP P
ble m
ab l
ĠG MT
ĠA B
Ġdif ferent
A pi
Ġev en
B ind
string s
Ġor ig
ĠB u
mo use
Ġn to
? ?
et ime
de sktop
Ġp k
Un it
Ġp g
ĠD WORD
DB us
p cb
O per
orith m
ĠU SE
Ġsys fs
mem cmp
Ġg n
ast er
Ġl it
pref s
can vas
ub e
wrap per
nt val
rea ms
Ġname s
Ġdi sp
ath er
Do uble
B B
M alloc
s heet
STAT IC
ub yte
mag ic
pre ss
F e
oo ser
cre ment
Ġread ing
t if
uest fs
S ON
NORM AL
CONN ECT
h int
con struct
@@]. @@
atom ic
ĠN ow
Py Tuple
RE D
ph one
check sum
il ing
ĠY Y
pl ane
LIKE LY
ect ion
un less
py thon
x fs
Tra ck
RE CT
us r
Ġsa fe
end ian
R aise
ĠA F
Ġc ar
dy n
Ġcont ent
PR OP
16 8
Ġres ol
di e
ag ent
Ġc fg
ĠS e
Ġf all
tran sport
buf len
CP U
Ġcon dition
comp o
ĠF ile
Ġext ension
g reen
@@][ @@
back ground
Ġ1 44
Ġconst ant
Vari able
Mult i
on ents
loc ate
Ġpa ir
tran saction
te red
ST ORE
Ġre source
on al
Ġd x
Ġre ply
A uth
o ke
Ġm ight
Ġf ace
' ");
s pect
AT CH
a e
Ġpacket buf
s nd
ĠTr ue
Ġt imer
Ġinst ead
b ranch
and id
sup er
Ġfin al
Ġ lower
DI ALOG
OR ITY
ch or
ĠIn valid
@@ ");
12 7
G en
ver s
x l
A CTION
Ġ' ,
G st
n len
la pi
I AL
Ġst dout
r u
Ġs s
let ed
Ġa sn
Ġmax imum
Ġs sl
Ġt v
comp iler
f m
Di sp
Ġats lab
Ġc m
A IN
LO C
Ġ2 3
am l
LE TE
Pr intf
Ġwork s
re st
E nc
u dp
Ġm any
ps z
1 48
Ġthe se
S ave
init ialize
m g
Ġapp end
Ro ot
R IGHT
] -
row ser
ĠLI BCERROR
ss ing
-------------------------------- --------------------------------
syn tax
. ,
Ġ" ../../
Ġs b
Finish Context
RefNanny FinishContext
Y Y
Ġpla in
Ġorigin al
Ġ(( __
Ġro ut
Ġset ting
14748 364
c q
ĠC L
Ġst yle
ENT ER
Ġr p
un its
c ustom
c losure
M at
E PS
Ġl db
Ġĉ ĠĠĠĠĠĠĠ
t alloc
h ints
g dk
N M
N tk
MET HOD
m f
Pro gram
user name
ĠC YTHON
Se arch
bind ing
ge st
dim info
w ap
j ump
Ġd a
Comp are
ad ing
A tom
ur m
Ġop code
Ġ/ =
Ġnode s
Ġse g
R F
(( *
se ed
Ġe lem
Ġst ill
Ġb ig
] :
co st
Ġ heap
ĠS EC
LO AD
x s
C ert
O rd
Ġs pa
\" ",
Ġtest ing
P acket
- %
Ġ EN
or ter
Ġd ns
P ack
tran sfer
g ate
12 3
igno re
Ġb us
_ %
m gr
w pa
++ ]=
Se quence
pla in
Ġi mplement
imit ive
w ind
reg ex
Ar gs
Ġcon tain
co okie
align ment
Ġ' )
of s
) *(
b ra
px d
k p
ĠG List
ĠT ype
Ġ KEY
q h
ĠPI PE
qu ad
PO INT
*) @@
Proc Address
Ġh ow
ch oice
Ġc ap
ra ise
Ġbe ing
In teger
T CP
ue ue
ma jor
ph ase
i mm
Ġb g
ĠX XX
s chema
HEAD ER
cond ition
le s
r tx
Ġad just
r tp
renc ed
Ġ until
Ġr d
PA GE
log y
viron ment
c data
Ġw ay
map s
re po
Ġmp fr
Ġevent s
or iz
ĠS H
ĠS h
sh adow
Ġg c
ĠC PL
I MP
Ġv ert
er ge
an el
work er
MAT CH
Ġre p
pro vider
Ġb s
Ġcol umns
ĠF alse
for ward
pi ct
) (@@
. ;
Ġcon tains
Inst ance
L IT
Ġp kt
al c
sp an
in o
E QUAL
b las
! !
Ġact ual
Ġbe low
25 683
Ġh o
Ġext ern
MO VE
oc i
ĠO ut
Ġt ake
AL IGN
888 584
: ",
Ġfor m
Ġp m
FILTER ING
Ġk ernel
p P
Memory View
Ġex tract
ms a
ab fd
Ġĉĉĉĉĉĉ ĉĉĉ
Ġup per
D ate
L INK
Ġe val
14 4
T arget
ĠM at
rad io
I con
B D
Co mple
bound s
Ġp lay
y s
Ġj o
ty pename
SY MBOL
8 00
Ġchar acters
arp u
A X
l b
ĠLO DWORD
Desc riptor
Ġb t
ld ap
or ary
dr v
Ġs aved
Ġse nt
Ġctx t
Re source
S calar
Ġs nd
Al ign
ot ion
comp at
Ġre mote
count s
Ġlen a
em u
ut ed
R et
char set
LA DD
v q
Ġ3 4
) ?
I MAGE
road cast
Ġre fe
Int ernal
T LS
ĠP O
10 7
x i
ur f
p alette
app lication
Ġdi ag
w l
AP H
v ty
lo or
k rb
U int
Ġi con
bo ot
A udio
Ġde stroy
er ator
i mple
qu ant
lang uage
D Y
; @@
Ġs f
n el
ge om
Ġ% #
Ser vice
Ġnot hing
Ġen coding
ft p
Ġtest s
or ing
Ġexist s
g uid
as on
Ġs k
ĠN C
80 80
Ġ ],
ĠS RC
\" \
IL D
D et
15 0
Ġblock s
t ty
lo ts
Ġc info
F alse
@@] ->
ir q
po se
ext ent
be fore
Ġun known
Ġs urface
L T
[ ],
ĠMU LADD
M C
= @@
Ġle t
re m
Ġl ater
M ark
A SS
Vari ant
ĠW h
Ġli ke
S ign
PROPER TY
li ed
Ġi graph
Ġ4 5
cro ll
pro ject
st age
r f
ĠA PI
Ġch ain
a o
Ġsw ap
Ġro und
urn al
t ip
Ġpe er
================ ================
ser ve
Ġi c
LE AN
per iod
n dim
Ġip mi
h alf
00 18
MODE L
cl one
CA LE
CON TR
n one
ref s
ĠĠĠĠĠĠĠĠĠĠĠĠĠĠĠĠĠĠĠĠĠĠĠĠĠĠĠĠĠĠĠĠ ĠĠĠĠĠĠĠĠĠĠĠĠĠĠ
HA SH
M on
Ġkey s
HO ST
Ġ% @@
Ġg p
res ses
buffer s
sp i
cancel lable
ĠT H
opt ind
Reg ion
Ġpv Var
Ġg db
alloc ated
O ne
Ġsample s
R I
Ġr andom
j a
Ġrec v
d rop
tect ed
ĠA SN
Ġh ard
ĠH e
2 20
Ġsc m
X P
A sync
R el
@@ >
Ġd d
we b
Ġel f
roll er
pro b
stat es
RE SP
PA SS
SIGN AL
d uration
Ġco m
sh al
Ġalloc ated
ap ply
ref resh
ar f
Ġ" #
2 11
CON D
ma cro
p atch
her it
Ġ" --
Ġs plit
U ST
Ġ1 36
13 7
Re s
ĠGtk Tree
x m
valid ate
Ġgr n
HT ML
FLO W
ccur red
Q R
x dr
10 1
Ġfor ce
ur ing
vol atile
Ġre lease
co mb
Ġdesc riptor
Tr ue
03 64
ist ers
Ġfft w
l iteral
Ġz conf
device s
Ġ++ ;
P HA
Ġa udio
Ġc mp
edge s
ang o
P LA
Ġe ither
M agick
Ġ" [
L ib
Get ProcAddress
Ġset tings
re qui
ĠCo py
] ",
Ġpo st
se parator
m n
Ġĉĉĉĉĉ ĠĠĠĠ
su bject
Ġc lock
," \
ĠBO OL
Set String
Ġf r
ex tract
str act
t un
cess ary
ar row
p itch
__ @@,
Ġ>> =
B egin
ĠWIN API
Ġwe ight
Name s
ll u
ar c
ĠĠĠĠĠĠĠĠĠĠĠĠĠĠĠĠĠĠĠĠĠĠĠĠĠĠĠĠĠĠĠĠ ĠĠĠĠĠĠĠĠĠĠĠĠĠĠĠĠĠ
w orld
de mand
pl us
Ġp layer
@@[ ]
Ġmem ber
dis able
u ch
Ġf actor
t id
Ġalloc ation
av ailable
Ġf re
Ġstat s
20 8
Q ueue
LE X
*) "
desc r
in str
stra ints
ĠP er
u ce
out file
@@ \
de prec
al en
T OP
ro ls
ĠB IT
Ġa ux
SPE CI
P ol
SQL ITE
ĠP RO
xx xx
Ġrequest ed
j s
c u
S end
Ġ* *(
Ġfix ed
ci sion
SER VER
RE SS
ĠO K
Is OK
Ġd ialog
Ġdig it
Re ader
Ġim g
M ake
[ *
Ġre st
G B
Sc ale
Ġwr ong
Ġexp ression
Ġd river
GR E
ĠPR I
EXP ORT
Ġdist ance
Ġvariable s
( ("
gn um
Ġcomm ent
3 00
Ġac cept
si m
OR I
AR GET
164 6
is on
d rag
disp atch
er red
ca ched
lo ur
l st
x or
99 99
Ġme ans
5 00
Ġvir tual
is l
ĠO pen
ri er
Ġne ver
Ġh ex
Ġpr iority
ĠB o
ĠD et
Ġh ist
d le
CA P
pro be
Ġg wy
Ġass ume
ĉ ĠĠĠ
3 68
io ctl
ĠX en
Declar ations
j j
G LOBAL
Ġf puts
ĠLA PACK
set s
Ġin struction
L P
Ġt event
F ast
Ġd ate
! ");
t ick
se en
6 68
v b
FF F
Ġd l
dist ance
Ġe qual
Ġsq rt
o ck
Ġf name
Ġ UNUSED
F AT
n y
Ġb ody
co s
en crypt
D X
Ġind ic
Ord er
Ed ge
C l
MUL TI
M ain
MA N
H ost
QU I
T op
B LA
ĠGL ubyte
Ġ2 7
comp ressed
CLI ENT
ĠMS G
Ġf mpz
spar se
the me
R SB
aa A
MA LLOC
Ġ(* (__
F ix
ele ms
fail ure
FI LL
> ",
Ġre gs
state ment
on d
th reshold
ĠS eq
o ct
V ol
ma chine
WID TH
M ed
ĠM EM
Ġpre sent
fo ut
Ġgener ate
(" <
C MP
Ġallow ed
ac cel
r n
Ġmp z
15 8
Ġm rb
PI N
ĠN OT
en ame
10 2
10 5
Ġpro b
Sy stem
Ġ' ;
Ġc k
se conds
Ġ url
Ġneed s
B in
Ġ" :
p C
I f
IN S
Ġ16 0
UN IT
RE A
ĠB U
SELE CT
Ġ endif
ed tls
ĠMPI R
la ce
Ġd Var
Ġrc x
BE GIN
Ġ& __
Ġtype s
ame l
11 1
str cat
Ġh elp
cl s
8 70
iv ity
oc ation
" \
Pl ugin
] ],
Ġcomp are
de s
rd f
i sion
te p
T C
ĠC C
TOK EN
[ ])
Ġfollow ing
2 24
m rb
28 0
D est
fo reach
ĠSTR UCT
he s
ĠC ur
B F
Ġdi rection
ed ure
port s
la ve
U se
33 33
pro j
f close
ATTR IBUTE
Ġ*( __
Setup Context
Ġpo licy
Ġ3 8
pre vious
par ts
pro duct
SO URCE
N ull
Ġ" ;
ic ast
RefNanny SetupContext
an swer
alloc ation
RefNanny Declarations
LO W
sit or
I LL
C ORE
ĠD O
ĠU P
Ġr x
mis sion
w alk
ro ff
str ip
Ġattrib utes
al y
Ġin v
p ats
ĠUp date
T L
Ġk sp
D BUS
key word
TEXT URE
istr y
get c
Ġa a
GR APH
Ġfe ature
gn utls
ĠO UT
w b
CH ANGE
M IT
R ed
G O
T X
Ġ3 3
pro mpt
DOW N
ĠN ew
Ġver ify
VE CTOR
Ġbuf len
Ġ2 9
Ġresult s
__ :
ta ge
o a
Ġ4 7
a pr
G ee
d sp
ne ighbor
Co re
mem view
F ROM
Ġv p
) |
A ST
ĠI s
(( (__
Ġ" ";
h andl
IN TEGER
Ġfl int
NUM BER
Ġr s
comp ute
Ġpol y
pe ek
. )
@@ /
Ġnot e
File Name
Get Item
Ġbo olean
FI R
Lo op
ĠA t
IN SN
mon th
12 5
E lem
Ġpla ce
de mux
un ix
Ġp d
o logy
Ġ20 72
u ed
Ġ... )
Ġ6 5
Ex pected
Ġpixel s
MA ND
Ġput char
Re ference
ces sed
Ġ== ,
r nd
1 16
27 4
output s
Ġg ame
Ġf putc
i h
da emon
n an
i mag
ĠPy Long
Ġtran saction
ĠC ol
Ġma c
Y PT
rad ius
@@) {
initial ized
(* ((
Ġmp i
dim ension
auth or
Ġc v
Ac cess
ĠM E
1 32
Ġde term
Ġfl ush
in p
sec ret
)) {
Ġs core
Gtk Tree
Ġi tems
list en
Ġsh ape
Ġd bus
uni que
Ġv ertex
mi ssing
ĠAl locate
ĠV AR
ST EM
Ġt t
M F
le v
Ġbin ary
39 0
ay load
ĠL ist
Ġ'\ \
Ġi mpl
package s
lo ok
e ffect
W arning
R ender
N ormal
W e
ĠNum ber
E K
Ġstr n
630 9
n ick
t w
Get Attr
37 7
Ġt re
Pro xy
Ġopt s
ĠInit ialize
g amma
note book
sh m
an ldst
Ġt itle
Ġ{ __
Ġp assed
Ġ archive
object s
ER Y
Ġ! *(
r um
o ms
inter n
Un iform
c id
l db
p error
err upt
pict ure
av ctx
17 8
Ġt cp
i k
UN LIKELY
Ġt ile
h it
Ġa gs
Ġstr str
l ld
Ġ* ))
G dk
ic mp
nd x
N L
Ġx f
re cur
ĠSTRUCT URE
ac y
CA CHE
ĠF irst
pl ug
Ġun i
AS N
Ġre place
E B
ĠPr int
Error Code
Ġl arge
Ġb r
p u
o le
Ġu id
R un
Un icode
M ARK
Ġmult iple
z end
UM N
Ġ= >
Ġdest ination
ĠEV P
S ort
Ġq h
Ġ& _
feature s
ex pect
ĠN ame
ss can
0 12
V ideo
Ġprocess ing
rag ma
sm all
ch ooser
l an
ĠI O
S lot
un a
ĠI Direct
Ġu v
D at
Ġen c
Ġptr s
pd f
proc edure
)) ));
Ġn t
Ġp b
ĠĠĠĠĠĠĠĠĠĠĠĠĠĠĠĠĠĠĠĠĠĠĠĠĠĠĠĠĠĠĠĠ ĠĠĠĠĠĠĠĠĠĠĠĠĠĠĠĠ
ad v
p adding
Ġre d
Ġreturn s
HT TP
Ġh old
Ġwr itten
Ġo v
Ġn m
++]= "
en se
Ġ( )),
e of
Ġwh ether
Sy nc
Ġe c
F P
ON SE
U V
Ġad ded
Ġframe s
Py Arg
A rea
PI NG
Ġrb p
Ġ*/ ))
Par ent
re served
fra gment
sp f
ps pec
ce ed
SAM PLE
index er
fun cs
d type
13 6
S ection
Ġĉĉĉĉĉ ĠĠĠĠĠ
Post iats
dis connect
cp p
__ .
INTER NAL
g w
Ġ(*( *(
sg i
pop up
exist s
Ġcan cel
Ġ**) (__
lo pe
Ġne cessary
Ġr hs
dir ty
PF N
qu ency
o e
Ġin c
Ġm is
dest ination
ĠG C
Ġtext ure
h ide
sa mp
Ġ layer
mis c
cur ve
Ġg uestfs
cry pto
13 4
cp ssp
Ġg double
11 4
ad apter
24 0
" )))
Ġt ail
H P
U C
pub lic
b al
PL U
VAL ID
ĠP NG
nc id
He ap
Ġv ideo
coord s
ul k
19 0
Ġ util
err buf
14 6
Ġre ally
pr inter
ME DI
line ar
CONTR OL
vert ices
U Int
b w
ist ics
__ )
Ġdef inition
qu it
le ave
Ġ uri
Ġun der
17 0
token s
Ġm x
Ġwe re
Ġex cept
I mp
Fin al
sk sp
Ġmessage s
av g
b at
f ptr
PE G
Ġg d
Ġbl k
Ġre ceived
__ ;
17 6
am ily
SC II
lock ed
Ġde lay
gn u
EN UM
Trans form
Ġw pa
H W
m sp
w i
ĠRE AL
A W
() ->
comp ile
Ġ OPT
ĠU TF
im ate
d Postiats
ĠA N
\", \"
Parse Tuple
Ġma chine
Ġr si
t im
Ġst ored
j p
align ed
Ġp C
D M
mo re
la mbda
re spon
th r
Ġw rap
Ġ~ (
D im
i er
ĠPy Array
pre d
A CCESS
( )))
", &
Ġc x
t il
W ork
> <
wh ite
st reams
ĠP L
REQ UEST
me sa
X en
Ġro t
Ġget env
B IN
par ms
Ġe bx
rect angle
Ġvol ume
10 9
Do main
A Y
ential s
sscan f
LA ST
L imit
Ġp ub
B ar
w ave
Ġpr ivate
ĠE OF
IST ER
ĠH E
i ble
ra b
A b
AN Y
PAR SE
Ġf atal
gra b
O pt
av a
ĠF LA
h and
Ġcre ated
P layer
ure d
sched ule
in ate
Ġse lection
ĠS uccess
ĠC PU
Ġ5 2
pc i
35 9
S RC
leg al
I mpl
Po co
O ff
il ities
Ġma g
Ġj ump
con cat
ĠL og
IS C
scal ar
Ġĉĉĉĉĉ ĠĠĠĠĠĠ
Ed it
Ġdis k
un do
re ceived
ĠT ran
Node Ptr
d ated
Ġx cb
op a
cor rect
cy cle
ĠB IO
sum mary
Ġ he
Ġse m
Ġlong er
R R
Ġ**) &
Ġtime val
Ġ2 40
in et
Ġb b
G rid
Ġ1 92
BO SE
ĠU SER
f it
Ġco s
25 0
tx n
de gree
' %
Ġl s
R IP
Ġother wise
sa mpler
Ġ*)( *
trie ve
ĠSV N
In cludes
AR M
Ġi x
Ġpass word
u do
EX PR
_ .
c annot
"" '");
Ġ define
qu are
re verse
Ġoper and
Ġ( ))
Ġ" ',
ĠPo inter
su sp
CH ED
Ġwith in
u ma
Ġ3 7
esc ape
Ġĉĉĉĉĉĉ Ġ
se mb
Ġa buf
TI FF
p ipeline
Mo ve
mail box
Ġbit map
G D
l er
ĠC OL
W ITH
Ġmb edtls
rat io
Data Type
sh utdown
Ġexist ing
Ġsu ch
Ġp w
ĠW indow
Ġco re
rg ba
11 5
co ff
Re set
EA CH
Ġn d
a h
CLO SE
Ġap pro
b ed
Py Int
ph p
@@++ ]
click ed
h ard
ĠPy BUF
CRE ATE
O ver
(" [
ph i
CT L
FAT AL
n at
se cs
en sure
Ġal g
Ġ(; ;)
ĠIN TEGER
10 3
m argin
N EXT
r val
B ound
28 8
@@= %
Cy thon
ĠD on
P ush
Ġopt arg
str m
RESP ONSE
dep end
sci py
in ates
Ġsc ript
B t
err code
Ġ BGRA
Ġser ial
c ategory
Ġsi p
k ill
OUT PUT
b ot
18 8
/ __
ĠO B
eg l
su ite
C ase
Ġn v
F ail
Ġev as
EPS G
ction ary
app ed
str ncpy
Ġpro tocol
Ġrout ine
wr it
ci rc
con straint
u ous
Ext ension
ĠIn dex
xffff ff
ag g
ĠM VM
18 6
Ġdi e
ch ip
po six
Ġse conds
N ON
map ped
calc ulate
s cheme
table s
Ġpro xy
t wo
Ġb rw
yy val
ĠAR RAY
ĠF F
Ġr ate
Ġpro file
Ġver bose
Ġenable d
t z
B AR
f rag
v fs
iv ot
Ġimp ort
c st
B ad
I CON
), *(
I E
Di rectory
cur l
fl at
Ġs ql
Attrib utes
ĠCON F
QU ERY
Ġexp and
ĠCo mm
di a
e code
H S
per son
C r
Ġz one
Ġfunction s
las ses
Ġ` %
pv Var
Ġf abs
Ġr ank
g object
ĠB N
SE SSION
Ġ9 0
d rive
Ġconfig uration
resol ve
H as
12 4
str str
z oom
H AS
Ġe sc
TE MP
PFN GL
2 30
SY STEM
ĠS IZE
D URE
Ġin f
Ġre maining
Ġinter p
CT RL
andid ate
se udo
ST AR
Ġd n
w ant
_ [
xpan sinton
EN CE
Loc ation
ĠS E
user data
Ġ READ
Ġcomm on
Ġre ason
li sh
gr ub
ĠH D
Ġ ul
O LEAN
Ġ15 2
Ġc lip
Ġg x
Ġc lean
St mt
code page
Ġan other
J ECT
path s
Ġchange s
15 2
ĠT here
Ġwr iting
et s
So cket
ert s
yg el
ifi ers
space s
si red
per l
Med ia
un link
qu ote
Ġe ffect
ĠĠĠĠĠĠĠĠĠĠĠĠĠĠĠĠĠĠĠĠĠĠĠĠĠĠĠĠĠĠĠĠ ĠĠĠĠĠĠĠĠĠĠĠĠĠĠĠĠĠĠĠ
sens or
b eta
16 7
Ġc f
= "
Ġ: :
g ain
ip mi
data base
PROCE DURE
og ram
st ub
MON O
Ġ*) "
counter s
ĠS ee
## ##
T otal
re maining
Ġsy nc
* ,
19 8
ARGUMENT S
dev info
callback s
ĠF LD
R ANGE
ighb ors
me s
ĠE XT
load er
2 32
ĠSt art
Ġca use
handl ers
id i
adjust ment
Ġv m
M et
c Var
Ġr ing
Ġxml Char
Ġ(** (
pre cision
Ġle ave
Ġs sh
At tach
e ve
al s
D ist
y p
Ġscr atch
scal ed
DI RECT
Ġ Key
ĠS kip
WOR K
ry pto
TE CT
p list
INST ANCE
ĠF ailed
opa que
11 9
gdb arch
ĠF L
Ġind ent
ho ur
H R
ĠE nd
Lay er
Ġstate ment
E OF
xy z
N ER
Ġcont ents
or ient
Ġv t
Ġ4 2
Ġ(" \
pe ak
Ġap ply
v g
Ġax is
UN LOCK
In sert
c lean
Ġdeterm ine
S G
)) ),
ĠCON ST
ĠL e
b eg
Ġin dices
2 12
Ġcon version
ĠP LAY
lay ers
Ġr i
S chema
Ġch an
VAR I
ĠG t
IT ER
sist ent
ime addr
P ragma
ro le
ident ity
1 0000
>> ::
Set tings
origin al
LO T
C G
re store
me an
ĠN UM
no m
ĠC ALL
b ank
ĠC all
c lo
Ġalign ment
ĠSy stem
P ass
can on
ĠS un
H DR
(" @@
select or
ut able
L U
> &
Ġprec ision
Ġcomple te
Ġd uring
on es
+ @@
ff lush
prim ary
15 4
Ġmatch es
n od
st ar
ex c
Lo okup
l xml
fr ont
ĠS Y
ap ed
Ġc Var
ĠN ATIVE
13 9
48 8
Ġ* ++
ĠP re
Ġg pg
Ġsh ared
virt ual
n sec
Ġ Val
AUTH ORITY
Ġstr to
Id ent
time s
Ġ(( _
f its
cam era
23 4
PL Y
38 8
Ġrun ning
ĠG ia
CHAN NEL
De pth
r data
rout ine
M eta
Ġdis ks
Ġl in
ĠS ANE
SH ORT
r sb
C ap
M y
Ġlib rary
ref count
Ġcon v
Ġme sh
pre pare
Ġdec imal
br id
Ġget text
cmd line
w sgi
f ifo
---- -
ĠV A
Ġs ched
la im
Type Error
19 4
> ");
Ġo ct
N on
11 7
Ġl l
Ġf read
sp ac
Ġsi mple
Valadoc Api
Sele ction
PLU GIN
Wr iter
dy namic
ĠJ NI
Ġcomp onent
ic le
V S
ĠM ax
ar ena
C AT
ab ilities
ĠS end
ĠLD AP
re strict
ĠGL int
dat atype
M a
TER N
re o
ang uage
x er
d g
Ġp ower
a q
Ġd h
E LL
Ġf ar
Ġd ot
e qu
O VER
Ġg ui
Ġact ually
" (
N e
entic ation
Ġ ut
Ġh id
ĠW R
n py
ĠS ub
Ġtemp orary
Con tainer
am gi
Ġpar allel
Ġin ode
CP L
tr ap
op tr
ĉĉĉĉ ĉ
@@ @@
ER IC
ul ation
T ask
i ver
Ġi ss
uff ix
b ss
oc us
17 7
connect ed
ic ient
aa aa
y t
r k
FA ST
cy thon
ĠN lm
Ġe a
or th
ĠFUN C
COM MAND
gr ad
Ġper form
qual ity
Ġstring s
++ );
P a
X S
tr unc
dir s
Ġl da
Z ero
Ġro ute
Ġqu ot
comp ression
ex pi
FIR ST
G A
4 18
V T
ne eded
Ġext ernal
cnt l
argument s
qui et
P op
m q
Ġk lass
vi o
glew GetProcAddress
m buf
Ġp ow
@@, &@@
gener ate
back trace
Ġsome thing
Ġc rc
EN C
pi ck
ĠW M
He ad
Ġi sc
Ex ec
Ġ ur
IP V
Ġme an
Py Dict
k it
: ");
Ġcase s
ĠV er
B LE
sp ose
label s
ĠN M
EE K
Ġst orage
" %
run ning
ip h
ĠO ther
Ġrb lapack
Ġt im
ĠA ST
/ (
Ġ(( !
v endor
ĠOP EN
wh at
struct or
Ġ4 6
B lob
Ġ* );
ĠCh ar
Ġcol lect
UN I
Ġm dio
action s
ĠS A
medi ate
ad ded
in ce
Par ameters
out buf
Re move
@@)) );
Gener ic
Ġ END
et ype
ĠG Value
TO G
Ġmo unt
Ġtime stamp
i ed
Ġle ss
termin al
vis ual
Ġinter val
ĠT ry
96 5
k a
] ");
ib ility
li mb
act ual
ĠM agick
Po ints
Ġco eff
Ġse n
Co unter
Ġd en
ext ents
id er
COL UMN
Ġis n
2 28
Ġd iv
ex act
pl at
Ġmem cmp
ĠLAPACK E
Ġan gle
reg round
ff t
cell s
pr ior
Ġ layout
Ġf ts
U TE
Lay out
Ġstrn cmp
Ġr di
=\" %
b io
Hash Table
ĠPar se
2 18
Ġx x
HER E
Ġneg ative
= ((
Ġs lice
Ġme t
dat um
spar ql
red uce
Ġv s
per cent
Ġ'/ ')
12 9
x C
ĠP J
b mp
P ref
part ial
el per
Ġg ap
D IG
X ml
TRAN S
R TE
d if
r sa
Ġnet work
mat h
OL D
def inition
Pix map
Ġcar ry
ps f
lin ux
Ġh alf
D river
Ġ" \"
s upport
Py Array
Co m
p data
Q UE
EMP TY
Trace back
Ġ((( (
Ġb ar
Ġchannel s
I o
C TED
Ent ity
CO D
Ġpr im
Ġac count
AL PHA
ab c
ch o
s at
Ġinst all
ĠS F
SPECI AL
> "
ĠSL JIT
G DK
ET A
E val
Ġon ce
or ies
Const ant
Ġpage s
25 197
d ing
Ġrefe renced
Ġp Obj
ĉ ĠĠ
re ment
SY NC
Ġw p
at ely
el if
33 7
sock opt
EX EC
870 668
(& _
I ME
ptr s
ĠP A
sort ed
Ġg it
pl Var
G P
F ill
Ġm ost
17 5
er ance
Ġ2 14748364
Ġf low
Con nect
SOCK ET
TOG GLE
Ġse ed
Ġ<< =
co res
st a
Pro file
ĠP T
Ġdesc ription
dis c
Ġt uple
sc all
st ick
c w
Ġcon tainer
D ig
I CE
Ġex act
C AN
Ġmark er
RIP T
Ġprog ress
> %
spec ific
Comp onent
function s
im ation
Ġi de
ĠPetsc ErrorCode
F an
V i
ĠR T
+ (
ind er
DIS PLAY
ĠH andle
VAR REF
ft nlen
Ġw c
dir buf
Ġg lyph
Ġd ay
temp t
Str ide
signal s
Ġhton s
DE P
W ANT
Ġĉ ĠĠĠĠĠĠĠĠĠ
Po ol
Add Traceback
17 4
R IX
REG ISTER
~~ ~~
Ġb c
h op
ng ine
Arg us
R S
ĠG ener
CA SE
Ġwh ite
Ġ* >
O ccurred
VER BOSE
ĠRe move
m nt
is ual
str chr
ĠTh ank
Ġr and
Ġe ina
Ġcalc ulate
re start
pre pend
O ld
Ġr tx
l r
ĠĠĠĠĠĠĠĠĠĠĠĠĠĠĠĠĠĠĠĠĠĠĠĠĠĠĠĠĠĠĠĠ ĠĠĠĠĠĠĠĠĠĠĠĠĠĠĠĠĠĠĠĠĠĠĠ
PI PE
Ġt urn
LO BUS
si cal
f ar
Ġe code
Ġmult i
Vertex Attrib
la mp
Ġun expected
ĠTI FF
Ġm c
@ */
GetAttr Str
Ġm i
12 6
16 9
Ġ4294967 295
Ġfra gment
sh ake
co uld
UL ONG
Ġobject s
AX IS
INE D
gl Get
mat ic
' .
ĠN ode
m time
init y
11 3
2 13
C trl
Ġt ex
32 0
on ce
top level
16 6
e ver
D SP
ly a
Re sponse
Ġcy cles
B I
an z
Ġdb g
Ġgn utls
pack ed
y es
ĠD X
ĠS cm
2 38
Sy m
f data
un map
Ġ" *
UP DATE
hw nd
24 5
mp eg
UR I
. ((
= -
ict ure
Ġre cur
c str
AUT O
Ġre nder
s len
Act ive
v ma
ĠXm N
))) _((
g u
un used
IG H
27 8
get text
BO OLEAN
mar shal
e ach
de lim
F N
Ġex ception
SH AD
PIX EL
ĠC lose
comple tion
Ġsys log
R V
W ait
Ġa m
ĠComp ute
F orm
E mpty
app ing
tr igger
Pr iv
angle s
** *
Ġt i
h old
Ġf etch
interp ret
Ġĉĉĉ Ċ
27 0
Ġ655 36
Ġlo aded
Ġ3 5
s oft
Ġ10 8
58 9
pd u
S OL
ĠS HA
INS ERT
ĠT REE
ch at
er pc
8 0000000
Ġse l
RO LL
NE LS
Ġba sic
Ġ(*( _
Ġg ive
ĠD raw
s dp
ĠA PR
SE Q
j mp
Ġĉĉĉĉĉĉ ĠĠ
Ġm erge
u ate
p j
4 20
Ġpointer s
l w
GOT O
Ġcall er
a gs
Ġn orm
15 7
ĠA r
co un
i rc
fa bs
Ġpart ition
std in
Ġdy namic
//////// ////////
cp ntr
err str
]= (
Ġt cg
Ġĉĉĉĉĉĉ ĉĉĉĉĉĉĉĉ
sd l
Ġm ix
ĠN A
log in
offset of
Ġdata a
Ġstr tol
Valid ate
mid i
78 9
W h
S can
sl t
Ġbound s
Ġp ayload
Ġb lob
" },
Ġvi sible
w char
Ġi v
12 2
Ġb ottom
FO UND
Ġ// /
ĠPo int
Ġ9 7
st arpu
av ing
e gs
h dl
re vision
LA NG
Ġl arg
ĠOn ly
cp us
j e
)-> (
ST EP
PRE FIX
c ing
par allel
ri b
Ġcurrent ly
++ @@
Ġw ell
level s
ĠP RE
Ġxml Sec
P ut
37 6
Ġc ut
r ase
F o
Ġstr tok
Ġin crement
se curity
, __
u dd
Ġli ves
Ġed x
Ġ1 000000
U LE
13 5
M utex
as l
En coding
Ġh it
Ġ6 8
spect rum
Ġse p
Ġ( ),
um b
ĠP a
F ace
ag ed
Ġmem move
lo aded
S ound
Doc ument
); \
ĠC S
EN V
INT R
ce iver
mode s
ĠC ont
s ame
Ġh i
ap er
gp u
ĀĀ ĀĀ
an chor
Ġ edit
D V
ov erride
s se
fl ate
db l
ac b
ĠG S
ta ke
V a
Ġio ctl
Ġpro blem
g y
Ġcomp iler
Ġm t
F B
38 0
Ġt ol
phy s
de ad
Ġs scanf
at io
Ġe sl
Ġs peed
R ule
ĠS ize
av p
R ate
T ING
ro ma
Pro p
Ġc g
Ġ/* @
ĠR O
Ġf act
TER M
Ġsi m
ĠĠĠĠĠĠĠĠĠĠĠĠĠĠĠĠĠĠĠĠĠĠĠĠĠĠĠĠĠĠĠĠ ĠĠĠĠĠĠĠĠĠĠĠĠĠĠĠĠĠĠ
Ġval adoc
Ġsuccess ful
PET Sc
requi red
TA LLOC
Ġpro perties
ab ly
ir r
E G
ong oc
Ġma ster
ns ur
for med
De code
17 9
Ġpro to
En able
Xm N
*) &
ul er
min us
re name
v oice
par sed
sib ility
St op
tl v
Ġread er
2 25
Ġ(! ((
X GIVEREF
ol l
Ac count
ĠBo olean
ĠG rB
oriz ont
Bit map
ED IT
MA LL
ĠS ince
26 0
H D
Ġe st
x A
ĠT A
ste ps
r chr
Inter val
r ation
Ġper m
p type
ADD RESS
iss pace
55 9
cont ig
Ġp P
work space
Col lection
over flow
(" (%
vo ke
E ngine
Ġrequi res
mult ip
(( ((
@@ !=
RA W
re peat
TH IS
SE EK
comp ose
Ġfor ward
ĠLo ad
\" ]],
] ];
F ull
SL JIT
Sa fe
Ġ( '
Ġdig its
00 19
ĠCon vert
Ġdest ory
mm u
GR AM
Fe ature
n bytes
ĠT o
20 56
N N
di vid
Ġb i
Tex Coord
rol led
h u
LO OP
list ener
process or
Ġn n
Ġre co
lib c
Ġany thing
l num
Ġr w
Sh ader
Ġd m
Ġcl utter
D IT
Vala Code
ĠM e
ĠĠĠĠĠĠĠĠĠĠĠĠĠĠĠĠĠĠĠĠĠĠĠĠĠĠĠĠĠĠĠĠ ĠĠĠĠĠĠĠĠĠĠĠĠĠĠĠĠĠĠĠĠĠ
/ **
WA IT
. __
ĠD IS
Ġb and
Ġa i
R AN
LA PI
back up
ĠU Int
b ut
Ġtok a
sa m
Ġstart ing
s Var
Ġb eta
base name
m map
D W
' ll
p am
dat aset
MA G
38 6
ĠS er
ĠST AT
ec x
for k
cr n
change s
Ġ1 76
ĠG Type
end ar
Ġr val
S ol
Ġman ager
SER VICE
L V
Ġun link
Ġlua L
in struction
ra ster
DB L
F ONT
Ġsign ature
q r
Ġf b
Ġm utex
P lay
im ize
Disp atch
z u
Ġlit tle
method s
Ġv ia
25 4
Ġ OR
rule s
Ġ16 8
48 0
Ġun icode
T ARGET
St orage
DE LETE
Ġl at
Ġg nc
18 4
o mp
S p
Ġc red
g double
o ef
D st
mod ify
st andard
Ġ% -
2 14
R M
c map
Ġf it
g lob
t db
B e
fil tered
Ġk ind
tr ust
l ptr
G UI
int r
Ġ' +
Ġma pping
Ġst andard
li er
b rowser
N ATIVE
V tbl
Ġre store
Ġt ot
() ");
de red
p Data
sys log
]) ->
oe fs
P e
ĠSt at
buf size
brid ge
Ġs lapi
Ġr l
button s
if p
ĠM M
ra ce
sc ene
con sole
CUR RENT
sen ce
00 3
net wib
T mp
Ident ifier
Ġ9 9
Rect angle
li es
ĠS EXP
Ġr m
Ġp f
Vol ume
re sid
15 6
ĠS EEK
Var s
Ġde tail
Ġp atch
w cs
fl g
Ġc at
ĠV ector
34 56
fac et
mod ified
ĠL oc
P D
ld a
M Y
cl k
ĠC G
P AD
Ġse ek
ĠX S
ENO ENT
w a
sh ip
est ed
Ġ likely
ig raph
ĠĠĠĠĠĠĠĠ ĉ
pa int
ig en
d ll
sq rt
ass oc
p ctxt
48 5
ind x
Ġf oo
la de
Ġar r
Ġcon straint
pro d
ĠQ u
Ġf req
30 4
Ġph y
v tab
Ġc ard
Ġc e
Ġ( *)(
" .
BYTE S
out er
E POSIT
l ing
ĠN ET
lear n
24 7
n th
Ġp cb
global s
SE LF
M gr
img data
Ġ(! (@@
Ġre moved
ĠCH AR
Ġw x
pre view
ĠG B
message s
ĠT EMP
G List
Ġ32 768
top ology
mt p
SE D
' ve
Ġ Object
sl ation
ĠSuccess ful
Ġde cl
allow ed
ĠPy Dict
Ġco mb
Ġ5 00
la m
ul se
l legal
O URCE
send er
ĠB ool
is m
du k
To ol
off s
range s
str ib
Ġ arch
ĠU int
ĠF REE
Set Error
* ((
ĠPar rot
INTER FACE
num eric
st s
SPE C
Ġt b
32 8
WOR LD
Ġp ending
Ġinitial ized
YP TO
ĠCur rent
Pro tocol
ĠEX IT
Sh ape
r intf
Ġtime s
ĠA sn
ĠCO MP
Ġh d
ĠC F
en tr
Convert Ptr
p buf
addr s
Ġtrans form
Ġw arn
Ġin clude
Ġgo od
Ġsh ader
(); }
Ġu ses
ce eded
Ġĉĉĉĉĉĉ ĠĠĠ
com ing
th row
name space
B T
ĠPy Method
ext ended
n ic
dat alen
66 66
sp ath
ĠM D
ĠR C
ĠM Y
j peg
R W
l hs
Sh ort
C ANCE
as ure
ĠS UB
bat on
W T
or r
ic ro
U AL
(*( *(
property list
IN A
SUPP ORT
ex cept
d word
col l
Ġl f
un able
26 8
Ġresult obj
Arg ument
Ġmon itor
B N
ut ation
ĠA d
vi sit
en ces
Ġj a
arg vi
ic ator
ĠA DD
ĠA pp
V C
DO M
CONT ENT
Ġspec ific
li de
ĠE INVAL
99 9
ĠPetsc Int
D own
Ġ" =
inc x
s lash
ĠS a
P air
command s
Ġ ET
B IND
Ġbuffer s
Ġb az
ĠValue Error
Ġb order
us ing
Ġ'- ')
{ "
14 16
M ac
i y
ĠĠĠĠĠĠĠĠĠĠĠĠĠĠĠĠĠĠĠĠĠĠĠĠĠĠĠĠĠĠĠĠ ĠĠĠĠĠĠĠĠĠĠĠĠĠĠĠĠĠĠĠĠ
du ce
Ġf un
ig lit
orizont al
TA IL
Sh ell
O US
FL T
arg tuple
Ġsh ell
ACT IVE
Ġd aa
64 0
p ull
ĠG SL
s lab
strn casecmp
bind x
og l
name d
encode d
in herit
ĠL ine
Ġp S
ĠCONF IG
1 96
Ġv np
ĠDe fault
Init ial
Ġerr msg
wr ong
xf er
Ġto ol
is digit
Ġf ac
ad r
Ġtr unc
Re q
Ġle ading
4 000
ĠT ime
pass wd
6 00
w ire
Ġ(! _
A uto
Ġ5 8
n h
Ġchar s
27 7
al ert
ren py
Ġg u
E DED
cr itical
") ==
Ġg re
image s
Ġ2 24
77 5
Me sh
NO TE
Ġd ue
Ġ* (@@
col lect
inc ip
13 1
cred s
* \
ĠOther wise
al go
Ex it
dir name
Ġf il
Ġdoc ument
Ġa cpi
SA FE
Ġh ad
Ġre trieve
Desc ription
view er
Ġd er
Ġp in
lp Vtbl
ĠD BUS
ĠReg ister
.. .\
rp ntr
un ce
disp ose
Ġsn ap
Ġre present
Ġf c
pl s
e rences
FOR EACH
Ġc enter
v r
enc il
mo st
B a
all back
Ġstr ip
ĠĠĠĠĠĠĠĠĠĠĠĠ Ċ
ĠH T
Ġbase d
14 9
p or
7 37
(" #
s urf
ĠPLAY BACK
Ġt ls
RES OURCE
INIT IAL
Ġet c
Param Spec
b lack
hid den
T e
ĠW ITH
Ġpro per
X Path
CONNECT ION
Ġe s
fe ed
C OR
Ex tra
Ġfa st
VER IFY
con version
ĠN E
b pp
Ġz end
Node s
Ġgener ated
sol ve
FE ATURE
Ġiter ator
real m
25 8
C lip
c list
ĠD I
PE D
Ġc trl
PAT CH
ĠP AR
tree s
T itle
DE N
L ON
g el
i rect
LE T
Vala DataType
Len um
ma ch
pa gate
Ġn bytes
Ġde pend
0010 4
i map
Ġin et
sig ma
De c
Ġa j
ĠL en
LI MIT
p Tab
Ġexp licit
Ġ*) );
\ '
Ġs uc
un set
D ump
ĠF D
++ ];
LO O
default s
ut ing
pr ime
ĠS ele
reg istry
En code
ush ort
Ġk nown
Ma jor
Ġg amgi
Ġgener ic
bt n
Ġa cb
Ġmult ip
Ġro om
ĠS ave
cpu freq
ĉ Ġ
Sy s
ext end
W O
2 15
Ġpl ane
SY N
to ur
bl ank
Ġ1 80
ĠC an
Ġt e
16 5
Py Err
Seg ment
Py thon
B IG
buf s
Ġnumber s
comp onents
pv t
Ġg fc
Ġad v
> </
g re
A x
R en
Ġu sb
Ġse ctor
ase s
Ġre sp
cap ture
ĠArg us
Ġp New
ER AL
De v
Ġr r
V ert
ĠDi splay
Comple x
Ġu c
Ġcor respon
n op
nom ial
Ġnot ify
a de
Ġ RETURN
Ġd u
ist ered
mo oth
Ġdc erpc
U sed
AT OM
al ph
Ġun ion
Ġrad ius
ose n
ni h
act iv
Ġd lg
(" -
Ġp adding
ST Y
P h
Char s
Per iod
u ation
ĠD ele
ro py
Ġt w
20 48
record s
Ġc rypto
ST OP
Con dition
ĠI mage
int el
ĠBu ffer
( **
ml ink
DT LS
tool bar
RG BA
G Error
cont rols
path name
ĠGL float
log ical
P attern
mark up
divid ual
ms gs
Ġkey word
ob s
10 88
packet buf
an ity
Ġg cc
a sprintf
PI D
s leep
m h
pp uVar
26 5
23 9
Ġi r
ĠG Lenum
def s
packet s
18 28
Ġchild ren
H Y
Ġli m
b lend
ĠS W
ĠV ER
Ġ* *(_
ĠPK IX
REC ORD
c lause
mem b
f z
Ġdo m
of p
F ound
MA KE
ct s
ĠGet LastError
i sp
ĠT able
! <
Function s
Ġc op
14 5
cr t
mid ref
Ġign ored
Sh ow
la in
Ch unk
76 7
Add Op
Ġc ast
ĠM o
Mon itor
lock s
S tep
COMP LEX
ĠP ORT
rel ative
un e
), "
Ġgener al
resol ution
re try
OPER ATION
B Y
3 60
19 9
ue ss
sv c
Can cel
ut ure
M IX
ĠOPEN SSL
S um
@@ '
@@ ~
mode m
ĠA P
IP HER
RE QUI
Ġ*/ _
SE ND
module s
Temp late
Ġ/// <
FLA C
filter s
Ġin side
f u
ol ute
s alt
Ġmo v
mix er
f old
Ġdi ms
C AR
U MP
ĠG LOBUS
Ġ MT
S imple
Ġin s
s lave
Ġcomp ression
V ir
k l
P ri
ta ched
LOO PING
ĠD W
---------------- --------
v or
d ma
ail s
_ @@);
l cpy
b box
k er
GL enum
list s
Ġor c
ĠInt er
ĠTEST INST
On ly
Pro g
Ġdig est
Ġs len
Ġthe ir
Ġ* &
Vdbe AddOp
Ġ( --
M ER
30 8
w ho
str oke
ut t
ĠH TT
e ep
Ġword s
KER NELS
F ULL
Oper ation
R aw
ffff ffff
ĠG LE
IP S
cred entials
con tains
Po licy
Ġsw ig
re ceive
ĠP G
ĠI F
el m
al i
ALL OW
Ġown er
Ġex plain
draw able
ro ken
Ġun used
SY M
D N
AM L
J OB
Ġh p
ĠD is
ĠS c
ĠR TE
Ġhw loc
s lots
ĠOut put
D lg
z s
24 9
Ġ5 7
ĠT CL
Ġd r
Ġmatch ing
CE LL
ro om
Ġvol atile
incip al
15 5
ĠP C
k m
Ġo ps
En abled
MEDI A
.... ....
m ust
e asy
ĠA ll
SI X
segment s
20 7
Ġel m
em y
UT LS
) .\
Ġs uffix
exec ute
apt ure
Ġret str
end point
XY Z
str buf
T cl
Ġf amily
en sor
Ġdat atype
ĠPro cess
en ch
co lour
weight s
Ġrel ative
STY LE
Sh ift
A RE
]. @@
d id
size i
sc rolled
Ġstr rchr
MAT RIX
s mp
(" __
Ġ10 2
Ġf m
tran sition
ĠGR N
an aly
PyTuple Object
13 3
G H
Ġ9 2
g ss
lo p
Ġd rop
p key
In d
0010 5
i j
py FAI
@@ (
SET TING
sym tab
Ġfor k
um ul
vi ded
ces ses
Ġtran sfer
b sp
14 3
que ued
Ġbu g
ĠY P
Sig nal
ĠO SP
Ġsol lya
Ġreg isters
Ġ9 5
EX IST
Ġh and
CR YPT
G SL
G ot
ate deprec
000 1
)) _
memory view
in buf
18 7
sk learn
v v
pair s
Ġ20 8
ke le
12 1
info s
ĠGL uint
W rap
Ġal ias
>> >::
over lay
l z
Ġcon d
Ġse en
pi e
Ġ3 9
in al
Ġs x
ptr value
G ame
lib rary
inc rement
Ġ" __
ĠAT TR
L ATE
Re port
\" :
ĠAR M
Ġt id
Ġsl urm
Ġc lause
l ut
hash table
Ġ{ -
Ġ LL
ion s
Get String
ces sible
vert s
THREAD S
Ġs at
Ġ( ));
Ġcomp at
WR AP
ĠI de
ri end
Ġu ip
Ġcl uster
Ġ1 0000
Ġstr a
bl ing
w as
SA VE
tr fs
TR A
un ded
Ġhandle d
Ġ- --------------------------------
Ġadd itional
Ġx malloc
Ġ arb
N s
SU CCE
Ġcall s
DI AN
A CCE
* >
uint ptr
Ġso und
, \
29 0
17 3
Ġ" +
D ONE
cont roller
Ġcheck sum
En tries
Ġcall ing
p wd
c ptr
IS O
ĠM AT
section s
11 11
Ġbu cket
bin op
Ġj ni
ĠD M
Ġ5 9
sock addr
e mail
Ġsup er
UN SUPPORTED
li as
symbol s
Ġs croll
Ġs cope
27 6
tran slate
ĠL P
R b
Ġpar sing
D up
if r
ma y
g v
al p
Sc ript
ret l
Ġ' =
h mm
Ġ- ----------------------------------------------------------------
PROTO COL
d fa
we ak
Ġtra iling
TO OL
k k
Ġp ic
32 7
IS H
u er
i op
u cs
Ġin ner
>> ,
V OL
ĠC MD
Ġ8 4
2 16
env p
PLAY BACK
cert ificate
Ġ/* ********************************
Re store
ĠWR ITE
Ġcur ve
37 0
SIGN ED
LD AP
- (
Ġdis able
S CALE
Ġcomm it
TA CH
Ġ(& _
Ġy our
Ġp ci
*) __
26 53
int ptr
ĠN e
H elp
v dev
f q
Ġthread s
RO UND
Ġd type
ĠA S
r ng
ap on
mp p
Ġmin imum
COD ING
bp ntr
Ġmet adata
Ġfail s
Destroy Notify
25 7
ĠMO DE
mpl ing
Ġ' *
H dr
n br
ma inder
Ġld ap
Ġback ground
t buf
Ġpro duct
sub type
PER L
Ġbound ary
SW AP
alc ulate
ff f
24 4
Ġse par
l sa
] ].
m otion
se qu
rw lock
Ġalg orithm
H igh
ĠW CHAR
ĠG ParamSpec
IT S
Ġst mt
Ġl n
) !=
Ġcur l
Ġhton l
so me
ĠDele te
ra id
2 19
14 159
z er
Ġo pa
DIS ABLE
ĠA s
32 9
ri be
cap acity
D NS
Ġs g
chr on
ĠG E
ĠGLE W
n or
en s
@@++ ,
Ġwh ole
Ġ4 00
pro cs
R OL
R ND
k d
pk g
Ġtype a
rec s
A ng
D y
a at
F act
p etsc
Ġre n
Ġcolor s
Ġs oft
is sion
Ġt desc
RE L
18 5
OT HER
fra c
Ġx strdup
ĠME SSAGE
len a
Ren derer
ĠA ND
Ġp Parse
ID X
f gets
PLA CE
Petsc Object
Ġre try
handle s
C lock
av l
FL G
Ġa u
l xc
m box
log ger
CE PT
Ġg z
MA J
ĠO bj
Mem ber
og g
read s
clu ded
Ġerr a
re pos
EXT EN
app let
ind ptr
SI Z
ĠB AD
add resses
Ġ7 0
S wap
h c
Imp ort
Ġ( ?
Ġst p
cro ak
Ġe ar
Ġhard ware
nd array
Ġwe b
W IB
up er
Ġsup p
Ġsu sp
ĠW id
ĠHTT P
68 7
Ġw alk
GL X
ha vi
h older
RE EN
Ġ*) (__
ĠPy List
len t
ub y
i ke
rec laim
ĠO p
P UB
Ġle af
ĠC LA
37 8
de leted
P Q
@@[ -
ĠFOR CE
n u
ĠF ix
ta u
)== (
gn ore
(( &
S ING
o unt
host s
color map
Ġw l
B us
OPER AND
ir d
Ġconf lict
on ts
G UID
p fn
Ġre ceive
A E
Ġbet ter
Pref ix
k c
Ġav ctx
Ġp anel
format s
T imer
al led
READ WRITE
ĠS R
C U
EN DIAN
) ";
f use
Ġg cry
apt or
ĠV G
Ġnto hl
ĠWh en
b roadcast
B S
ĠS QR
Ġn x
Ġx free
Ġh ig
u u
RD ONLY
Un expected
Ġapp lication
sc ii
of day
C IPHER
BE DTLS
rel ation
a ched
i li
t n
ĠC U
v table
Ġt l
st k
er ase
Ġexp onent
c ss
sl urm
Ġcheck ing
w av
! ",
Ġsize a
ĠH P
y m
24 6
x free
ech at
Ġ- (
g m
W H
r untime
R SA
rot ate
j ack
PAR T
Ġcomp ar
config ure
l and
ĠRe set
20 4
+ -
array o
syn th
ĠO S
finish ed
ne ar
D H
ĠPR INT
Ġnto hs
Ġevery thing
15 3
)) )(
Ġ{ \
ume d
ĠSO CK
Ġ1 84
29 8
Ġext ent
in file
position s
ad get
j oy
Ġp spec
urn er
Net work
U til
O wn
ĠF ROM
ĠPer l
Ġ++ *(_
go od
Ġc lo
LE ASE
F mt
glyph s
ft s
AT ED
cro ss
key board
Ġco un
28 4
H t
ĠW S
end ptr
E ina
16 3
DU K
oci ated
IZE D
Ġoffset of
Ġp Tab
ĠC lear
SE ARCH
Ġc are
ĠB LA
S core
pl t
Ġre start
RE MOVE
Ġr g
A sn
Ġ- *
time ofday
Comm ent
ĠSO AP
sub sc
z l
unpack ing
ĠĠĠĠ ĠĊ
ĠL ONG
J SON
ValaCCode Function
R AD
ĠIP MI
th eta
Ġdis abled
MAJ OR
bo ost
ĠMem ory
sy ms
Type Info
Ġfl at
8 000
S Z
l ude
Ġdat aset
fl t
IN V
buf p
aut optr
at oms
ĠG Object
ap sed
z Name
sen se
Ġtable s
); }}
prior ities
extension s
23 6
ĠI GRAPH
u it
op c
Ġde leted
VER T
s buf
Ġtr igger
Ġ* ""'");
mp tr
P USH
Ġmu ch
jo urnal
c decl
Ġ__ _
ĠLoc al
PE CT
Ġsyn tax
. "
20 9
yg on
Build er
cre ase
te ction
Ch ain
me ch
ĠE C
s ong
TR ACT
Ġmag ic
AA AA
ĠTR AN
GL uint
he st
Ġth reshold
ll x
l arge
Ġbegin ning
ĠC l
File name
gn ized
C Y
BU R
resource s
Ġar ound
Ġper iod
J O
L in
n abl
sp rite
= (*
Un lock
PACK ET
UT TER
o sc
c call
pr imitive
U A
ĠH I
lim its
sp re
void void
match ed
Ġan swer
Ġk buf
HO OK
ng x
dh cp
Ġl t
Ġc aml
Ġcon s
ND ER
f lip
COM BO
ur al
pro gname
Ġp n
Ġci rc
r h
a j
ab stract
F RA
655 35
T MP
Ġre verse
a head
block ing
u ip
ST ER
ip p
Ġar c
Ġi st
S Q
ĠW AR
spac ing
Re ply
case lptr
( ",
Ġh res
Ġ"\ \
ser o
Ġp ast
C ERT
Ġent ity
Pro perties
chunk s
p urple
link s
f open
Ġi cal
Ġgo ing
IC AL
mod s
; },
Ġup dated
Comm on
], "
US AGE
ĠF rame
SC AN
P OP
] !=
caselptr lab
Al pha
Ġdid n
Ġf loor
INTER N
Ġw char
26 9
EV P
b k
Ġlog ical
Ġp x
Ġ"../../ ../../
Con f
ap d
Ġoffset s
0010 3
Ġback end
ON ENT
VARI ANT
li ve
SC REEN
C aps
@@ |
Ġ' #
Element s
25 9
AS K
Ġu short
ĠM UL
Ġj int
inc y
1 00000000
Ġqu ad
par a
Ġen coder
sk y
net dev
Ġa md
Ġfinish ed
ĠE SL
ĠP ET
er ate
Ġ4 9
S OR
f wd
Ġhdr l
Y gl
PAR M
metr ics
et ree
sp l
St ats
Ġst age
in i
b gp
Ġclose d
play list
ValaCCode Expression
S u
Ġcommand s
AG AIN
PET SC
g mt
in vert
Ġv ery
pk cs
18 9
inv ocation
A SCII
ĠN AME
Ġgl Vertex
option al
re moved
Ġ8 192
a inst
M X
Ġp Op
Vala Symbol
Ġj j
Ġpc re
ĠT P
J A
Ġk ill
S kip
A cc
i ally
T ri
GR ID
Ġg id
Ġb son
19 5
Ġcheck s
ĠG AM
ĠI R
CH ILD
Ġsh a
ĉĉĉĉ ĉĉ
c il
c er
d list
Ġ{ @@
fa ke
Ġl c
Cr itical
35 4
ĠM atrix
Ġappro pri
Ġ' @@
ID I
ĠE INA
Ġ6 6
ĠDAT A
ĠL W
Open GL
ĠCon fig
C rypt
Ġg size
man age
N R
Ġ BE
i ents
Ġc ro
ĠB T
Ġre rr
Ġc aps
ret ty
al len
Ġstd in
ĠPRI u
S MALL
track s
Ġm v
ĠA Q
und er
SC ROLL
variable s
Ent er
Ġw on
ar ies
Ġre m
sy ch
not ification
M R
ĠSele ct
t tl
lin alg
o h
g ray
ĠA LL
Ġ0 0
Ġ lapack
al sa
Ġuni que
prec ated
Ġa mount
de crypt
Ġ' _
******** ****
MO V
Ġd k
Ġb ra
bu m
P AN
17 2
Ġret n
F older
ĠT K
de g
32 3
ne ighbors
Ġ" {
y mm
Ġo ccur
ĠSQR ADD
h ow
O CK
b org
Ġ*)& @@
CO DER
ing er
Ġth row
il li
sub mit
plat form
)))) {
Ġn dim
Ġun supported
Ġw s
ge o
task s
Ġho ok
i q
Ġscal ar
(! (
Ġj s
um bn
23 5
N K
EL T
Ġn ir
Ġwork ing
Ġqu ant
tr im
Ġat spre
Ġ( ~
ip c
Ġit self
f lash
SUCCE EDED
B OT
60 8
Ġre v
a es
0010 8
p dev
z d
Ġprint k
pref erences
ct p
ĠMP FR
emon ic
0010 6
ERR NO
R andom
Ġcomp ile
ĠV S
w and
e i
H ist
te vent
SE G
h b
pro f
a ud
ĠV K
n xt
Re p
R X
Ġp ango
ĠPetsc Function
b tree
Bin ary
pro t
Ġ3 60
rea ched
k v
Ġsh m
p nt
Ġcol s
ed s
ĠDet ect
ut s
gp g
c sound
S lice
am era
F u
Ġpart ial
ĠF N
Ġident ifier
ĠF c
comp ar
20 6
I ID
C ATE
Data base
ation al
B IO
lex er
st it
a ip
Ġth ose
---- --
)( *
L ow
G G
ph rase
Ġĉĉĉĉĉĉ ĠĠĠĠĠ
4 0000000
ra v
ĠLen gth
A H
Ġd ptr
Ġde sired
Ġ7 6
** )
a che
ĠG T
al ive
decl ar
PRO FILE
LIC Y
Ge ometry
m ctx
_ (*
Ġsymbol s
p Expr
Ġread y
B l
o x
l vl
)) (*(_
Ġs pan
]) .
close d
i sed
config uration
ĠE ina
d q
tool s
Tran saction
ĠA n
ĠB it
br ush
Ġget opt
real ref
32 768
uc ed
Ġb f
uff le
ator s
Ġheader s
cl ud
ateg y
e ap
re direct
16 2
Col l
_ @@,
Ġ4294967 294
Ge om
ut a
AT I
Ġre loc
Ġg g
Ġdouble real
Ġ2 48
N P
Ġatom ic
I RO
Ġp df
Ġent ire
---- ---
Ġprim ary
Ġa vio
on o
and s
ĠG Async
kele ton
Ġh y
n do
MA IL
to s
orient ation
ad min
ĠIP v
s un
ĠT k
40 8
pre ter
ai a
ĠEx pr
I Z
. ";
t up
ĠIn put
ORI ENT
Ġprob ably
Ġct db
( '\
App lication
Ġ10 1
Ġb d
up lo
widget s
ĠĠĠĠĠĠĠĠĠĠĠĠĠĠĠĠĠĠĠĠĠĠĠĠĠĠĠĠĠĠĠĠ ĠĠĠĠĠĠĠĠĠĠĠĠĠĠĠĠĠĠĠĠĠĠĠĠĠĠĠĠĠĠĠĠ
dd y
C nt
ser ialize
ĠA c
for ms
Ġen vironment
Ġset s
F W
h h
co ver
Ġ ON
70 7
allen ge
SE L
st p
li ces
Ġstr casecmp
key map
ĠPET SC
vl an
Ġmod ified
Ġmis match
Ġimplement ed
AT TACH
DEP TH
g z
int eg
19 3
Or igin
Ġx a
ex tr
SK IP
Ġoption al
Bu ff
Back end
z bx
r ig
__ @@;
DI M
Ġmo use
d ark
sc si
de tach
ĠC URL
ic ate
w ide
snap shot
20 5
dup licate
Ġsi d
if ies
++ ++
view port
Ġe core
Ġcode c
f loor
f print
decode d
ĠI B
ĠM od
Ġg ee
Could n
p z
. "));
p W
Ġ LE
Ġf gets
ĠMA KE
ĠH W
b is
Ed itor
O k
data ptr
ĠFORCE INLINE
to uch
de t
Ġopt im
x attr
Ġf ilt
reach able
F ra
C ARD
DR AW
target s
ex pan
A CC
Ġcoord inates
bu sy
ĠD T
Vala List
22 9
Ġan s
Ġde tect
Ġag ainst
Ġad j
C re
ĠQ nil
Ġdup licate
og gle
CA IRO
ĠB ase
ĠM eta
ID WORD
li ck
tool tip
Ġencode d
cor ner
22 7
ev t
Ġ! !
R ot
o stream
ĠS tore
ter n
Ġs af
Ġspec ify
Ġt or
Ġsignal s
Ġcon struct
re rr
enum erator
Ġtermin al
Ġpo sitive
PO ST
Ġsen se
edit able
b la
st uff
clud ing
face s
p al
Ġdevice s
13 96
RO OT
Ġstrto ul
Ġo c
VER TEX
Ġc il
Ġs ay
IT ION
st and
ValaCode Node
ur pose
ater ial
Ġwindow s
spa wn
no ise
ĠAr ray
Ġle x
) ++;
E h
ĠC A
ĠT SS
Ġarray s
request ed
Ġedge s
ĠB ut
A v
C LOCK
] )))
non ce
Ġn k
Ġw d
Ġsp in
9 15
F low
P KEY
ĠA p
16 1
De coder
block size
1088 64
MA NA
Ġdo ing
Ġpre vent
14 2
PROCE SS
G reen
ME D
Ġp name
ul ated
ĠCo uld
bucket s
i ate
ĠB e
Ġx y
14 1
ri ces
di p
sub req
Ġo dd
arg us
= ",
In str
Ġx p
obj p
gf x
S CHE
leg ate
PO OL
ta p
x E
Ġ( ++
Ġ< %
Un its
p state
Ġ ER
ĠWAR N
Ġhist ory
ĠR ed
h mac
ĠLO BYTE
no return
Ġne ar
2 17
Sign ature
it r
Ġsol ution
po ch
Ġpol l
Ġĉĉĉĉĉĉ ĠĠĠĠ
sit ory
X MM
H elper
ĠNO TE
LE M
ĠDe vice
32 4
NT STATUS
c ms
\" %
connection s
Ġlist en
c db
Ġĉ ĠĠĊ
ĠLo op
80 8
h v
Ġf seek
27 9
ĠĠĠĠĠĠĠĠĠĠĠĠĠĠĠĠĠĠĠĠĠĠĠĠĠĠĠĠĠĠĠĠ ĠĠĠĠĠĠĠĠĠĠĠĠĠĠĠĠĠĠĠĠĠĠ
Ġtest case
Ġch k
id den
Ġh b
CEPT ION
Ġar m
CT P
23 7
View er
ta ined
DI CT
r ink
TR ACK
ter nal
ĠF R
c wd
GN UC
down load
Ġopt In
Ġex port
Ġme tr
ĠĠĠĠĠĠĠĠĠĠĠĠĠĠĠĠĠĠĠĠĠĠĠĠĠĠĠĠĠĠĠĠ ĠĠĠĠĠĠĠĠĠĠĠĠĠĠĠĠĠĠĠĠĠĠĠĠ
b ri
call er
ĠO F
P ub
siz ed
re pl
Ġv c
bu sb
Ġ3 90
DI V
Ġ4 3
ts libs
f la
n av
MAG IC
sf mt
t or
PA RENT
a N
server s
an im
Ġ** __
Ġt bl
d ash
Ġĉĉ ĠĠĠĠĠĠĠĠĠ
Ġvalid ate
int errupt
W nd
L at
pg m
ang ular
Ġren derer
resol ved
M dim
s ane
chan ism
rt c
Set ting
Ġcert ificate
an ced
Ġg ss
CR IT
Ġr gb
dec imal
st ype
sh ould
as pect
22 6
Ġ DEF
Ġs chema
ward s
H PI
Set Item
in cr
la unch
14159 2653
p Bt
red raw
Ġattr s
S ingle
, '
AV P
g row
Ġo id
Ġn og
in q
c ube
ID irect
File s
T M
Ġline buf
L it
Ġd v
ĠPy Int
get env
ENABLE D
18 3
bound ary
S ql
equal s
ĠO ption
J o
it able
S m
Ġat t
Ġd sp
Ġbl ue
/ @@
x pr
From Long
ech o
Ġ lab
high light
G t
359 28
S n
ĠW HERE
Ġme dia
CO DEC
Ġde s
Y L
PO LICY
fin ite
Ġ IT
Ġsize s
Ġre sid
ĠF ill
alg orithm
Ġat tach
Ġexec ute
er ated
zz zz
C ard
person a
is k
37 5
Ġy ear
C at
Ġp sz
& (
Frame s
MANA GER
32 6
dis abled
Ġpacket s
V P
Ġ(" /
addr info
TIME OUT
ĠStat us
ra ck
m en
se gs
Ġat p
Ġ3 00
Q ual
Ġin str
4 28
Ġun comp
F n
PRO XY
Ġa o
z fs
US R
Ġ5 5
is a
ĠV T
Ġa cl
esc aped
pa k
][ @@
Ġlocal e
ĠS ome
ĠU LONG
e o
Sh ared
Ġdimension s
ĠMe ssage
me th
cr it
ĠM ETA
ĠCo unt
Ġre ached
== '
e ol
di rent
fr m
x cb
ab et
589 79
ĠM ode
pp v
M apping
ĠU ser
i la
CONT IG
ĠST ATE
Ġmail box
ge m
TR I
Y I
io seq
Y ou
Ġpre pare
Fix ed
35928 559
Ġc tl
Release Buffer
or ity
bo lic
) <<
ste ms
bar rier
Ġhost name
xdr s
Ġv l
err s
Ġwait ing
3 50
Ġcor r
141592653 58979
Ġl w
c ord
e h
ers on
sub s
Ġp bVar
I MM
Ġo h
Ġde tected
B X
D one
th resh
20 1
BO OK
Ġ# "
check ed
id ata
Ġdetail s
Ġex ample
Prog ress
P anel
ir m
ant ic
ab sol
@@ "
Ġ| \
pan ic
Ġ6 2
COMP ONENT
44 4
Ġ'. ')
ch roma
und le
P rev
ĠGL sizei
Ġ- --
Del ta
ĠH ash
44 6
ĠT OK
Ġm ul
Ġq emu
Ġ2 16
)( *(_
enc ies
x data
Fact ory
F etch
d ptr
")) );
ĠCO M
N B
itch es
r al
over lap
U OUS
N IL
U X
Con straint
MET A
lf d
op sis
TO M
26 3
33 5
Ġdiag onal
us ers
atter ns
pa use
ĠZ STD
ac quire
rid ge
Ġint eg
ĠT ext
Ġx l
ĠW in
RA X
er ms
cal led
mp q
F ts
Ġ1 14
()) ,
sel ptr
ELEMENT S
f puts
Ġf older
un register
cd f
Ġm map
ww w
xFFFFFFFF FFFF
loc ity
name len
Ġle g
K S
Ġ(! __
id a
Ġv f
d set
Ġse parator
line size
ĠSTR ING
agg reg
Type s
ĠST ART
UN IX
ĠN ext
dr m
quot ed
Ġ" ""
j uta
Ġc ipher
RD WR
absol ute
Ġdirect ly
b h
bo sity
n fs
N ote
Ġs ptr
Ġde coder
S uccess
n row
p Obj
TA SK
ve lope
mask ed
Ġp ick
ĠM AP
Ġma jor
ST MT
pr io
Ġp Expr
ĠP HP
IGN ORE
Ġarg vi
CO LL
Read y
DE L
Ġappropri ate
io us
fre quency
BO UND
on y
56 5
", (
n w
trunc ate
gg led
Ġe ff
Fail ure
Sc m
t data
Ġb roadcast
q s
i buf
Vir tual
J NI
m ad
o site
t et
WR IT
in side
Ġde lim
Ġpar m
AT H
Ġi mm
vi r
Ġfl t
ata ble
cor r
Ġiter ation
} \
Del ay
. "),
Ġcont ig
0010 7
c lasses
@@++) {
Vala Expression
ĠH ow
Ġt ty
ĠF ield
re call
p as
g pr
pro pagate
source s
Ġpl an
Ġmod ify
)) ((
sp ell
XX XX
cr atch
Ġfr ont
Arg tuple
Raise Argtuple
RaiseArgtuple Invalid
Ġcb las
Ġg el
li ke
Ġp alette
Ġpro vided
Ġb ail
Ġov erride
ĠP ix
Ġcomp ressed
OPTION S
not ep
3 38
P ad
Con n
Ġp lot
Row s
P OL
con straints
ex e
vi e
alg os
ĠB yte
F ET
c andidate
Ġqu ote
er ation
at oi
tmp l
UN DEF
Ġ"% *
m dim
ur st
Ġline ar
A SH
ph oto
Ġm w
ĠHe ap
88 59
Pro duct
PRI u
LA N
ĠGtkTree Iter
name a
Ġrecord s
Fan in
r ss
add itional
Ġw ave
Ġn dr
C Function
Value Error
c buf
t g
Ro wid
se e
SO UND
Ġad ios
Ġa sk
ĠM ult
umbn ail
P k
Ġname space
Ġtrace GL
15 1
Ġpub lic
OP E
ĠC alculate
ra sh
@@* \@@
ug ht
pub key
era ment
8080 8080
PO W
in x
Ġ WORD
Ġ{" ",
Ġ1 32
} ",
ĠMA C
0 33
Pol y
Ġ20 56
Ġwr iter
T AB
ec c
DY N
Ġch osen
p V
Ġp at
Ġh arp
ĠXt Set
temp erament
Ġta gs
Ġre ta
3 55
Ġ6 7
Ġh box
Ġco okie
h f
q t
L ight
Ġd bl
Ġth ings
cry ption
g iven
xFFFF FF
hist ogram
trace GL
coeff s
c name
n k
, _
Ġun less
G PR
P W
S UR
Ġth ing
v tx
log file
clu sive
gr n
semb ly
ĠT LS
mp fr
member s
Ġs leep
MU TEX
R ad
Ġb m
e ArgError
A h
Ġr ather
(" (
GL ONG
ĠDe bug
LAY ER
f tmp
mod ifier
i val
28 9
ĠR ND
ĠC UR
Ġp Ntk
de ps
ax es
to o
ĠPetscFunction Return
start up
Ġnog il
ĠE d
ĠB FD
mn emonic
ver b
GRE SS
client s
co me
di an
ick ness
C u
q i
sl ider
Ġdis card
M ISC
V IS
ĠF S
Ġrequi re
SU RE
plug ins
LEN D
ĠM ap
Ġcount s
Ġgre ater
ĠEXT ER
exp onent
__ ",
co gl
f write
Ġesc ape
de init
U GH
S plit
RE NDER
Ġ enter
30 7
); ;
ĠP Y
2 14748364
map ho
B ody
Ġif def
(" ");
Ġresol ve
Ġ" '
ĠSt ate
In formation
ĠV dbe
Ġ*/ \
et o
Ġjo in
Ġsec ret
entr al
@@ (@@
ĠMo ve
Ġl anguage
ĠG Variant
ord ing
ĠF unction
l h
Ġcorrespon ding
STAR PU
compo site
S PI
] ++;
Name d
Ġm ongoc
mark s
Ġ* ********************************
EN U
f y
SH OW
Ġw pls
Ġin p
Un i
AN GLE
Dim ension
Ġca ched
st req
ĠT PM
po ut
sm art
ur ther
c ups
z y
pr ag
fir m
Menu Item
", *(
r imeaddr
adv ance
d pi
f ld
compat ible
go ing
ĠCol or
Ġp A
Ġw atch
h ot
need s
Ġabs olute
Safe ReleaseBuffer
iv ely
ĠT CP
G DestroyNotify
Ġc ustom
@@= (
Ġn z
]== '
sol ver
REF ER
__ [
cv t
col on
Ġper cent
max imum
Init ialize
19 1
mp d
medi ately
GL H
Ġout er
F c
Ġsort ed
length s
Ġen gine
ĠFor mat
US B
Ġx sh
Ġu cs
ĠS P
ĠH GOTO
) "))
ra pped
val adoc
cre ated
rc v
C NT
Ġal t
Ġqu ick
__ @@);
operand s
List ener
reco very
Ġun its
ĠT AG
Ġget s
menu item
S witch
Ġl v
fa b
tree view
p q
R ygel
Ġ' @
Ġg v
Ġd f
34 4
Py Long
Ġel t
var id
ist ic
BIN ARY
Code c
assert ion
is er
ar gname
to ggled
V L
plan es
Ġtran slate
E CC
j b
tick s
pb Var
AL T
mov ing
selptr set
SI C
dis card
notep itches
Ġg i
wh en
Ġco st
am ount
ĠD V
Ġl y
W E
Ġvector s
Ġalign ed
Ġconnect ed
bal ance
Ġht ml
Block s
z ed
__ @@
ĠA D
HE IGHT
u G
PO LL
end p
C blas
We ight
xml Char
Ġtry ing
Ġpar sed
not es
22 337
Ġio v
SU M
ORI Z
p fd
Ġbuf size
E ffect
V ID
o S
IMP L
F lush
Ġ< /
ĠS ig
do f
== =
de compress
+- +-
fe at
ĠE L
P CM
Ġre served
sector s
ust ed
N r
re vent
handle d
CANCE L
Ġf err
Ġread s
Ġt ick
PyArray Object
67 108864
GN UNET
] (
Ġw orld
@@)) ,
use s
FI ER
iter ate
g ps
nc at
iz ing
fix num
Ġcre ating
id l
T ile
Ġtoken s
Ġp red
De cl
Ġ'- '
Ġst ar
an ks
v x
Ġf its
State ment
Ġt case
str i
cod a
Det ails
m db
gener al
22337 20
Ġ1 10
) __
re load
hy per
es Print
my sql
f at
ĠW ait
Ġun ix
APP END
Ġsupp lied
RES OL
D es
STRING S
O D
Pr imitive
MI SS
Ġcon straints
ĉĉĉĉ ĉĉĉ
max len
ĠS M
CONTIG UOUS
EF EF
Ġlib una
Ġsyn opsis
ĠFLA C
ĠU RL
j cr
ĠU ni
cb f
ĠS D
ran t
M issing
Ġ INFO
Ġse qu
) >>
PR IM
pP ager
ĠA ig
Ġ1 22
Ġis o
F actor
PK CS
b unch
pr incipal
Ġgr p
acc um
Ġcontain ing
Ġf id
rec ent
Ġvir t
Ġa f
Ġg reen
Ġlib cdata
yy msp
Ġmid dle
the Env
S ANE
30 9
P NG
clip board
Ġs ane
ĠD NS
Ġd uration
ue s
pan e
Ġch oice
co v
vi a
ĠH ANDLE
Ġfloat ing
H int
neg ative
3 10
Ġ' >
Own er
Ġmin or
ĠN EW
per im
cs r
irr or
Ġth A
@@. ",
C mp
32 38
p New
Ġ> ::
Ġpl us
34 5
ĠGS List
f read
Ġl ight
Ġparallel la
== (
cmd s
O ST
Ġ': ')
Ġl iteral
Ġ4 1
Ġ5 4
Ġcon tact
r dp
SE NT
Ġu uid
pre proc
me sg
Ġtx n
cmp int
N PY
Ġin voke
368 54
Ġc ms
spar ent
RE SET
c ntr
u f
w all
_ ##
me ter
Ġgroup s
ĠA J
DO UT
Ġi map
W Y
Get LastError
err up
L Z
.\ @@
ĠAdd ress
70 9
Ġla mbda
2233720 36854
ĠCl utter
go v
ĠI op
Buffer s
Ġst arpu
Ba sic
d sc
sem ble
Ġn ump
z val
Ġip v
Ġx c
ĠGN UTLS
A to
el le
DEC LA
Init Func
f info
x min
Ġ! _
Ġnew a
Ġadd resses
C V
reco gnized
x form
to c
Ġpro ject
Ġl m
L K
Ġ) (
ser ies
ĠC AML
30 5
f allback
tun nel
Channel s
20 3
s ms
@@ >=
Ġa way
sp ot
g ent
Ġb lack
el lo
h x
Ġ214748364 8
' },
17 1
v y
S cheme
ild card
Ġl on
Ġuser name
s pe
nd up
Ġsh adow
Ġcheck ed
READ Y
Ġĉĉĉĉĉĉĉ Ġ
Py List
ro pped
PK T
p file
al arm
ĠSIZE OF
29 1
trans mit
mt u
Ġ1 40
Ġ((( *
t st
U ME
ĠB ad
80 2
ĠBu ild
Ġra id
S elf
Ġ eth
an op
Ġn one
cl r
Ġd rv
0010 2
Ġ# %
Ġacc el
Ġz ip
Ex port
ok ed
POSIT ION
28 3
F olks
Char Ptr
Ġre peat
res ume
Ġm db
T oggle
ĠC T
draw ing
Ġs rv
pan go
Final ize
Ġvert ices
SI M
e ss
ĠC lient
36 7
J S
poly g
p si
Ġi desc
zero s
t iff
Ġ'/ '
CONST ANT
x B
pro m
Ġm utt
Ġar ena
ĠS v
QUE UE
atedeprec atedeprec
Ġ16 384
AS L
Ġ1 26
Ġst e
*) (*((
fo reground
ĠF FT
Ġmay be
23 3
C txt
ĠM ark
st or
ĠO ffset
te am
OO D
D UP
g uest
ct ime
ul us
pc ap
si an
Ġe b
F h
AT A
Ġlarg er
resol ver
mb s
c addr
": "
Ġass ociated
int ra
38 9
0010 9
Ġne ighbor
start ed
call s
ĠC ode
Ġ1 50
Ġj peg
il ar
ig ure
S LOT
ĠB R
ĠM B
code d
Ġ390 48
s asl
Ang le
x max
23 1
G lyph
p name
18 2
Ġadv ance
ĠC ogl
h dc
SS H
96 0
SPECIAL BLOCK
un expected
I tems
ĠN ORM
28 6
new line
Ġover lap
YI ELD
result obj
free desktop
PA IR
J UST
80 211
Ġex ceed
SI P
WA YS
Ġd atal
Ġm l
) =
]= {
Ġf w
th unk
ab b
ĠC D
ĠD IR
Ġwork er
ĠC LI
Ġmon th
22 3
29 9
Ġ9 8
30 6
N b
h z
ic ation
Ġany way
ORIENT ATION
Ġp am
NET WIB
Ġda emon
20 2
Ġ10 5
Ġ*/ ->
mapho re
ns ure
G ui
comp s
Ġvar s
Ġmax len
Ġadd ing
util ities
ĠS YS
Ġspa ces
perim ent
Ġsu bject
G M
Ġg da
55 0
sa v
29 3
l if
ĠI d
len s
S SE
Ġ*) (&
d name
D iff
Ġnew line
Ġuser data
( )));
ĠL IST
18 1
ch n
ĠM BEDTLS
G INE
ste al
Ġde gree
Ġp File
39 9
str concat
77 7
em bed
dat etime
cro p
do ck
sp ool
AL G
F d
gen e
Ġe qu
Ġout side
MO DI
mult iple
Ġcan on
ann ing
Ġgdb arch
up d
Ġe ps
c atch
Ġjo urnal
Dig est
mb ed
sys fs
Ġe q
Ex act
f ilt
ĠO per
STAT S
Ġpl Var
Ġf ds
Ġcy cle
Ġopa que
re ject
SHAD ER
o sition
ĠWid get
Ġun lock
39 7
vari ance
Ġposition s
si bling
DO C
@@) [
memview slice
fo ot
ĠN L
Ġpro mpt
Ġ7 7
Ġbo ard
el s
Ġcancel lable
Pro vider
Time out
termin ate
[ '
ĠA cpi
hand shake
v n
l val
lo ut
rot ation
OpenGL Functions
B M
Ġ art
sid er
Ġstat es
ĠT S
a stat
rc pt
ĠN et
) %
lat ency
m w
E ach
p db
32 5
Ġim mediately
Dat um
sec ure
Ġfa ila
V R
L R
S croll
nt fs
Ġreg ular
Get Module
Ġdisp atch
RE LEASE
Ġreg ex
X EXP
semb ler
Ġdebug str
ĠS ER
38 3
Ġde clar
Qu ant
day s
Ġv tk
28 7
Ġph p
ay stack
GS List
Ġstart ed
bf io
Dis able
E GRO
AB ORT
Ġ" </
ĠF C
Ġ ENABLE
sol id
st alin
Ġoper ations
Ġ:: =
h ib
Ġl z
30 3
Ġĉĉ ĠĠĠĠĠĠĠ
ĠSWIG INTERN
Ġarg vector
erm ine
et c
Ġ6 1
u dev
Ġcoun ta
Ġ lob
dimension s
Ġmk expr
ĠQ OpenGLFunctions
Ġopen ing
Ġn y
tr ig
e ax
Ġas m
Ġopen ed
re gno
sn mp
Ġg retl
Ġg amma
Ġ OT
ĠI gnore
fs m
Ġma pped
fra ction
, ((
Ġpack age
re la
ĠR GB
cr tc
Ġat of
66 6
ĠGdk Event
14159265358979 3238
ML S
56 0
p seudo
Ġo spf
ĠD C
ev as
Ġf rag
ĠSQRADD AC
Ġ5 3
I op
Loc ale
Ġ DECL
P in
Ġq sort
reloc s
CF G
ĠĠĠĠ ĉ
se xp
Lib rary
ex clude
AT T
N OR
if name
Ġr pc
sy scall
grad ient
t gt
re nd
ĠM ENU
: "
N OP
C al
P i
Ġ(! *
Ch anged
Line s
St d
DU MP
ans inton
Ġstart s
)) )))
Ġst ub
ĠR NA
pro tect
ĠE vent
me try
ar ound
w x
Ġw ined
ĠĠĠĠĠĠĠĠĠĠĠĠĠĠĠĠĠĠĠĠĠĠĠĠĠĠĠĠĠĠĠĠ ĠĠĠĠĠĠĠĠĠĠĠĠĠĠĠĠĠĠĠĠĠĠĠĠĠ
A MA
aut il
z i
normal ize
Ġsi mp
Ġloc info
od d
is or
String s
Ġt xt
D CT
Ġvar dec
Ġk s
ĠS hould
Ġ7 8
ce p
ĠHP DF
Ġa sync
ĠN SS
SC RIPT
s fp
Key s
Ġf cntl
mm ar
E IT
ĠS U
Ġb sp
35 7
ĠA Z
co very
i mat
Ġlook ing
item size
Ġo mp
PAR SER
ĠLo ok
Ġpro cessed
Ġext ended
% .
f ps
IL ITY
cy cles
K IND
mm ina
PARAM S
ĠMUL TI
in ptr
@@; @@
Ġxml Free
refe rences
g h
26 6
Ġr imeaddr
ĠW SA
Ġr atio
M V
ĠSe arch
From String
Ġ' );
un ar
Ġs ink
Ġ2 50
26 7
â Ģ
Ġn f
141592653589793238 46
C or
P END
96 96
U K
re quire
Ġbu fa
Ġto lower
Ġtran sition
U D
ĠB lock
ĠIN LINE
process ing
gn c
ĠHT ML
MP LE
Ġfre ed
27 5
64 4
LO AT
Ġresol ution
start s
Ġi e
d ra
ĠS I
Ġf h
IT LE
64 2
Ġ2 32
Ġlock ed
Ġcmd line
ac cessible
H z
mission s
const pointer
U DP
autil us
A CL
Ġ**)( _
b ulk
Ġma de
Ġx dr
29 7
cap abilities
Ġpro d
no unce
WRIT ABLE
ĠIN IT
34 6
3 40
h its
v tk
rout er
Sample s
bind ings
w ake
ĠEx it
Ġn ative
W CHAR
inter pol
Ser ial
Ġt ell
. );
at um
X GOTREF
32 1
Ġpix map
Ġdi rent
(" _
Ġpl at
M ULT
O id
Ġconvert ed
Ġb er
32 2
[ _
Ġf ocus
Struct ure
Ġge ometry
ĠH IDWORD
pie ce
ro id
UN SIGNED
ur b
AB C
pt ime
96 8
Re place
655 36
ĠVer ify
str v
ĠSh ow
Number Of
Ġlet ter
Ġtran sport
ĠPyArray Object
Ġo gg
Query Interface
rB ay
Ġarg p
bit mask
sc ape
EN CODING
Ġto ggle
Ġn py
an c
ĠA nd
sup p
Ġ7 5
E GL
Ġsend ing
Attach ment
Ġtime spec
Ġa fs
Ġarg a
Se ek
Ab stract
I m
ang ing
ne igh
ex ample
Get Buffer
Ġxml XPath
uv loop
29 2
havi or
pref erred
recur sive
p ivot
os d
ms r
ĠSet up
pk ts
Ġend ian
ct db
Ġ1 16
uni char
Ġm sr
Ġinitial ization
Ġid s
pe vent
Ġcan vas
ĠNO DE
33 3
NOT ICE
<< (
sol ution
Ġerr val
] )(
Ġat tempt
TA X
12 74
ĠP ACK
DI FF
n bits
x D
is oc
Vala Source
hel lo
let ter
gra de
cat alog
CUR SOR
Ġc addr
ĠN D
w k
39 8
argname s
ver ity
v en
Ġ32 0
Ġin flate
I W
location s
vp n
Ġ(* __
vert ical
Ġcp ssp
O s
ie ce
ĠĠĠĠĠĠĠĠĠĠĠĠ ĉ
Ġflags a
ĠEXTER NAL
L IGHT
ĠIde ally
CRE AT
ĠC udd
ĠM ASK
Ġ*) ,
quot a
Met adata
s si
in formation
ĠN V
Ġh ints
Ġm er
Ġag ent
Ġstart Idx
mit ted
sp er
int p
ĠC annot
key val
Ġc u
None Struct
Ġchar set
16 52
al n
in direct
ac ct
40 4
25 2
255 19
Ġf uture
mp c
size a
ED GE
end l
NOT IFY
G SI
Ġq p
sa mpling
Pixel s
Ġse ns
ĠDB us
Ġshould n
b map
Ġt orture
str to
A ES
Ġg a
JNI Env
Ġb roken
Ġex pi
3 18
Ġth ree
ĠXt Va
) (((
AM D
PER M
ĠDet ermine
st ock
x kb
s quare
Ġv box
H ID
O Y
si ent
ra x
sp n
Color s
R untime
it x
mix fa
ĠA gs
Ġskip ping
b nd
er ial
ĠC ASE
Buf Ptr
S ORT
AP PLE
g res
ĠM ATCH
q os
Ġg w
Ġmp d
Event s
UN T
B tree
PRO GRESS
Ġ ].
Ġsmall er
end s
Ġup lo
Ġcorrect ly
[ :
Ġw q
7 00
coun try
to ut
re ceiver
Ġ2 000
Ġacc ording
Ġ*) ==
Inter p
h m
double real
Ġ1 00000000
ĠDe f
C N
Up per
o ose
min imum
Ġr n
rect s
Id entity
I t
ĠG SS
Ġh int
CO ORD
ĠT EXT
lib rdf
Ġco da
ĠP S
Ġget pid
77 6
ĠInit ial
Ġg b
Ġint el
Ġ1 24
Ġr k
el ts
vers al
( ;
i ma
full name
Ġs am
= ((__
v np
34 7
ad m
FI ID
CH OO
READ ONLY
o ok
/ ",
SE NS
cal endar
=' %
CL U
b li
Ġ" $
Ġsched ule
s ur
ASTAT REG
DESC RIPT
#### ####
ĠCH K
Ġchunk s
W IDE
out len
Enum erated
pr hs
78 5
G IT
vector s
ĠP AN
HT Seq
B SD
p len
py game
ĠCK R
ĠF E
Ġse curity
al ways
Ġ6 9
Ġs cheme
s int
An y
G File
EX TERN
di al
... ");
ĠAL IGN
al ist
sk sksp
Ġreturn ing
Ġ' <
Ax is
Se curity
EIT HER
R Y
Ġre size
ĠP ut
Ġde ad
n rows
AB S
t ptr
58 6
v k
Ġr aster
n ss
SI DE
V oid
Ġd rive
S CHED
Ġ{ (
sh uffle
3 30
Ġco gl
Ġ) (__
H IGH
ĠA SCII
ĠJ im
Ġbind ing
Ġpro gname
Ġp urple
ĠR et
andid ates
a fs
in ary
Ġ[ @@
Ġ8 7
Ġ" [%
Ġ2 64
< (
Ġb ot
service s
D ST
Ġstr ict
q b
Ġc ls
n id
al bum
o ot
x aa
Ġ**)( *(_
pro cessed
Ġhw nd
ĠOB J
TY P
34 2
Ġh ome
L ower
fo ur
RO UGH
LE AVE
Ġpl A
Ġ( *)
Ġl ang
per form
refe renced
Ġauth entication
inv oke
Ġvi sit
prag ma
fix ture
input s
n ul
read ing
38 5
Ġor g
ug gest
Ġi llegal
mp ool
4 10
mo us
C ANT
ĠRe cord
mk dir
UT H
Ġput c
36 5
err num
Ġauto matic
ind icator
SH ELL
ĠS PI
H i
Ġw cs
Ġ'\ '
Ad just
E H
ĠA O
sr na
ĠV ECT
REQUI RE
ĠD S
ĠDe stroy
Ġf old
Ġcomp onents
rBay esPrint
m ip
box es
4 30
Ġc rypt
ĠUn it
pi ce
4 48
Ġf g
Ġre name
ar es
Ġo l
C ut
oi ces
CI SION
Y ES
f ro
equ iv
Ġan aly
st o
I MAP
LAY OUT
Ġun likely
ld ns
job s
DIRECT ORY
B LOB
Ġm sa
poly nomial
Ġsee ms
ST OCK
r Len
Ġg aia
ĠWindow s
Ġĉĉĉĉĉĉ ĠĠĠĠĠĠ
22 2
r sc
STRIDE S
ĠS ELE
Dist ance
ĠNe ed
nt o
Ġj ack
Ġbl ank
Ġpr ior
24 2
sp s
graph ics
In struction
CR YPTO
ĠR cpp
Ġimage s
wo x
ĠIn sert
Ġ editor
25 3
af ka
sub set
Le af
FILE NO
GetItem Str
mo ck
ĠAR CH
DSP A
ad b
M aster
u wsgi
Ġin correct
sib ly
Ġ ]);
R out
EE E
g fs
Ġup b
s dr
if s
ĠATTR IBUTE
DECLA RE
g lobus
str and
77 72
CH UNK
float ing
VE D
pref etch
Ġget c
Ġr ygel
Ġĉĉĉĉĉĉĉ ĠĠ
an te
F ocus
Ġ++ )
ĠCOL OR
ĠF MA
58 7
Ġcre ation
comb ine
p value
Ġre ach
Ġmatch ed
Ato ms
pS rc
BO DY
Pr inter
R P
64 8
ĠIN S
ĠT SR
Ġget ting
B and
68 4
F X
break point
ev en
ĠAV ERROR
P erm
Z IP
In v
ĠU I
lib una
33 6
second ary
og le
MI ME
t one
de structor
Ġun pack
Y UV
c dr
pre p
Ġref resh
car ry
Ġn g
Ġ5 1
)) [
28 5
ĠM ust
Ġversion s
w q
() \
001 10
PP sym
PACK AGE
Ġ" @
ĠI SC
os sible
Mod ifier
U word
Ġg ain
Ġout file
FI ED
Ġ++ *
TYPE S
s keleton
T D
Ġr sp
ĀĀĀĀ ĀĀĀĀ
Ġl hs
loc info
W K
AM P
Sy n
d cc
33 4
SING LE
>> ::_
S ta
Ġimplement ation
ĠDE FAULT
auth entic
addr len
Key words
por tage
f value
Ġerr buf
ĠL Z
Ġl ineno
Ġcell s
Cert ificate
polyg on
Ġse ss
Ġc ent
60 2
ad s
Ġpref s
Ġcoord s
ĠT emp
deprec ated
work ing
qui val
f sp
ĠC AI
Ġen crypt
IL T
Ġ ENOMEM
u la
nt p
a sio
Bind ing
REFER ENCE
Ġdat ad
dw mixfa
B order
str lcpy
SE PAR
\" ");
Ġcomp ress
comple ted
ĠP Q
ĠFN MS
To o
D a
n seq
Ġ". /
Ġp sf
Ex ternal
Part ition
Align ment
Ġ: =
38 7
H pi
Ġf ew
ic ients
26 2
Is True
sv g
ĠS N
Re gs
Valadoc Content
MISS ING
el lip
ĠThe se
ĠFLA G
h ar
GEN ERIC
ĠGL boolean
Pix buf
SELE CTION
A bs
T k
S pa
T ermin
36 9
cg i
en sity
ĠU Char
Tran sfer
Field s
Dat atype
gener ator
FT P
1 000000
to do
Ġsrc a
l id
Ġon es
ĠDe sc
ĠCAI RO
bi as
Global Name
37 4
ĠTSR MLS
Ġqu it
~~~~ ~~~~
+ __
ĠG P
ti cket
Ġp ivot
Ġp Node
sp mv
55 84
ĠSo urce
bit rate
CHOO SER
Ġx fs
Ġopt ind
play back
" };
X F
ust ers
pre sence
BL K
n col
we ek
Py Function
10 10
- *
Ġmake s
Line ar
As Val
f st
') :
it al
de tect
Track er
or ph
Ġg row
sock fd
Ġo vs
RE SH
Ġ' (
al th
ELE M
RE LOC
S te
frame buffer
FL USH
ble ms
Ġa ck
co pi
END OR
seq no
64 6
4 294967
ĠC ORE
Ġcpu freq
D Device
start p
CA PS
GetModule GlobalName
Ġu dp
Ġbin op
4 50
tab s
k afka
en emy
reg isters
Ġav g
Ġ1 23
Ġw m
ĠM I
ateg ories
Ġname d
79 5
Ġu Stack
Ġch r
encrypt ed
contact s
T p
request s
Ġre ject
Ġwrite s
Ġcop ied
n ers
pr ite
Ġl u
70 8
b ond
ĠM in
ur ge
ĠRe lease
Ġsl jit
depend ent
13 95
S w
Ġpath name
ĠG File
SC AL
5 44
= *
Ġp itch
Ġ qual
ĠL C
Ġnum eric
Ġ2 80
Fast Call
0 16
ĠX K
R ank
str free
ĠA st
Ġpath s
ĠGAsync Result
BLA S
Stride d
SUR FACE
ĠXtSet Arg
PL US
ET H
n dims
Ġign oring
Ġb atch
VE S
VER SE
Ġ1 11
rd at
ĠL in
or dered
CT YPE
Ġ** /
x r
separator s
Ġ INVALID
f ence
Ġsig action
Ġt z
Ġf z
ĠPy Unicode
y mous
main w
Ht tp
ar shal
Ġ7 3
Ġ*/ |
y uv
comm ents
ve red
g cd
Ġpre lude
Ġ'. '
Ġb w
g pe
Ġri id
B K
Ġp iglit
Ġb n
pl l
e rence
Ġname a
Ġpro t
,& __
WAR D
Ġt un
gl Vertex
Ġd list
S cope
* (@@
stri ction
Alloc ate
bp f
p In
Ġfeature s
b ins
h ci
Ġsock fd
pS crn
w gt
Pl an
l ite
F un
fl ux
periment al
Result s
y max
am d
Ġcomp uted
27 2
Se cond
Ġtol erance
B LI
Ġ4 294
CHANGE D
L IN
ĠSTAT US
st ime
h nd
22 1
ch rom
ĠG D
at tack
Ġs dp
40 5
PUB LIC
35 2
ĠF LOAT
ĠT ARGET
cb s
Ġm ime
o sp
po xy
Ġqueue buf
LA DE
c msg
pre set
Ġp ts
m si
C ENTER
Ġs lab
ĠAl so
Ġyy g
Z ip
] /
y min
pro x
) *@@
tra verse
l work
Ġ4 29
_ (@@
ab out
wait ing
Ġsegment s
Ġx d
Ġcl one
AS M
Ġpass wd
def late
p Next
ĠA ss
file Name
ab spath
T ITLE
CON V
Ġf urther
sy mlink
i w
Mo use
ten ded
. */
ĠĠĠĠĠĠĠĠĠĠĠĠĠĠĠĠĠĠĠĠĠĠĠĠĠĠĠĠĠĠĠĠ ĠĠĠĠĠĠĠĠĠĠĠĠĠĠĠĠĠĠĠĠĠĠĠĠĠĠĠ
Di rection
PC B
s S
ĠEx ception
exist ing
Ġ1 15
lit tle
at ts
ĠVAL A
imag elist
co ut
Ġ! (_
arch y
d I
Ġsig ma
f er
o spf
24 3
buf ptr
Ġc timer
str icmp
VI SI
spec s
i ptr
VER TI
H ORIZ
pr n
FIX ED
tran sl
Ġg rab
Ġco me
) <
68 0
Ġd q
Ġcallback s
Ġf lip
PAT TERN
mid dle
in ing
op acity
Ġp en
; ;
ns upported
Ġs fp
Ġx m
50 4
n args
Al g
G OOD
d E
Ġblock ed
Ġe fl
ĠHow ever
Ġgener ation
BU ILD
ĠS SH
iter s
check out
hook s
W D
n cols
p str
Man aged
Ġcoord inate
NUM ERIC
nl msg
Ġpart s
630 5584
488 1274
6305584 4881274
63055844881274 687
]) [
r ic
u data
fil led
Ġe poxy
Ġtermin ate
ste reo
Ġrule s
Ġ[ ]
Ġgr ad
Ġ} _
ĠCh ange
ph dr
icon v
ĠR G
Ġmo ved
C fg
rad ix
tim ing
A ux
60 7
Ġdu k
Ġ' ]
IGN UM
FIN AL
ĠI M
Ġ*) ((__
Ġh ack
63055844881274687 180
Ġe igen
ĠE nt
Ġ RET
Date Time
CO MPI
P ipe
Ġm g
Ġm f
12 3456
Ġt if
ĠGener ate
ĠR SA
M PEG
Ġe m
Ġ8 5
Ġsuc ceeded
B est
ĠM y
Thread State
k bd
Ġ erts
RE SSION
writ el
V F
EXP AND
Ġl dst
Ġ- ->
mon o
Ġlevel s
Ġf u
Ġav ail
INT S
Ġh tab
Al location
int node
EX CEPTION
ĠP H
Back ground
Ġb gp
array s
Ġh a
Ġĉ ĠĠĠĠĊ
may be
interface s
Ġresource s
Re mote
r na
001 12
tern ate
x pp
STR LEN
we apon
ĠJ ust
ĠM PL
se at
Ġclo sing
C YTHON
e rest
Ġ2 88
ĠVECT OR
2 96
Ġre main
T ry
Py Method
Ġre duce
qui red
q q
Ġpr inter
Ġexact ly
py argnames
DR I
tol erance
Ġscal ing
A gs
lin phone
if a
Ġg object
Ġinter pol
ge s
36 6
Test Case
po sed
Ġd rm
Object s
el apsed
Pro to
top ic
ĠJ SON
c group
10 48
Ġof s
R aster
Con tact
ĠJ S
ERR TAG
str s
Ġl st
update s
@@+ =
GT ype
do me
Ġc losure
55 8
sn a
Log ger
h size
ch a
Ġl dns
Ex ist
re x
ho le
Ġu d
OM IT
Ġn uma
Ġ10 9
w ell
Ġsy scall
Ġun do
Ġv isual
Des k
As sign
n est
or ry
Ġe ap
Ġo ccurred
v ect
mo s
te ar
sk in
dev s
: /
Ġ& (@@
** (
er c
ch g
Ġdebug ging
Ġb pp
ĠCont rol
IT OR
SC R
ĠA ct
ff i
BufPtr Strided
Ġdi ctionary
ĠE vas
ĠN ormal
er ies
READ ABLE
Ġtra p
ĠEx p
. /
ĠG SM
u li
R ULE
go oS
Ġin cludes
h tab
Ġback up
Ġp buf
a bove
Ġs heet
match ing
ist ream
56 9
For Each
Pass word
tr ac
V AS
3333 3333
b z
repo sitory
Ġ1 48
st ored
aaaa aaaa
ĠFF ERRTAG
tr x
()) ())
), &
Ġ1 64
r pt
F M
Ġ- --------
xm ms
man y
reg exp
DR V
n ested
Ġa ble
Ġsh are
mod ifiers
ĠArg ument
full screen
direct ive
W STR
FOR CE
Ġf our
Ġ Info
qu ick
Ġtri angular
Oper ator
Pre sent
H EX
Ġ*/ :
b on
X G
Native Enumerated
50 8
J K
34 9
P ower
p List
B ATCH
end ir
Ġin vert
@@) [@@
si lon
c las
Ġc atch
SI MPLE
pe a
M ix
Ġdw arf
Ġe bp
re interpret
en vironment
Ġlist s
Ġdefault s
ig rate
Ġ2 72
()) [
Ġp as
Ġsc anner
rec ipe
FFFF FFFF
Ġid le
ĠHD assert
K ernel
Ġm tx
b ps
Ġgx g
39 5
dw arf
Ġth ough
r buf
Ġfa ke
Ġwork space
PRO TECT
b right
L W
n cp
Process Heap
Ġ( \
Ġe cx
an a
MO USE
Ġn ss
AS Y
ap l
ĠM atch
NE G
V ENDOR
STR OY
- =
Ġ*/ ]
Ġlink ed
by name
n elem
stat istics
Ġpla i
Ġw ide
KER NEL
pp c
MEM BER
W eb
CS uccess
th rough
hr ase
PO SIX
ĠComm and
Ġv b
Ġv e
Con sole
Ġ(*( *
Check Exact
inger print
nt op
13 94
ĠR un
in verse
COMP LETE
@@ &
Ġa ut
ĠE GL
mask s
ĠSt ream
xxxx xxxx
WH ITE
LIT REF
ĠE LF
Cancel lable
Ġproper ly
ĠA LLOC
ĠA GS
P J
Ġx i
ca b
expi re
po ison
Ver bose
____ ____
o buf
1 00000
u dy
ĠS K
up dated
Ġĉĉĉĉĉĉĉĉĉĉ ĉ
SE CTION
strfree v
c and
Ġal ph
Ġref count
@@) -
Ġb al
/* !<
ĠIP PROTO
ĠG V
TE L
gl VertexAttrib
H AL
ĠA H
GET OPT
ag ing
Ġio vec
ĠBU F
ĠS UP
OP CODE
FOR E
ĠB Y
Ġ um
ĠXt Pointer
4 40
Ġf use
V isual
ĠS IM
VALUE S
M AR
] +=
Ġp list
MT P
AS ERO
Ġb trfs
Ġp ipeline
@@ ?
Ġsc si
Z END
) >
g si
compo sitor
ĠG Cancellable
Ġge om
ord ers
M u
act ivity
ls r
48 2
ĠRe quest
B rowser
Ġde scr
TI MER
ĠEn able
Ġ*/ .
out f
str cst
58 8
t at
D iv
ta pe
Ġ' $
A O
li sion
r ho
Ġl b
Ġ variant
ĠT C
domain s
istr ation
POW ER
in dividual
00 4
Ġargv a
declar ation
c la
ĠS p
log ging
buff ered
ĠD R
Ġtr ig
Ġh our
j d
26 1
HO ME
load ing
R ING
RE V
S PIN
ri id
with out
Re ceived
strib ution
j k
A GS
cr l
ĠSELE CT
st h
@@[ (@@
Unit Test
Ġ" ../
Ġin crease
EXTEN SION
key len
QU ENCE
Bo ok
ĠCLA SS
Ġint f
Ġl ll
% "
Ġ1 29
3 12
key file
BU SY
expan ded
223372036854 775
up stream
Ġe e
a io
ĠD H
Ġag g
Close d
22 22
G o
Ġv d
SHAD OW
F r
Ġh s
, ",
"); );
int o
r ts
C PY
); */
e fi
Xt N
ĠR ow
DI MEN
present ation
)) :
Ġhandle s
ch i
f time
EG AL
u ss
Ġin len
ĠD UK
B lend
al ty
xx x
PRI ORITY
Multi TexCoord
CH AIN
Ġwrap per
le c
base s
in ct
Ġdef late
Ġu char
ACT ER
r pl
li ca
Ptr Array
Thread Job
48 6
Ġ*(*( *(
Ġg mt
ol y
p ressed
_ (&
ip addr
9 50
m add
ĠF ound
n Col
ĠC P
aut of
Ġ214748364 7
BOT TOM
Ġover write
Ġ1 70
set sockopt
DIMEN SION
ul let
iv ing
mat erial
Ġrefe rences
N eg
si eve
SC OPE
G AM
d ts
Ġrequest s
ACCE PT
up load
Ġcont in
], @@
ATTR IB
AD ATA
Ġcon sole
Ġl seek
Draw able
C ATION
re serve
br k
PRO GRAM
phy sical
ĠQ U
ĠF o
ic c
par sing
30 1
60 1
, ("
B ig
Ġex c
BC OR
constant s
Ġvir ThreadJob
ĠA void
Ġu wsgi
h df
pro blem
sl jit
ERT S
Ġp an
10 28
Spec ific
scal ing
ĠID A
ĠN UL
IS SET
Ġh err
DE S
ĠD CT
db c
ter native
s ap
CLI P
Ġc sound
ĠDO UBLE
4 22
BIT MAP
h j
Ver ify
n A
ĠR FC
Ġcomple ted
b urst
ĠQ String
h ref
SI S
SE COND
ĠMO VE
I face
s sid
Ġor ient
)/ (
Ġop j
TH ROUGH
cap ability
av c
Un signed
box ed
@@] ))
OPER ATOR
Le ave
re gnum
Ġc n
Ġr nd
ĠE D
ĠPRI x
Ġr id
read only
iter able
R OR
AR ITY
Ġ10 3
t res
MA CS
Ch I
SE XP
obj s
SI LON
region s
Ġio mmu
gn ost
rt l
k g
LIC ATION
Ġ'\\ ')
ST OR
Ġ"% .
Ġfall back
fd t
' ]
ĉĉĉĉĉĉĉĉ ĉĉĉĉĉĉĉĉ
P ress
Ġd sr
ĠComm on
h uff
c if
i lo
Assert ion
Ġpro vide
remote Dispatch
Comp ute
bu ddy
BC SR
Ġlabel s
ĠH ASH
canon ical
tp m
ĠSer ver
z c
G ap
ph er
Ġcode s
ĠI ter
Ġ20 88
Ġx s
A rc
ĠO FF
Ġmat rices
si md
Ġ(& (
E FT
band s
C ustom
Ġop us
T x
80 7
w nd
Ġk a
il ine
Bound s
4 14
ĠST ACK
ĠP UT
Ġpro cesses
ar ante
Ġ4294967 274
Ġo pc
Ġint errupt
con tour
] <<
Ġme ss
8 90
s of
queue s
@@== @@
ob i
sum er
z le
,% %
B ra
Ġde al
Ġs long
e core
Ġfre quency
GLOBAL S
F CT
Frame buffer
Ġsym tab
ĠG INT
mem move
Ġj object
28 1
Ġ*) _
not ice
ent ropy
40 6
FIN ISH
L B
ĠC M
")) ,
ren gth
DE STROY
t ips
sw apped
Com bo
Test s
BO ARD
qu ir
inter sect
V FS
En coder
Ġpl ug
Time Period
Ġw ine
** */
En vironment
p ctx
Ġĉĉĉĉ Ċ
ĠP ort
ĠS UN
Ġde p
MAC RO
39 3
m sec
To String
page size
Ġhappen s
ILL EGAL
10 72
GEN ERAL
@@| @@
ĠO r
Par s
Ġre po
Ġ2 54
78 1
th umb
Ġcomple tion
P lace
Ġp seudo
Ġload er
Ġl g
Ġa pi
f riend
com ma
Ġsimp ly
? ",
ĠUn known
Ġmode s
f mpz
p val
Ġg lob
is om
39 2
AR GE
k y
9 00
30 2
c iph
un supported
Pro ject
se par
Ġacc um
gu ard
RE CTION
Ġper f
Ġ" )
cal ib
Ġp mix
ĠP acket
FRA G
Ġpack ed
x v
Ġ10 7
Ġconfig ured
N orm
g bl
Buffer Size
Ġsuccessful ly
R ATE
cmp str
pt y
in coming
Ġdif ference
Group s
ock y
il s
leg acy
x pa
md ay
Widget Class
on ic
ĠB ack
Ġĉĉĉĉĉĉĉĉĉĉ ĉĉ
ĠEX P
F req
Ġs ur
Ġp W
ĠL UA
[ __
Can vas
SYN TAX
Ġvalue a
55 5
ĠBLA S
' ));
for tran
Ġend s
Ġv oice
ach ine
I HTML
ĠE lf
ret ch
p ck
LC ORE
Ġoutput s
Qu ad
ed ata
ĠU RI
ren a
Ġear ly
Re cur
Ġy es
c string
s cores
Lo ok
Ġs quare
ie ee
REA K
Ġfollow ed
*/ ,
ĠFix ed
Ġd fa
Ġtype def
68 8
tr k
IT CH
ll lat
B r
Ġpk g
d on
DE ST
R IG
Ġg ra
ali ases
96 9
ss a
Ġ((( *(
Ġlll at
t in
76 5
D ot
10 18
P urple
Ġ ke
block rows
rx q
s low
Det ect
40 3
Ġload ing
E q
Ġtr im
t ell
Sele ctor
Ġ"../../../../ ../../
s mtp
25 1
PAR AMA
Re size
ĠMPI DI
true p
l sp
Ġdata f
pointer s
Ġbu ilt
NO ERROR
ĠoptIn TimePeriod
ĠU SB
ĠP MIX
Ġimp licit
T i
p iglit
LI BC
s ge
ds r
PARAMA V
Y gooS
Ġ1 13
ĠC I
ff ile
back ward
DIG EST
en q
xs ane
ig ar
tmp buf
UNI CODE
Ġtermin ated
4 38
compat ibility
Ġh size
Ġscal ed
H ook
ĠL ib
DR OP
Child ren
i ms
---------------------------------------------------------------- --------
PRO JECT
Ġn ick
ĠChar Ptr
Ġ} \
Ab ort
Ġc ptr
t arg
susp end
C var
50 6
Ġext ents
c lamp
Ġt erms
Ġs ge
50 7
mplement ed
ĠA ny
l un
Ġ_ ("%
ĠT ABLE
ĠFAIL URE
f ollow
Ġw ps
ĠP TR
F IND
27 3
inter active
pla ced
P THREAD
00000000 00000000
], &
frame set
ĠK RB
Tr igger
Ġ*)(* ((_
ĠJNI CALL
w ps
Ġc w
ĠP age
ĠGtk Text
CS R
if index
Key Info
ĠXS RETURN
t pl
ĠTran s
f stat
34 3
t ar
LE SS
Ġo cc
base d
PP C
Ġptr diff
ĠUP DATE
Ġser v
Ġsi lk
Ġalloc a
p ulse
arb age
byte order
? \
rep lay
f ns
da mage
ĠR A
Ġ((* __
Get Int
wr k
Type Test
Ġst eps
R ich
block cols
Ġvert ical
55 55
ener gy
)) (*(
Ġv id
j i
Ã ©
pt p
Ġal go
Ġconnection s
ĠRE Q
Ġ7 9
work ers
h sp
Ġg sm
ir p
24 1
invalid ate
le e
be ar
B eg
ONT AL
012 3456
pa c
Ġ1 99
pe ated
Ġ ENOENT
In f
f onts
s mooth
Ġc apture
ĠS calar
p R
key words
p Cur
MO TE
FF T
ch allenge
SEPAR ATOR
D LL
ĠTh en
Ġfac et
Ġpc m
ĠF rom
Ġfil led
) (__
ĠP CI
de comp
short cut
Ġ annot
g uestfs
Ġsend er
( \
Pro b
attrib s
print w
ba sis
58 5
Ġm ips
76 9
F amily
Ġs alt
P t
ĠA tom
reg cache
gl X
Co verage
48 4
Ġp Idx
Ġ1 30
Mac ro
iss uer
b size
One Arg
48 9
min s
bs d
Ġs anity
ĠCon text
Ġsh utdown
H RESULT
Ġp ot
Ġch ip
G Variant
f seek
ĠEn try
); ");
Call OneArg
Ġre spon
Ġp icture
IN HER
L iteral
spec ified
mp rintf
Ġa ff
Ġc ategory
SS S
SU FF
zz le
B ORDER
Ġc rm
IN UE
Ar ch
fa de
4294967 295
ful ly
IV ATE
d ont
@@) (
* >(
A bc
ĠG O
Tran sport
me f
Ġ(( -
ĠTh row
ĠT oken
ĠĠĠĠĠĠĠ Ċ
CUR L
37 9
* );
Ġ*)( _
M c
ho ver
ĠO ne
36 3
file no
Ġde precated
msg id
ĠX kb
N AS
P icture
FA LL
J J
O TE
ar se
h al
78 4
ĠS PA
Ġdir ty
REG NUM
:: ~
xml Sec
dis ks
Ġi ce
do s
ĠF in
Ġdatal en
u ge
Ġw i
cont in
m fn
DE CODE
ĠLW IP
de alloc
Ġext end
Char acter
ee e
COMM ENT
Ġ" ,"
NO ERR
TRANS FORM
ĠpP ager
ĠL ink
ch es
ĠĠĠĠĠĠĠĠĠĠĠĠĠĠĠĠĠĠĠĠĠĠĠĠĠĠĠĠĠĠĠĠ ĠĠĠĠĠĠĠĠĠĠĠĠĠĠĠĠĠĠĠĠĠĠĠĠĠĠĠĠĠ
key sym
Ġy mm
ĠRe sult
Ġk k
index es
ĠST REAM
m ic
Ġr sa
link ed
Ġcro ss
temp ts
Ġ )))
yy g
LO OK
Ġmove ment
27 1
POL Y
up tr
64 7
fi re
S im
TE T
thunk pos
Ġv q
m ips
Ġv result
Ġ' [
g be
P alette
gw en
? ");
Ġg nm
40 7
print err
64 5
er ior
Ġmem b
f li
Ġwe echat
Ġer ret
NE ED
3 14
ile n
Ġin herit
construct ed
SETTING S
Ġerr code
v li
ĠB M
ste md
p File
z en
Ġc andidate
Ġ(* ((
ĠF ail
CAN VAS
RE N
pf x
M erge
A IL
iss a
ĠFFT W
A fter
c xt
nt oa
Ġget timeofday
Ġde mux
Declar ation
bb bb
p Page
Ġcom ma
: */
ĠĠĠĠĠĠĠĠ ĠĠĊ
ĠT MP
ĠF O
State s
MA CH
O OM
j h
Ġinput s
am b
Ġr len
icon s
Ġh mm
Ġdy n
Ġd gettext
Comp at
Window s
y n
RE PLACE
Ġlib c
ts d
Ġta u
sh dr
g ers
Ġthis a
ĠT ree
36 2
44 3
ĠP ATH
De scr
S ame
N AT
EP SILON
ic m
Ġme d
Ġaction s
Info Ptr
l ane
Ġc tr
Ġzero s
st encil
Ġs low
Ġprevious ly
ĠGAM MA
Ġ" (%
f lo
M tx
B ank
COUN TER
de on
iter ia
CON STRUCT
Ġtran spose
Ġsepar ate
ca y
Ġwhite space
w arf
Ġbo ost
ĠEX TRACT
ĠT T
ge e
Ġcon sider
Ġlist a
Select ed
M aterial
Ġbo ok
H L
al u
40 1
FFFF FFF
Ġgpg me
b ts
L anguage
Gtk Text
ĠE INTR
he vc
ĠG LADE
G da
Ġ\ '%
Ġaddr info
@@," %
Py Type
Ġsi te
ĠĠĠĠĠĠĠĠĠĠĠĠĠĠĠĠ Ċ
p gs
Ġ( ("
Ġp cap
HORIZ ONTAL
Hist ory
Ġ" )",
ific ant
hi er
nf kc
LOC ATION
Ġp Cur
b ench
stat ion
Ġin cr
ur is
ĠP ost
@@[ ],
Ġtrack er
out line
j ac
re pr
Ġcompar ison
Ġst bi
ĠT race
ĠĠĠĠĠĠĠĠĠĠĠĠĠĠĠĠĠĠĠĠĠĠĠĠĠĠĠĠĠĠĠĠ ĠĠĠĠĠĠĠĠĠĠĠĠĠĠĠĠĠĠĠĠĠĠĠĠĠĠĠĠ
LA PACK
Ġcol lection
Ġsock len
t ps
V G
g ran
ad apt
r fc
Ġrange s
*) ((
ĠF ts
sub st
ĠF P
Ġsequ ences
th umbnail
Ġpair s
rea ded
yy scanner
Get Next
convert er
b len
ĠW OR
w far
time zone
Wr ong
C b
T wo
P hy
hy wfar
ĠA lias
Ġm us
ĠP ath
; {
h ig
Ġ6 00
ma ss
Ġinstruction s
ValaCCode Identifier
ct k
ĠG lobal
Ġ' {
ĠHI BYTE
re main
Ġcon cat
Equal s
XS ARGS
Ġexceed s
Ġlib rdf
40 2
node p
Ġtre at
Get Error
T ick
W SA
SIZE OF
sub title
Ġ) [
ĠCR YPT
k ing
Ġx t
m ol
ĠV I
Pl ane
reg istered
AB I
A u
T SS
pc c
Base Module
Ġm r
lo ss
Re verse
ValaCCode BaseModule
ĠMULTI PLY
int ext
Sh adow
tot ype
Ġk b
h ed
session s
ĠV M
Quant um
ĠJNI EXPORT
g ts
<< <
D er
A gg
Ġ37 35928559
ĠG wy
par ity
ex oid
ck s
g cry
play ers
rt cp
R IC
Ġf li
Ġskip ped
] "
p ch
pr t
ĠB LOCK
xffffffff ffffffff
Di ag
hu ge
)( -
GL int
v buf
B ot
Ġro ll
Ġg lade
Ġl j
I LED
ĠCL UTTER
A lias
O ct
ĠReg ion
HANDLE R
28 2
construct or
pro v
48 7
real ize
ĠD P
z alloc
Al t
//////////////// ////////////////
Ġa es
Ġset sockopt
lat itude
Ġ*/ ];
Ġli busb
d ri
AY BACK
ann ed
pe m
autof ree
Ġp In
msg buf
ĠI V
umul ator
bl ks
z f
Ġ' !
Ġv g
Pa int
j t
ĠUP B
ĠG o
R PC
Ġre draw
ĠN EXT
Ġn read
Ġhig hest
Ġto do
mag ick
E IO
m us
U F
me ss
om ic
Ġad apter
Ġg uess
lap se
ĠL PC
Ġlib spectrum
ĠN IL
76 54
ĠT p
UR ATION
EN GINE
Ġa scii
z p
FILE NAME
Ġf ore
un ity
8 22
R ing
pc re
di ctionary
diag onal
Ġcondition s
*/ ;
get opt
sk b
AI LA
ĠCR YPTO
ID s
AME L
Ġlarg est
H INT
ĠCo mple
ĠVal Node
p E
co verage
TI AL
Ġa verage
Ġne ighbors
ne on
b undle
70 4
de ref
fin i
h res
Ġa ctor
ĠDE CODE
7 1828
at ial
art ist
pr f
P MD
Ġl x
pp d
Ġmark ed
im in
RO LE
FET CH
te le
Ġres pect
Wh ite
ĠĠĠĠ ĉĠĠĠ
U rl
Ġp str
A LE
Ġstat istics
R ID
Ġm h
Ġsection s
ĉĉ Ċ
ĠEx ec
lib rpc
routine s
ang led
Ġformat s
ĠS OL
ĠD LL
,& @@
Dis k
Ġxml NodePtr
b et
ĠG LOBAL
sc n
gwen hywfar
Test ing
Ġco lour
NE CTED
INHER IT
Ġrot ate
3 13
Ġ16 7772
sa x
56 7
8 00000000
renc y
Ġcom bo
Ġrot ation
CLE AN
Ġxml Node
Fe at
00 5
Ġeval uate
S LE
ĠX Set
Ġj it
Ġz oom
KE EP
n read
cre ation
N AN
S tage
k in
ĠH Y
5 24
un iform
v len
oct et
Ġlength s
Stat ic
Ġextra out
sub offsets
Ġfra ction
x o
ĠPy String
tran slation
Ġty p
Tr uth
O ther
d size
49 8
uc er
rt sp
RND N
ĠA DIO
C BC
ct h
emit ter
Ġ'/ ');
obj file
GS M
mg mt
< @@
Ġ) *
[ ++
Ġi mag
s qu
ĠX Free
fix up
ĠMagick False
char t
1828 45
c ds
con j
OBJ MASK
Word s
sq r
ID A
co p
VI RT
p Screen
' d
need le
8 192
us able
ĠI SO
MIN OR
author ity
cl utter
90 4
Ġlib fdata
B reak
ĠL et
ffff fff
GET ARG
71828 182845
no me
RT P
ot i
Ġth ink
Ġtake s
Ġs lave
eps g
ĠS ND
TAIL Q
Ġindic ate
ASS IGN
b old
Pub lic
al ready
Ġdraw ing
Ġu ECC
64 9
g type
UT IL
OL DER
Ġ1 25
H AND
atter y
ĠPy Sequence
ar o
an imation
) ],
B V
ar ily
v ing
rand int
io b
Ġ(( *@@
ĠI PP
Ġ Vala
quest ion
E FF
sm ission
at ory
per ms
ant issa
fp u
key code
lu ma
[ ?
ĠB utton
(" [%
CR T
s val
P lot
a fp
Ġuser s
Ġn elems
(( -
Ġta ken
UNDEF INED
set opt
ĠU V
ĠP ER
comp act
GR P
@@) .
C amel
IN F
ab lish
' )))
number s
writ able
Ġgu arante
Ġreg istered
TEMP LATE
T ok
G DB
cl p
? "
J son
e poch
p Op
AV AILA
MET ADATA
Ġwh o
44 7
UB Y
Ġ9 4
35 3
Ġc he
ĠHe re
Ġr aptor
row se
Err Msg
LINE AR
Vector Copy
Ġnull ptr
tear down
g da
sist ant
Ġp fn
with in
D rag
T LE
val p
s H
ĠL Y
64 1
And Size
Ġauth or
de li
Ġb ank
Match es
Fra gment
S MB
Ġa sprintf
DI ST
Ġto upper
50 1
part icle
Ġmetr ic
s lices
ĠD D
D SA
AM IC
Ġg uid
Ġp ly
ĠJ ava
PI M
] ][
parent s
7 55
S UN
ĠS ign
over write
Ġdecode d
() (
wr iting
44 9
d ls
ĠH OST
Ġt k
quival ent
F atal
que e
ptr a
Program Uniform
Ġ1 00000
tr av
ure s
ho od
34 1
c as
Ġcb f
x slt
DIS PATCH
Coord s
Ġ8 1
MAX IM
factor s
VARI ABLE
ĠT X
SI ST
Ġbuf p
l pc
il led
Ġph i
up p
w ich
E ast
pe s
Co mb
tr ash
Ġen vp
ĠCG AL
Ġ32 767
ver bosity
TRAN SP
gn m
Ġtri angle
ex change
t case
Ġw b
ĠM ET
ĠS B
Ġch oose
ĠD BL
CON NECTED
SHA PE
PC I
UP T
ee ded
s name
MON ITOR
Ġpro ps
Ġbuild er
lic ense
Ġcont rols
ig t
X M
ĠC trl
xml Str
; ",
j ava
Ġ1 88
ĠG roup
PEND ING
ĠC ERT
Ġif p
m ongoc
re map
67 3
C ube
p retty
C g
@@[ ])
Ġlog ging
Ġval s
cl ing
Ġw a
ĠC V
lib fdata
ĠW ork
n P
c len
Ġp Data
ĠApp end
GetBuffer And
ĠXt N
NET WORK
9 49
ent ion
Ġn fs
Ġd ri
CON STR
), (
K ind
ĠINS ERT
A K
Bl ue
Ġexplicit ly
", *
ĠOP ER
GtkTree Model
90 8
Ġpart ic
Option al
C leanup
RAN K
f an
ĠE nsure
()) [*
GetBufferAnd Validate
Col s
o pr
alle st
Ġ" |
ĠTH ETA
q c
ĠĠĠĠĠĠĠĠĠĠĠĠĠĠĠĠĠĠĠĠĠĠĠĠĠĠĠĠĠĠĠĠ ĠĠĠĠĠĠĠĠĠĠĠĠĠĠĠĠĠĠĠĠĠĠĠĠĠĠ
g rib
Ġport s
side s
ĠIn teger
Vi sitor
NOR TH
E v
Ġun reachable
oy stick
m ib
Ġb lend
ĠUn able
] )));
pan ed
file size
Re cv
d ge
Ġ** ,
0123456 789
B ottom
Ġbu iltin
33 1
Ġc pp
32 10
Op code
ot onic
Ġan chor
3 58
Ġconstant s
VISI BLE
Par m
Ġb el
] &
TR UN
fe of
ĠO k
Ex tract
Ġsupport s
56 6
== @@
Cur ve
J ump
de sired
M IPS
SF ER
Ġf ifo
cert s
Cl utter
un icast
ib i
APP LICATION
GtkTree Iter
Ġsnap shot
ĠR IG
55 6
SER IAL
AVAILA BLE
ĠP AM
Ġma ch
sl p
EM U
S ide
Ġin verse
M K
Ġc ups
tile s
C RC
EA ST
Ġc q
Name space
str p
> ";
Ġh elper
SHA RED
U sing
J PEG
gp io
Ġsn mp
cre at
ene ss
Ġsm art
Ġe mbed
3 16
P erson
W B
Ġun set
C red
Ġ*) (@@
Ġround ing
if ile
MPI D
c amel
y aml
Ġi rc
it ect
cs um
bra cket
D h
Ġpr i
Ġdeclar ation
b elle
Ġp pc
f type
mp ath
AT YPE
d ic
Ġst k
ĠZ END
Byte Array
medi um
SE M
log ic
ĠYP fab
Ġsy stems
ck ey
q name
par s
est imate
Ġin direct
==== =
IN FIN
AM PLE
cb c
GL float
Ġrp ntr
Ġallow s
Ġre mainder
cp ath
da a
Ġs pect
Get Data
d print
Ġdis c
Ġb mp
h orizontal
gn oring
Ġextension s
Ġsi eve
descriptor s
si lent
data size
Ġ8 9
Ġ7 1
ay er
Ġre location
SOL N
ffect ed
want ed
Col umns
Ġsa mpler
fr u
Ġweight s
ar i
p assed
Ġp F
c entral
s lope
or a
Ġv tx
gen ome
ĠP ass
Ġb cf
lev ant
Pol ygon
es ys
ro te
at p
ret code
->_ .
(* ((_
Ġsum mary
== -
ĠP CRE
ĠP sych
ct ex
ĠN B
vent ory
T d
E st
36 1
IMP LE
ĠT CG
Ġg fs
g lf
S z
s st
te ctor
m ut
Ġ2 60
imp licit
vl c
par all
Ġoffset a
Ġ" **
str ndup
normal ized
p Idx
Ġvar id
DB C
t sc
IS OM
B LEND
O WORD
pub lish
G ate
IP MI
STR I
r len
activ ated
Ġ%. *
w ater
bl it
Generic Error
multip ly
Ġ Variable
Ġc tk
OVER FLOW
N ih
Build Value
o vs
x pos
H DF
Ġr data
RES ER
IDE NT
90 7
d buf
en velope
Ġ{ };
ĠST AR
ĠI A
Ġ-* __
lass o
S v
s err
ĠD el
Error s
mer ged
ĠGObject Class
S ink
ĠS can
v me
Ġs urf
we echat
HOOK UP
pr m
ĠGt Uword
ValaCCodeFunction Call
Set Values
lic ated
Ġconv en
Q a
Ġg cd
Ġparallella intn
Ġd XSARGS
DE LAY
e report
as q
OT H
78 6
Ġxml New
sampler ate
** /
s info
B lk
r ics
l wc
Ġlim its
ver sed
Ġdst a
s an
rec ip
re wind
Ġ" &
Ġ& ((
ĠA uth
J SAMPLE
iz zle
ĠP op
Ġstructure s
Ġpg m
S pin
on line
PP list
hib it
Ġoct str
ĠSend Message
Ġj b
OC TET
ĠPix el
Ġv x
trib ute
de mo
Desk top
40 9
assert Equal
ATOM IC
p io
Ġread ability
35 1
NE S
Size s
color space
interval tree
compo sition
Ġ< -
p md
Ġc amel
white space
lo y
sp o
ASY NC
% @@
tr ast
ĠR B
Pri ority
ITE D
x malloc
4 54
RE P
Ġi l
l cat
Ġu b
ĠS ort
Append String
Ġo sip
map i
Dy namic
Ġ" ),
G PG
W here
Ġg sb
dir p
cb las
Ġr ig
ĠQu ery
s la
aud it
m icro
p cr
s U
arg z
ap du
NO MEM
Ġin dx
Ġsi mpl
C DF
w er
til de
485 76
Ġb am
Critical Section
book mark
ValaSource Reference
Ġk m
yy bytes
Ġal ong
@@], @@
Ġ% *
v te
Ġo dr
00 7
Ġuse ful
) ].
3 56
Ġco ff
n ptr
A ss
Ġc map
ag raph
17 60
6 10
min i
USH ORT
Ġc id
' @@
(" .
pa ger
ĠLO WORD
Ġn bits
S ID
Ġpr ime
p aper
Ġoff s
ĠE lement
ĠN LM
@@/ @@
ar ity
stat buf
ĠOB JECT
vi al
Mu sic
ific ations
ĠG G
ĠD PRINTF
block ed
Ġ1 19
nal y
chan s
3 48
p dp
sp p
Ġto uch
G IL
Ġtran slation
IS DIR
L X
d td
Ġp len
rr set
s ctx
ĠAd just
M Q
y i
ĠC url
der ived
A ig
Ġc type
Ġy a
err p
Alloc ator
ĠS top
)[ (
N ING
pick le
FT ER
MODE M
Sm all
E l
ĠO C
BACK END
Ġm argin
BLA CK
H UP
Ġb li
ĠIn st
S LA
Py BUF
fac ility
Ġre load
Ġf x
p ps
Ġuint ptr
S ND
lo gs
Ġth us
Ġre vision
Ġindic ates
* ));
S upported
3 15
f num
ac u
39 4
M achine
J UMP
version s
m z
ĠNT STATUS
68 6
log on
99 8
= ");
Ġnew val
Ġ', ')
ear ly
' >
j ni
g uess
Graph ics
m cat
ĠAp ply
Get Field
S cr
u ator
>> >,
Ġr untime
cur s
ant i
Ġend Idx
Ġrt nl
Ġcor ner
ide sc
Ġ LEFT
Ġb len
RE PLY
Key board
R a
So ck
PK IX
Ġalloc ating
U Char
Pack age
Ġs lots
tri angle
Ġin coming
ex pose
Ġpro blems
BL UE
Xt Pointer
in len
78 7
scroll bar
ĠAPI ENTRY
check s
Ġp data
ĠI RT
x id
ĠC lass
lib cdata
Ġdi a
coun tered
ĠPar ameters
Runtime Error
70 6
ĠMem Free
il p
3 19
w rapped
pix s
ĠP ango
b trfs
CONT INUE
ĠG A
th ickness
ĠĠĠĠĠĠĠĠĠĠĠĠĠĠĠĠĠĠĠĠĠĠĠĠĠĠĠĠĠĠĠĠ ĠĠĠĠĠĠĠĠĠĠĠĠĠĠĠĠĠĠĠĠĠĠĠĠĠĠĠĠĠĠĠ
4 24
ĠR D
74 7
Ġper mit
Ġwe ed
IP v
REC V
tr iple
ĠD K
jh build
Ġend point
medi an
S ite
x en
Ġf tp
g mp
Ġi w
not ation
anz aro
Get Array
CO VER
g am
Ġrad ix
mcat anzaro
ĠY ou
ĠRe al
Ġav ro
WR ONLY
p atterns
h Wnd
sin ce
ĠTI ME
Ġ1 31
ĠTh at
Ġ} }
FA C
Ġcont roller
p Value
cons ume
d ac
Ġs lash
CH O
"" ""
hard ware
EN AME
be low
ĠFA ILED
Ġn or
Enc rypt
Order By
Ġf v
Ġl r
c ats
Ap ply
I FACE
ST AMP
unlock ed
L ING
ry gel
up np
ĠG WY
ĠBU G
ve locity
Ġer ase
un ame
37 2
Ġmain w
o em
= &
m ng
Ġla unch
sum s
Ġb igger
Ġ10 23
Ġ PIX
68 5
in sensitive
d len
4 58
xFFFF FFF
ĠN S
P ick
ĠEx t
ĠE OK
S cal
sta exp
re trieve
root s
for ced
Ġglobal a
REF S
*/ )
sh all
sp line
j env
tran sient
sp lice
enum erate
U nsupported
bs on
Ġout buf
ĠG LAPI
auth entication
Create Managed
LIT ERAL
I CK
xer bla
h at
ĠRe port
me asure
N F
R ON
Ġtran sl
tx q
ĠP E
ive c
Ġcontig uous
V K
])) [
80 6
D ay
ĠR AW
Ġcomm ents
e fl
Ġu dev
Ġlink s
Ġ(** (*(
Ġu ves
Ġre gno
T V
Ġcompat ibility
Ġstr buf
88 88
et y
Ġover la
depend ency
par ed
ĠSet LastError
TRAN SFER
Ġnump y
file type
Ġ quality
Ġnet dev
YP false
var name
75 2
loop s
t cl
In dices
6 24
j int
Ġin cluded
Ġrecur sive
9 36
IM G
Ġwh y
Ġal i
Ġar en
E lf
Ġv o
Ġm buf
ĠG IT
ĠM enu
db h
Ġblock size
jo int
ĠLe vel
sh rink
Ġev t
Ġhig her
ĠCon dition
Ġ_ (
H it
CreateManaged Widget
N SS
len ce
cut off
F OC
Ġn args
S CTP
rate s
REA CHED
ab i
cre ator
55 2
r le
joy stick
P ango
us cr
ĠZ ero
inter preter
. ")
ĠF ITS
sk ill
UR CC
Ġmp n
Ġn left
AL WAYS
FIELD S
cb k
um ing
Ġold val
lin enum
Ġstr lcpy
Py CFunction
PH Y
** )&
in out
46 9
um an
@@+ =@@
Ġdh cp
fd at
Ġb x
Ġe cho
ID LE
Ġdestroy ed
C od
N Array
id y
ut er
GE OM
Ġtw ice
Ġ Var
ĠD ec
z v
T y
Ġm use
M ul
t ur
print k
dx f
pa ste
PLAY ER
g ive
ma j
ck sum
Ġ-- ;
s addr
ch ro
Ġm lt
ĠWOR K
ĠVer sion
H IST
Ġv ty
MEM VIEW
NOTE BOOK
Ġint ptr
Le ak
Ġn at
av r
W orld
st re
recur se
as ks
75 7
Ġbg av
Color map
T ail
DI RECTION
ĠT HE
ĠMA IL
DIS K
b all
Ġn il
ĠSIG MA
con sistent
get Ptr
Ġselect or
ĠPAN GO
ĠPRO TECT
DE SK
ĠAl low
c comp
n arrow
DYN AMIC
56 2
Ġpos sibly
Ġg ave
CC CC
DRI VER
oc c
B ioseq
V O
b urn
u ite
scan line
Ġn rhs
ma ker
Ġcomp ptr
SE QUENCE
PO SE
EN CODE
WINDOW S
Ġid entity
al formed
ĠEn code
D OT
Ġ ord
ĠALL EGRO
ĠB last
vi sibility
Ġft ell
Ġn seq
yy n
## _
mp s
gb cpu
Ġ'= ')
ĠW ith
60 6
COMP ARE
Ch oice
er ature
SG IX
00 8
O SP
Log Message
Ġa bc
j unk
Ġde g
foot er
Ġassert ion
NON BLOCK
Green wich
or se
Over flow
tr ay
ĠP M
Get Current
ĠEx tract
D rop
H ex
Con d
70 5
Ġs ss
60 3
x path
Ġd vb
Co st
Ġ1 72
Ġn h
sc p
Obj Fanin
SE S
p st
conf irm
char acters
EL F
ĠA BC
sp c
RE MAP
Attach Options
Ġv endor
C lause
ith read
Uni que
Z ONE
a verage
mm x
walk er
Pr im
Ġiter ations
(& (@@
B RA
m ot
ri ent
Ch ooser
ĠF LOW
sub menu
bo ur
QU OTE
Ġfollow s
d ither
ĠGL double
status bar
v cpu
p F
P rec
ly ing
ma gn
ĠV F
d printf
ĠI mp
iter ation
exp licit
ee prom
nr hs
SCHE MA
ĠL INE
expi red
n axis
set state
Mark er
glew Init
ĠWe b
)-> (%
es l
54 6
p Stmt
EX TER
49 5
Ġp key
Ġg ray
head s
ĠRe store
Ġexec ution
Ġwarning s
Ġproc Name
X IT
ĠG raph
dt or
go al
PI O
Rel ation
Ġnormal ize
A SC
] >
Ġx slt
ter ms
de ve
ĠLO AD
ĠA b
YS FS
Ġin cluding
sens us
Sa mpler
id o
number Of
t N
DBus Message
G uid
Ġautomatic ally
enc seq
ten sa
B ranch
bri ck
G SS
a cpi
code obj
Ġ2 62
mod rm
ABC DEF
g li
Ġa mb
ĠRe f
Ġ48 0
Ġsi z
e ast
k sksksp
sub string
L AT
Ġj class
90 5
v list
ĠE FL
Ġc db
re mainder
c andidates
{ {
ext ern
msg File
Z one
instr ument
Ready Callback
re ll
ms k
el net
@@, *@@
CONTA CT
Ġ1 21
net link
ST DOUT
ĠMO D
Ġph oto
Ġcomp iled
)| (
re lay
ĠM rBayesPrint
NEW OBJMASK
ENT ITY
dat ing
P ending
[ ((
te ch
pa g
ĠM ED
ĠL ast
UR PLE
VERTI CAL
l psz
Av ailable
001 16
Ġur j
Ġu a
EX PECT
Ġcoeff icients
up ted
) ||
Ġprint ed
R HS
BO OT
3 32
Ġinsert ed
si gs
RE MOTE
VOL UME
A rena
(% [
GRO UND
Ġfra c
in el
me mpool
ew s
77 9
Ac cept
BUR N
10 11
PyTuple O
BIND ING
ĠATS strcst
sequ ent
get her
* ");
Ġiss pace
X kb
Ġf mpq
ro b
Sh m
COLL ECT
j nl
Ġf lash
Ġ8 2
ĠA CL
] )),
rev num
it ype
ĠI MAGE
Exp Buffer
Ġbutton s
VID ER
Ġ{ }
Ġs buf
ĠCh annel
================================ ================================
Ġm z
Do ck
m File
Ġp iece
Ġ7 4
SSS DBG
ĠF all
p gno
LS B
n uma
Ġkey len
Ġsay s
ĠOSP C
index ed
3 17
in flate
g us
ĠC blas
f lex
Ġpro ced
Get ProcessHeap
f scanf
54 5
a ar
IG GER
Ġreg flags
Ġh orizontal
ic p
Ġsub stit
CA PE
ĠW A
UNUSED PARM
Ġpro vider
enq ire
U CHAR
Ġact ivate
Ġbus y
@@++ );
DIG IT
ĠS MB
Ġback ward
TP M
Ġcould n
ĠUni code
Ġtrunc ated
Ġ- ----------------
Ġj p
or c
M OT
BUR NER
th at
R ound
ĠCHK ERR
G amma
side bar
ĠAl ign
View port
0 17
b ios
n items
ĠS PE
cons umed
u iv
st able
Ġre ceiver
ĠC LEAN
79 4
tt f
55 4
mt d
ĠCK A
t C
sy stemd
P ic
assign ment
Ġquot ed
) '
to lower
nl h
Ġn u
Ġstr ncat
cur acy
cth reads
min ator
Ġlog in
ĠARCH IVE
ed je
Ġ DEC
hw fn
den sity
ĠTRAN S
Rich Compare
ĠB IGNUM
spr int
band width
run ner
ALIGN ED
Ġ8 6
96 3
ad ios
open ed
HT M
wake up
ĠPO SIX
Ġrect angle
Tran slate
eval uate
ON GLONG
ĠC B
ĠD atum
Al low
getPtr Value
Ġmp eg
te ss
M ORE
ĠPetsc Viewer
Ġi rq
Gtk AttachOptions
P ipeline
og us
SE N
ĠSET ERRQ
Ġiter ate
Ġin cx
(" </
K HR
XML Node
w v
PQ ExpBuffer
g ather
ĠP USH
A ctor
ĠK eep
WA RE
9 223372036854775
Ġf olks
75 9
et ic
U BYTE
client Data
BUF SIZ
e uid
Ġro ar
Ġmod ifier
Petsc Int
ulk an
Ġsens or
circ uit
0011 5
un pickle
Comp osite
G ORY
m irror
l ba
ĠP e
Ġpar i
pe ers
ĠS ol
76 6
) "),
rt n
H K
z lib
Ġg uchar
arg list
EXIST S
decl are
SW ITCH
0010 1
s ctp
Ġce il
C alloc
I ES
Ġk h
Ġmethod s
ĠX Create
GE ST
ĠR S
Ġfe ed
Ġd py
ĠN on
dv b
ĠGR UB
mode ls
99 4
S peed
ĠGL X
66 7
ed ats
Ġst reams
Ġse cs
98 7654
I mm
ĠE rr
Di ctionary
Ġbe havior
k ern
Ġis instance
rel path
ST AND
LE R
ĠA CTION
pr v
AR P
ĠDetect Engine
Ġint erest
Ġnt fs
Ġe i
orr iso
Ġsv c
s lide
nt status
( $
i Col
Ġfl uid
near est
3 11
U ri
Set Value
E u
ot ype
AT FORM
os m
Ġs qu
r st
| =
Ġ3 84
Ġnot ification
gl Tex
Ġcanon ical
50 5
Ġp Info
Ġf igure
Ġs ing
Ġn w
COMP AT
SWIG UNUSEDPARM
I SS
45 7
ĠV P
T OT
Ġre member
mm c
Ġmodule s
Ġerr num
ĠP AGE
46 7
at on
im mediate
mark ed
PRO VIDER
B AND
t ic
Ġc udd
E O
Ġfilter s
Ġa sc
HE LP
dev name
circ le
Ġf getc
or st
80 4
Ġent ropy
ig o
ĠFOR MAT
osp v
44 5
Ġimp ossible
Ġ1 18
ĠD ump
ĠComp are
Ġft nlen
Pe er
th ers
free ze
out h
Ġme asure
ĠIN DEX
Ġ65 280
Ġh c
abc def
z t
ĠC OPY
Ġmk U
For ward
a id
48 1
U UID
0011 9
S at
net wox
W AVE
p G
Ġi Db
put char
u fact
446 74
EXTER NAL
Ġde sktop
W ide
ss n
il la
ĠPy Module
Ġlo ser
ĠD F
ĠX X
Ġest imate
un wind
ĠARG US
Ġ40 95
sit ivity
Ġphy sical
I ENT
t val
45 9
EN OT
Beg Idx
G Value
Ġl if
Raise Buffer
anon ymous
ĠM V
000 4
Ġbuf ptr
PRE SS
D rv
p info
un aligned
Int ern
ĠD d
Ġ9 1
60 4
X data
p X
) ++
ĠS CL
Ġ( '\
di ction
Su bject
co bi
o mb
seq s
ER M
ADD MULTI
ĠVal NodePtr
P at
Input Parameter
UST OM
PC RE
ĠSy s
Ġd set
ĠB Z
ve cs
rela x
LAPACK E
isc si
Row Major
new a
ĠR X
Ġ(( (@@
Ġs parse
Ġ"% -
C X
A ff
ĠX M
seq num
j x
Ġi pp
Ġdirect ive
r fb
sc b
Ġspec ification
termin ated
h ad
ap tr
Ġth eta
ĠP N
vi ct
ĠL M
ft nl
W EB
gra ms
pm ix
DB F
f cntl
Ġdata ptr
fore ign
FORMAT ION
Ġdescriptor s
PR OT
ĠP P
F Y
str ategy
OK E
Syn tax
ĠM HD
SV G
vor bis
Ġlo st
g list
t len
ĠS im
**************** ************
av en
Ġthe me
af i
CR L
Ġn la
Process or
ĠLL VM
Ġo m
code set
igno red
In c
free p
RT SP
get timeofday
d it
Comple te
ĠE CORE
con c
tri state
G ain
W GS
Th reshold
R OT
ĠC lean
Ġday s
lec ule
av x
ĠSv READONLY
QU IT
chron ous
Q nil
ĠA PP
Ġc amera
cl usters
Ġr tp
Py Unicode
Ġp dev
hw loc
te in
49 7
G nm
Ġt ctx
lo st
0 10
x n
Ġpo six
37 3
pass phrase
y ield
Ġm A
90 6
ĠEx tra
Ġsu do
q m
Ġ ORDER
Ġc list
Scm Word
0011 7
attach ment
n secs
Ġĉĉĉĉĉĉĉĉĉĉ ĉĉĉ
tx s
\" >\
Ġwpa buf
c fun
i um
ĠT e
Ġt db
Sync Io
Ġz bx
c nf
R VAL
he el
98 4
BUF SIZE
v h
len ame
9 32
\" /
Bo ard
ĠV k
Interval Node
-- ,
ast node
Ġgl Normal
B OR
Ex tended
Log ical
ĠMax imum
Ġlocal time
rdat aset
ĠCON N
ĠS IGN
8 10
Ġend p
Lo ader
loc us
19 00
sched uler
over la
The me
Re served
Key word
d ur
k r
ĠR el
am big
sh p
Ġ! (@@
214748364 7
INVALID ARG
38 1
Max imum
Ġi eee
combo box
Ġf ul
N aN
Ġde coding
Ġ) ->
37 1
ne q
= *((
ĠD est
v host
coord inates
STOR AGE
S el
Ġm unmap
der iv
b db
ĠX EXP
order ing
ff e
error Code
mov q
rec y
ret v
Ġgl ut
red is
A rr
Ġs par
(" !
sist ency
Buf Fmt
alph abet
Lin phone
R UBY
Con v
ĠPetsc Scalar
O V
set sv
mount point
_ \
K B
FR ONT
ct f
Ġnew Temp
Comm it
gra v
@*/ ;
ĠOp code
Ġĉĉĉĉĉĉĉ ĠĠĠ
DE NT
mo b
TI LE
rel ated
T UN
(" ",
AN J
Ġp puVar
Ġsc ene
PASS WORD
ĠW here
60 9
!! !!
String Info
DESCRIPT OR
ĠS cr
78 90
Dis asm
_ ",
C alc
G ra
Ġassign ment
P ager
d ual
j id
t T
V is
RES SED
(( *(
Pop up
Ġ' }
lic ations
x ine
do g
Ġc la
er ical
Ġname len
g data
p ct
Rot ate
Ġ'+ ')
Ġst b
exp ir
C apture
gs m
Py ThreadState
Ġindex es
B h
Ġrel ation
NOT IMPL
ĠPRE CISION
ĠEX PR
Ġt ie
Ġg float
con e
pt id
un ct
pro tected
EDIT OR
Sn ap
ĠGN U
Ġm atter
fdat etime
Ġs ops
pid s
Ġn i
Ġn ih
and box
read able
Comp ressed
ĠLo ck
O v
Ġw ire
qu encies
ĠO ver
@@) ==
Dup licate
DESK TOP
sc l
ĠST D
LET TE
sw g
reco ver
ch dir
REG S
skip ped
[ ]={
Ġ++ *(
sha de
en queue
Ġlin ux
C ast
ĠN aN
BU ILT
ty ped
b am
r lim
ode v
Cl uster
/** <
gl Uniform
46 5
ĠB FT
," -
SCAL AR
n points
Ġinter n
p ot
ap ps
Ġg constpointer
C SS
BA SIC
socket s
Ġreg cache
Ġ'# ')
b ag
CL UTTER
Pixel Format
ĠFUN CTION
net if
ĠĠĠĠĠĠĠĠĠĠĠĠĠĠĠĠĠĠĠĠĠĠĠĠĠĠĠĠĠĠĠĠ ĠĠĠĠĠĠĠĠĠĠĠĠĠĠĠĠĠĠĠĠĠĠĠĠĠĠĠĠĠĠ
]) *
asc ent
le ader
Ġen s
pC sr
Ġp wd
Ġn an
sym bolic
t re
99 0
Cell Renderer
T CL
internal s
Ġas signed
OPTION AL
ĠAP LOG
comp ound
68 9
ĠG HashTable
nv list
Ġn ested
type maps
ref def
80 5
TO O
el i
watch er
ĠCLEAN UP
Ġ*/ ));
Ġge o
ĠA UTH
ĠR IGHT
ĠRO UND
Ġmer ged
L PC
Ġre gnum
Ġread dir
Ġp pcVar
sel ves
S upport
x size
Ġv is
be v
re write
at ime
Spec ial
clu sion
y pos
im ized
Ġlog ic
47 1
ĠHe ader
key block
ĠL INK
Ġ'/ ';
Ġpj sip
perl typemaps
K IT
Ġse ct
Ġclient s
proto buf
ufact ure
G String
M DB
dis covery
vty sh
De legate
a op
Ġi y
B REAK
UP S
Ġ1 56
RE PORT
S em
ub ar
NE SS
mul ate
per s
5 70
dyn exp
St andard
C W
ĠS imple
Ġesc aped
anz a
5 28
den se
P sych
ĠI DESC
M IS
ĠY PPsym
er gy
aff inity
G PU
MU X
tim ers
n elems
Ġf riend
context s
assertEqual Int
h or
multip lier
Ġ! (*(_
P V
Ġ LOCK
Ġman age
@@ %
ĠP F
5 40
p reg
scr n
Ġ2 13
eno minator
er tain
Ġde li
ĠLin ux
E BAD
Ġ' |
BE D
Ġwant ed
Ġf rv
Ġopt args
O EM
k rell
r ta
96 2
Ġbase name
GR AY
Ġcor rection
Ġe of
z io
Ġ*/ *
Ġlib bfio
SENS OR
T bl
b id
Ġbyte stream
Ġdst reg
demux er
Ġ': '
Jo in
le ting
Ġn mod
Ġyy msp
den om
Ġro ff
Ġgo es
ĠPetsc Real
Toggle Button
move s
W L
__, __
v addr
Per Pixel
Ġop endir
M ail
Ġout BegIdx
pp cVar
WIN D
A INT
Exec ute
mi ss
I llegal
as sembler
50 2
B last
55 7
X L
s fd
Bu cket
ag ain
@@ >>
Ġhost s
std scr
re vs
Ġm and
ĠP ush
; ");
10 20
Ġb int
Time stamp
ĠDis able
illi seconds
n of
ST L
mu sic
graph ic
oth ing
z a
SV N
Ne ed
ot ify
Ġ* --
get time
AN CH
(** (
Read ing
Ġsyn th
I ty
cc losure
Ġs pe
p map
no b
Ġin o
Ġx max
t ely
ĠIN PUT
LINE S
ĠF ont
T a
Ġ(* _
User Data
@@] =
Ġex parallel
che m
Ġo bs
Exist s
ar ith
96 60
TER MIN
ĠĠĠĠĠĠĠĠĠĠĠĠĉ ĠĠĠĠĠĠĠĠĠĠĠĠ
39 1
s data
no bj
REQUI RED
HID DEN
m tr
RO UT
ff ic
Ġno ise
Ġo sc
SL T
pp p
fd b
BR ASERO
len p
inter lace
Ġon to
Ġro le
MC U
Get Name
ĠTEST INSN
); {
NAME SPACE
ALL Y
Ġ{ '
Ġprocess or
OR IG
ĠD CM
Ġsign ificant
" /
ĠS EM
Ġst a
Ġv r
co w
ln k
Ġ\ \
Ġinterp ret
I AS
Ġv pi
Ġd ag
ix l
file path
ĠM ac
Ġsub type
now led
mis match
l seek
p gp
Ġsecond ary
is y
S heet
get attr
Re v
N eeded
Ġkey board
Ġco ef
OPEN SSL
delay ed
str tol
el im
ĠIDirect Draw
pe p
dk im
ĠMEM ORY
at ar
@@) +
W and
r ip
Ġm n
a str
OP J
ob ex
Ġglobal s
p B
AD JUST
min ute
Ġsu ite
ig ation
C String
f pr
Ġpref etch
Ġg uest
Ġob tain
G AME
50 3
full path
ARCH IVE
Ġtrace InputParameter
Ġspec ifies
Br ush
ĠLo okup
g lib
Ġg egl
Ġn rows
00 128
und ant
io buf
))) [
C amera
PE CTED
ĠR W
Ġmy sql
ĠDe code
Ġplat form
I LI
Ġn ptr
L G
FILE S
asq al
ĠF FI
u h
Ġ*/ '
LOOK UP
Ġc ube
ĠB ASE
ĠA udio
Ġh aving
if est
IN TEL
C i
cr v
)) .
ĠM an
ĠN K
IB LE
Ġm ath
AN G
Ġhandl ers
ĠNE ED
p Out
ĠN othing
ĠA U
Ġr asqal
Sec ret
Ġd rag
Ġ3 97
reg ular
CL K
Z Z
AC COUNT
O DE
Ġ@ <
Ġec ma
Is Valid
imat ed
tun e
Fr ont
nt ime
play ing
Ġ1 17
JO IN
Ġ*) -
; };
d fp
Set Int
00 9
S MS
2 0000
tmp str
Ġ{ &
Ġcl k
VIRT UAL
Ġconven ient
LA DSPA
cpu set
G DBus
\ ";
g uchar
Ġe f
be red
gate way
d tp
Ġ? ??
R AM
Ġsuc ceed
Ġ"../../ ../
H MAC
ro ss
Ġgener ator
ho m
Ġli ve
i row
are as
ĠEV ENT
Ġ8 3
ze bra
Ġ ])
ut c
ĠPR OTO
M SC
b oth
ME SA
it k
ut ime
] <
x pm
ĠF ilter
Ġsysfs fp
' .\
re tries
bytes wap
Ġi conv
max s
u k
Client Data
Def inition
Ġ*** )(
Mult ip
key id
pos sible
ĠInt ernal
EX TRA
delim iter
info Ptr
LA P
Pl us
In crement
() ",
ene mo
I p
st ab
us sian
s as
per sist
Ġappro x
Ġla m
jit ter
PTR ACE
Ġ100000000 0
A REA
y a
LI M
un parse
tr ip
resid ual
Ġr fb
48 3
z h
revent s
CT R
I ds
ance stor
1 0000000
B Box
Ġw t
ĠSTAT IC
sig action
Ġcli ck
ĠST MT
firm ware
ĠM AD
expi res
4 11
Ġh dc
St encil
g pp
))) .
Index Error
Ġ' &
Ġĉĉ ĠĠĠĠĠĠĠĠ
ent ities
987654 3210
ĠM C
() ()
in sic
st b
)[ *
ĠST M
++++ ++++
ĠC MP
ĠSa fe
pm c
D s
on ed
DE LE
Ġsim ilar
K ILL
P URE
g ir
n ed
Ġd ropped
ĠR ange
Ġiss ue
Ġbel ong
d ct
od us
L its
ĠC GEN
lic ates
Sc ene
d z
sp sv
Ġpix buf
16 15
ĠP W
Ġs pl
ate ver
ht tps
C ategory
Ġf Var
* ))
FOR WARD
Ġĉĉĉĉĉĉ ĉĠĠĠĠĠ
56 3
Ġet her
Wrap per
R atio
co ped
po site
Ġdouble complex
Or ig
Mo unt
aj l
Ġp pd
Ġinput put
Ġe ver
Ġ20 4
ĠMult i
xml NodePtr
Ġref lect
h aystack
ĠG e
38 2
Ġrepresent ation
ĠC u
!= (
P lease
Ġ2 20
Ġal arm
TI FIER
Ġch anging
Ġm nt
Ġlow est
M ore
c si
Ġmean ing
R U
I de
ĠSTAR PU
W C
Ġssh buf
Ġre la
Pointer Obj
Ġo d
Ġ2 57
v rf
Ġ10 6
limit ed
cancel led
ĠM ay
ĠPO LL
itect ure
W atch
ne e
c cache
Inst all
Ġcompat ible
add end
New PointerObj
Ġr buf
ffff ff
ipp et
time line
SE P
,*( *(
project ion
T BL
Ġin complete
Comp ression
Config uration
>>>:: _
r value
st ree
Ph ase
p ip
if d
l buf
ct ree
Ġp or
top o
54 9
@ %
p te
ĉĉ ĠĠĠ
R ename
sub dir
ector s
l cd
Ġwant s
qp el
out ptr
ĠOP J
Ġo thers
Ġlib net
Ġa mt
Ġen countered
Ġi type
ĠG PU
COR R
ĠS wap
nounce ment
st m
P atch
rt nl
Ġd cc
so c
read line
ĠB SON
ĠYP false
cs v
ca ught
Ġpop up
Ġret code
Ġimport ant
Ġ ENO
Ġ3 04
Ġbra cket
X DR
Ġ5 11
Ġstart up
G rad
f ingerprint
st dio
h file
z ones
ra ft
voidvoid void
5 20
DCT SIZE
ME SH
Person a
b ld
check button
Ġp B
q emu
has hes
ml t
Ġp du
Ġ1 34
am t
macro s
ĠSeq Loc
Ġ': ');
Ġnew size
ĠAB S
Ġ sit
C orr
r code
LL OW
ĠG UI
p Left
ĠC SS
Ġab fd
Ġreport ed
COMM ON
ĠOR C
ufacture r
Ġs ap
REGISTER S
ĠA ssert
ĠPetsc Valid
Ġsane i
t an
Ġ" ));
un compressed
60 5
T cp
Ġf sp
ed x
Ġdat um
Ġe quivalent
Ġat tached
8 40
C enter
44674 40
Ġ BEGIN
IC S
Ġ9 3
tran spose
Ġapp lied
mx Get
W ave
Ġel apsed
re do
ot es
TYPE DEF
Ġv y
ĠEx pect
Err no
64 3
Ġmember s
Ġp value
mm gui
ig its
time omp
on text
de que
he alth
match er
out ine
ĠPy Float
ant ics
Ġcalc ulation
p Node
Ġwh ose
uster d
Ġp db
Ġnl msg
Ġma ps
yy stack
we ep
xp A
Ġ', '
is ample
new name
Ġa mp
Ġ2 96
ĠPer form
Ġv snprintf
CC i
q d
Ġn ice
ĠP CB
Ġmin us
Vi sible
CATE GORY
Ġb v
ĠG dip
ĠLO CAL
O rient
Stack Elem
]= '\
Not ification
e parator
ĠS S
DE CODER
ĠU DP
ĠF M
g size
loc ator
PL ATFORM
0011 8
Ġz z
pt on
EX CL
Sc anner
la ced
ĠG en
ĠComp uting
P an
@@ *)
time pu
Ġh z
IT IVE
Ġ(" ");
Ġmask ed
log ue
Ġĉ ĠĠĠĠĠĠĠĠ
SET UP
Ġperform ance
Ġre use
Ġappear s
; ";
Ġp al
4467440 737
ĠF loat
ĠD warf
E AP
ĠP art
L ARGE
p res
if ts
Ġfi id
EXTEN DED
c ategories
90 9
F AM
me chanism
MPI DI
COL S
timeomp ile
R m
SCHE ME
ĠAss ume
Ġb box
Ġph ys
AB ILITY
ĠVAR I
@@, (
po d
Ch an
Ġc rash
k sksp
Ġf ine
ĠO M
ST E
Ġpar a
ĠDi rect
eparator separators
sens ors
Ġact iv
Get Window
ĠW r
eli hood
ce il
aggreg ate
Ġ'- ';
Z STD
Text Reader
LE AF
79 7
Fo reground
DI AG
interpol ate
ins pect
Ġ) (_
Ġexec uted
blue z
temp orary
ass oci
ĠPar ameter
Ġm icro
Ġm ip
OPT IM
,"% *
Ste reo
OP S
Ġx b
Ġ"/ ",
Ġad s
Ġtrans formation
pro files
env s
l ctxt
Key Data
Ġorient ation
G ID
iter ations
@@) /
ĠA ES
4 68
Ġp ull
Ġj cr
Ġsol ve
Ġc gi
NO API
S XP
s ds
INST ALL
Ġface s
out p
Re solve
d ro
subsc ription
4467440737 09
d nd
PA LETTE
d na
AP LOG
REG ION
Ġpe ak
ib ble
T B
Ġa cludes
g if
filename s
Ġp ing
Ġal ert
IL Y
Ġn cols
ĠC RC
Add Ref
eg g
Ġm fn
Ġar row
SH R
ĠRe place
man ent
ĠArgument s
77 4
next hop
libc notify
gl Bind
Ġb if
Ġgraph ics
ĠS tep
80 9
ĠTh read
Ġsp ot
ĠKEY WORD
s gn
f io
Comple tion
de legate
Ġp My
EX TRACT
main loop
ĠGtkTree Model
E AGAIN
ĠS ection
ĠLe ave
ĠĠĠĠĠĠĠĠĉ ĠĠĠĠĠĠĠ
lif etime
y ond
ol mod
e hdr
00 6
L UT
[ --
G rab
ĠG MP
Ġ"../../../../ ../
o res
Ġin i
ĠC RE
G Class
ĠR ID
ic les
Ġl gl
Ġlo ops
O b
Ġre wind
By Name
g in
db i
ĠFor ce
Ġoccur s
d entry
zzzz zzzz
ĠV EC
| (
per sistent
ĠW T
LI CE
st un
co spi
Num eric
Ġth r
SO FT
54 7
(" --
Ġf fi
Ġid mef
cho ose
is nan
u Stack
pr s
b idden
x ref
y r
ĠWARN ING
C ER
Ġs quee
Ġlist ener
UN SPEC
66 5
Ġsp u
re mmina
Ġr pl
ĠG p
Ġquot a
DI MS
Ġrel ated
4 70
ls b
go ogle
4 96
BE lement
Ġc data
Ġst s
ret n
Ġn row
@@] ));
de cay
line buf
Ġinput clude
Ġdir name
ĠS EQ
ast e
DA Y
Ġba sis
Ġf scanf
Ġxf er
LON GLONG
MAT H
Cap acity
Ġsoft ware
Ġb h
Ġdiv isor
Ġp file
ĠWh at
PE ER
Ġcounter s
ĠF AT
@@[ (
6666 6666
E FI
Ġhid den
r type
Ġind ptr
pam h
i state
Ġsy mlink
Ġtr ust
ĠEx pected
C LS
Ġconfig ure
Cont ig
bp si
CLU DE
0011 3
Ġpar ms
x res
Cont ents
F G
Ġgd Image
K it
SR V
Ġ quiet
Ġn nz
uid s
ĠPR Id
serial izer
L ang
r int
DOC UMENT
**************** ****
schedule d
Ġ REF
Ġ'? ':
TYP ENAME
ex odus
ĠS Q
ĠM K
S uper
Ġch rom
y e
ĠVER IFY
stop ped
Ġif name
W W
16 80
Ġdirect ories
G ene
S AT
MS B
*/ );
Ġl h
nat ural
ĠH DF
Se ed
trust ed
cmd lang
SU P
[ ^
@@) ->@@
sf x
max y
c ctx
GR i
dec or
WO X
Ġm box
t name
ĠP urpose
sock s
Ġ'. ';
R x
Ġi rp
Ġhold ing
b es
90 1760
ĠTEMP LATE
Ġhand shake
Ġhy per
Ġptr a
B P
Ġc time
Add Callback
GRE EN
p sk
Ġr pm
expect ing
ĠGAM GI
Cl one
AN K
conn s
ched ule
Ġa section
IN FORMATION
Ġs ca
Ġfile system
Ġgive s
z mm
h ang
Ġ64 0
site s
Ġsing ular
ro utes
up b
Ġp Page
byte p
Ġb ogus
met ic
gener ation
round ing
Compat ibility
pos ure
Ġpol ygon
analy sis
ĠT ermin
dw Flags
t q
Ġĉ ĠĠĠĠĠĠĠĠĠĠĠĠĠĠĠ
Ġi len
an um
Ġxml Schema
LO CALE
Ġ ERTS
SA CTION
Z VAL
un g
ET IME
Ġover lay
f ib
Q P
Ġcomple tely
s ra
V ect
Ġco mes
TH RESH
un load
ab ble
F re
B lack
t type
G V
47 3
ĠEX PECT
Ġcr itical
JJ G
Ġdec ide
800000000 0000000
L ap
Ġg th
de tector
9 76
ecx Y
p This
ra st
cd w
Ġxml Mem
ĠO b
error code
........ ........
h db
Ġs lp
Ġn cx
ĠAV P
xFF F
Ġov err
Gener ate
I gnoring
ĠC ache
ĠL it
ĠCURL OPT
c igar
55 3
0011 4
es n
Ġcap acity
COMP RESSION
var p
si ds
obi Scheme
t ds
Ġp ress
track ing
Ġ! ((
UN ORM
Re ason
Ġs mtp
gl ue
who le
446744073709 55
r ity
49 4
Ġbranch ing
at k
ĠV OID
Ġin file
ĠX FS
Ġview port
b as
c nc
ĠDIS PLAY
copi ed
FOC US
vel y
ĠPre pare
y l
Ġ'\\ ';
in um
app data
he mer
Un do
feed back
W ay
FI FO
DAT ATYPE
v result
Col lect
ĠSEC Status
Ġlocal a
ĠT Node
ĠS anity
Ġ"% @@
L ab
ĠE PS
Ġen emy
CALL OC
ib yte
59 7
Ġ1 38
rt metric
IC mp
ĠPI D
Ġfd a
ĠB ioseq
Man age
In s
79 2
H ints
T CH
U FF
ĠU S
C USTOM
S size
suff icient
Ġmetr ics
rd n
Ġx min
DO S
45 3
SIG INT
ĠD msg
EX PECTED
AV L
TIME STAMP
ĠClose Handle
C losure
SH P
ĠPetsc Object
_ @@)
big num
Ġl val
**************** ********
stub s
l ig
al num
xml XPath
STD ERR
VALID ATE
ex if
Ġĉ ĠĠĠĠĠĠĠĠĠĠĠ
am i
Ġb tree
QU AD
out going
Ch at
Ġcol on
Ġint errup
uct ion
ĠE M
send to
dbg str
W ise
Str g
limb s
g host
Ġb ench
Ġr dp
ID L
Ġlook s
ĠG POINTER
LI VES
ĠTOK EN
Ġc lamp
Ġ1 35
Ġg swig
file info
ex on
P NUM
_ ))
Ġp st
Ġw all
ĠCo ord
bear er
xor r
k gem
ĠG DBus
po sitive
ĠPAR SE
4 90
ĠCon nection
Ġp lease
)-> __
Ġproced ure
b df
SA X
add s
58 3
57 3
di ctor
Ġx kb
Ġq false
gl MultiTexCoord
UT A
bright ness
Recur sive
A FTER
Object Class
g al
ĠI HTML
req s
ĠJ PEG
leg end
Ġbreak point
707 106
Ġ/* --------------------------------
Ġ10 737
C lean
Ġ'" ')
ĠSY MBOL
ĠDo uble
abl ing
WA Y
Ġb ct
ĠP ack
Ġass oc
Ġcred entials
en viron
49 3
tag ged
Fe ed
ĠĠĠĠĠĠĠĠ ĉĉĉĉĉĉĉĉ
FO URCC
OW NER
ĠIRT emp
z ma
not ifier
m ss
p add
it ge
CT URE
V endor
en g
8 25
ER CE
ref cnt
SCHED ULE
Ġ/* !<
Key File
de sk
Ġre ci
Ġz fs
ĠL isp
itge ist
en cryption
ow gli
Ġtarget s
h len
Ġe le
tk win
style s
ĠN ull
ĠR R
59 5
xorr iso
Ġmid i
P LIST
value p
sound card
H ARD
P LOT
t dep
Ġle ad
rand test
push string
Ġ5 24
Ġinter preter
ĠĠĠĠĠĠĠĠ ĠĊ
Ġsub sequent
met re
Ġm cx
cl us
keep alive
Ġcol l
msg info
Ġstrict ly
hash map
Ġste reo
Ġ* >(
Ġd zl
si lx
Thread s
Ġreplace ment
Ġsub tract
Ġat tack
h key
long long
98 7
Ġinv ocation
Ġc ertain
20 72
Get Value
Ġof p
hex dump
th en
NO ME
ad ish
Ge o
Ġng http
V erts
SC NG
Ġencrypt ed
x button
temp ting
mpty set
Be fore
ĠS w
Ġe gg
Ġagg reg
c sp
w buf
G c
si mp
extr adata
Ġa z
Ġnon ce
TRANSP ORT
% -
Ġerr s
R AND
k f
b cd
Ġat an
visit ed
cur rency
E qu
n sp
OT LI
59 2
HW ND
cc m
Ġreal m
ĠpMy Disasm
IN STR
ĠS CTP
re li
Ġblock ing
c init
Co eff
ĠS IP
ĠE num
glew Search
glewSearch Extension
N BElement
ĠG DB
16 384
ev dev
Ġmultip ly
in ject
ĠP hy
_ {
lite st
N AD
TH E
PRE SENT
PRIM ARY
se verity
ge mptyset
ert ext
Ġser ies
Ġexec utable
deve lop
418 24
i Db
gn ix
UL AR
z ier
Ġdelim iter
ĠIn f
dv d
F OLDER
GL IT
Ġ3 68
78 2
ĠSer vice
M ath
PRE V
E OS
g fc
s mi
ĠW arning
int ro
glew Get
Ġreg istry
Ġinst alled
e os
set attr
Ġh ref
str tok
gl Color
ls ame
D String
w ar
c pos
fa br
Ġpa int
Ġoptim ization
Ġĉ ĠĠĠĠĠĠĠĠĠĠĠĠĠĠĠĠĠ
Ġd len
ĠIN SN
Ġoperand s
w an
Ġs dl
z ap
Ġre direct
99 5
" [
Ġc group
ĠSDL K
io c
p size
un filtered
ĠG UID
rav ity
a info
00 28
code cs
d time
Ġalloc ator
N ow
a able
e log
Ġb ias
ĠSc reen
A AV
Ġm isc
99 2
Ġful ly
Ġ' \"
Ġout len
N orth
q ry
w ine
rea sing
UT ION
i max
fe rences
Re solution
Ġim mediate
fu zz
N t
MP lex
Ġs mooth
nd pi
+ %
ĠE S
Ġp rom
dim id
SC SI
) */
Ġtime d
oper ations
LIT TLE
Ph one
Ġgf x
Process ing
ĠT op
kw args
Ġi val
Ġfd t
ish i
ĠCON CAT
I Unknown
x FE
u w
x w
Edge s
ff s
Ġcolor map
E CP
Ġt en
Ġ32 8
0011 1
ĠE AGAIN
FINISH ED
_(( (
Ġfin ally
TI ES
CRIT ICAL
98 5
Ġv or
return ed
cro l
" <
; ++
H alf
max x
Ġmode m
S ensor
open cl
Ġexpan ded
mm io
fra mer
Ġ----------------------------------------------------------------- ---
nt lm
Ġc lasses
Ġ1 96
66 3
Bar rier
SI VE
Ġea si
STRI CT
x in
Ġp ager
p Mem
m ate
sub tree
I OC
X op
ĠB C
ĠS rc
spin button
10 38
ĠD IG
str ain
ĠG String
o sip
hist o
Ġear lier
/ .
Ġy i
STAND ARD
HE AP
User s
D BE
op us
@@[ *@@
Ġnear est
up c
CR Y
i work
mult icast
Ġcause s
O rb
L ut
load u
Ġstop ped
ĠM ain
way land
re sample
h n
mpath y
Ġp dp
ib v
ĠOper ation
n co
Ġu sec
ĠT GSI
Ġcomm un
N ear
no op
screen s
ĠB G
)))) ))
Ġix gbe
Ġc img
Ġy aml
b lo
hdr s
B W
D MA
ran ks
ĠSK IP
irm ware
n type
cq e
le ad
TR IGGER
Ġcal ib
COND ITION
8 50
Ġkey words
krell m
E SO
Ad v
nick name
4 60
ĠM ask
St ub
Ġupdate s
lat form
n la
Ġ( <
)) /
tool tips
Ġ lose
Ġ1 33
Ġ) :
ĠS ASL
ĠC md
Ġexpect ing
AT ER
print able
]) _
desc ent
5 25
T b
la zy
74 3
Ġz val
Ġneed le
ing est
Ġ- ------------------------
Ġt et
si vely
ĠS HO
Ġrec ent
4 29
o uble
ol ation
B STR
Ġ5 000
Ġĉĉĉĉĉĉĉĉ Ġ
F INTS
so a
Rout e
set env
Ġdb i
Ġident ical
of ono
Ġpartic ular
th ree
sc f
DR M
Ġr f
Py String
BU SB
convert ed
ed ict
time d
Ġ(" (
Ġ36 00
Ġv fprintf
Ġpre view
ĠPo co
Ġtrunc ate
Ġdis connect
u sp
Ġaj Str
me as
o len
Ġf num
Ġsub set
mo vie
ed ence
as semble
sl it
DEBUG F
99 7
Gener al
Ġf fp
Ġib v
TOT AL
li a
xml Node
quant ize
J P
a ug
Ġl ate
ip iv
mon otonic
ĠMET HOD
i B
codec par
vers ation
Ġs uff
cy c
Ġk v
ĠLe ft
Ġre interpret
^ ^
P itch
4 78
Ġerr b
Ġlock s
) (&
I EEE
SPE ED
ĠGdk Pixbuf
resid ue
+-+- +-+-
ĠT V
so up
ĠF x
EN CRYPT
g perf
priv key
prefix es
Gener ator
A naly
cre te
Ġpr imitive
))) {
Cur r
F MAC
L im
p Iter
Ġb pf
io vec
KEY S
e revent
w ins
ch arge
IO S
DIS P
author ization
Ġn ul
pr inc
Ġb k
p ptr
Ġre sa
ptr get
Ġde crypt
b mi
Ġ(( &
* _
; "
ĠGtkTree Path
cap tion
Global s
Vert ices
side red
ĠScm Obj
time val
Ġ20 80
xd g
Ġe asy
Ġp ulse
virt io
dr s
oll ar
contig uous
ĠHE AD
Ġ/********************************* ********************************
Error Msg
DI C
A gent
f to
| --
Second ary
Ġch a
MA STER
ĠSc ale
M ime
e bx
str split
ha usted
tr n
Ġm lx
ET YPE
VER S
b an
valid ity
Ġlength a
5 76
Ġc am
check point
p iv
ĠF ALL
PA Y
Ġ" !
p urge
min x
80 3
um ath
p im
ĠUN IT
SE CUR
pad s
Ġn od
00 20
Ġcalc ul
s al
G AIN
ot iate
79 3
Ġp sm
Ġchk xer
h di
tr f
M ID
S ep
Ġb ridge
ol t
sa ver
ĠX Event
E vas
Ġs prite
vi sitor
Bu LL
k net
Ġback wards
ĠV STATUS
id im
sock len
ĠCO GL
ĠAl loc
>= ((
ĠSA HPI
x display
Ġfact ors
ĠR uby
al ity
ĠK SP
ar ing
ĠG ot
Ġh h
vir Log
Ġi buf
ĠP lease
open ssl
Comp ress
Auth or
Char Value
): \
M idi
Ġseq no
subsc ribe
L PARAM
ĠU sed
Ġbe yond
send ing
A tk
Vala Method
Mode m
AAAA AAAA
b list
(" :
Ġ1 54
Ġr h
ĠCO DE
ĠCLA MP
ĠM SI
ĠR ast
comb ined
Ġxl ator
PI C
... )
Co okie
X O
Ġm otion
Tree Node
par en
ca c
Ġav a
the e
Ġh oriz
Ġout NBElement
p Info
ĠL IT
q f
P DU
IG EN
FI CATION
G MP
Ġsquee zed
h oriz
by t
Ġ ][
str ipe
Ġre placed
file system
sp ans
8 64
c pt
Ġde pending
lib virt
Ġper formed
Ġ"%* .*
gnost ic
ra c
ĠE P
Ex pand
Ġeffect ive
f op
Ġtra its
59 4
IDE N
va api
= _
10 23
ĠS n
Ġof ono
Record s
Ġau Stack
f ec
script s
(&_ (&_
S to
OL MOD
Ġac u
Ġro wid
Ġre fs
Ġb size
sl te
le ading
sig set
H H
e sp
k o
Ġmov ing
st ash
Ġmx Array
Ġcalc ulated
c ip
oft ware
W ire
ĠSy mbol
ĠV ol
Ġ FMT
Ġe ig
Mark up
con sumer
CLO EXEC
ms gno
ump tion
Ġĉĉĉ ĠĠĠĠĠĠĠ
Ġlib input
Ġ'@ ')
g ro
Ġder ived
F ore
io mmu
m ort
Parser Ctxt
start ing
y c
44 1
oi se
P c
ĠE API
19 94
X OR
x fe
Window Pos
Ġ2 52
is ation
Qu ark
virLog Self
ĠC ard
E VAL
warning s
Ġvir LogMessage
ur a
Ġn col
PM IX
Ġn th
>> (
210 364
ĠL V
Ġ9 99
monitor s
Ġstr ategy
CO MB
... ",
pos n
Un ion
gl x
an o
Ġmp c
ak ing
pos al
Q S
k dc
ĠWIN DOW
desc s
Dir ty
rr d
98 9
g adget
ĉĉ ĠĠ
GR S
) ":
)) ==
cond itional
66 9
BG P
) ]);
Ġn autilus
ĠB V
Ext ent
80 1
lic able
mxGet Scalar
c set
n fo
fc n
ĠBIT S
Ġ4 96
user id
SECUR ITY
SI mode
Ġz f
re order
Ht ml
a UL
x parall
)) ->(
ĠL DA
Ġper mission
e ina
Ġptr ace
Ġnormal ized
l bl
f putc
Ġv ips
Ġk p
v u
Ġ Validate
token izer
Ġs pi
ĠP h
5 27
co mes
Con struct
44674407370955 1615
I SE
P en
es d
SU PER
Ġt cb
Ġar ith
Ġnon zero
Ġl pc
ĠP OP
O pts
56 1
Ad apter
ĠH B
ctr ls
l X
id r
ĠE ach
goto minor
accel erator
' ),
++ ].
8 20
f UL
Ġh aven
Text Writer
c val
@@< =
Ġpix man
e ptr
Ġ'* ')
ĠxmlMem Blocks
Ġm ng
Ġnode a
has well
e cp
ĠId ent
3 96
Ġm td
PA C
ĠZ BX
Ġmo ck
HAL F
AV X
f cts
i ator
CHAR ACTER
nel ts
Ġ6 24
Ġtop ology
Y U
BLA NK
d fd
Ġw ildcard
g cm
fin ally
cpu id
Ġmin utes
local host
mt s
M is
ĠOT F
Ġt n
Ġx en
cc cc
ĠI tem
44 2
Ġmk dir
effect ive
l gl
ĠO pt
Ġsn a
- __
w ildcard
c state
Ġf la
Ġo val
De precated
GtkTree View
l ru
Ġgen sym
duct ion
N v
ĠP PC
ĠpC sr
ĠMA ILI
ĠĉĠĠĠĠĠĠ Ċ
ĠType Error
Cell s
Ġsol ver
Con s
Ġper missions
Type Symbol
ĠPR IVATE
Ġm dim
data p
ĠSCL og
el ink
Ġ3 12
5 30
c ity
b UL
bit set
] *@@
nv txs
37 35928559
Ġ OPTION
Ġ1 37
Ġm ctx
Ġj long
En dian
R SS
Ġal en
Ġp q
Ġserver s
S pan
Ġh ide
mo val
77 2
LD K
ĠSh ift
X A
de tected
Ġa ip
ĠMS V
DISABLE D
le ts
ĠR ight
Ġopt imal
ĠLO OP
Xt Display
Ġs mp
S parse
rg ument
ĠAt tribute
CANCE LL
ĠG I
Ġcirc le
ap ic
a sp
ã ģ
se x
SO AP
Ġanaly sis
c cb
xml Free
RE SIZE
trace Param
VAL A
ĠJ OB
ĠF orm
Ġdraw able
k h
K V
98 6
} ");
Ġ20 96
ĠXm String
alph ap
sub tract
add str
Ġbe come
pre dict
own ed
Ġpj media
ĠHW ND
GIL State
Ġs ong
ĠT otal
lib ssh
Ġcop ies
Ġ4 71
on st
ar a
user Data
f de
ter s
Ġgu ard
b ptr
ĠT rack
Ġpro f
Ġs list
MACH INE
Ġh ap
45 2
b ro
Ġf sm
min utes
iline ar
p num
ot ed
su ally
ĠF IL
Ġg ps
ĠZ ERO
k df
un ge
4 64
; %
Ġcomp r
Ġend l
let ion
Ġcopy ing
mount s
Cont roller
ppv Object
Ġn len
Ġdi vide
tra iling
sup press
Port s
Ġg data
GR j
Ġ*) (((
Ġsub sc
Ġ"% "
AD OC
Ġwr itable
ac ent
(* __
Ġin cy
view s
COMP RESS
w ill
ce iving
Ġav t
Lap ack
An im
Local Buf
replace ment
ĠG UINT
msg len
f size
ĉĉ Ġ
db file
0012 0
a as
l ng
Ġh tt
Ġkey a
vi se
Ġis ry
Ġne igh
X ID
Ġis rgument
Arg v
Ġist ion
Ġs pp
ĠF lags
ĠF lag
src pad
qu at
Ġregion s
Ġtri ck
Pre pare
Ġpy buf
ĠMY FLT
i ans
Ġco ver
Ġsi lent
fail cb
NG LE
Ġn op
rt t
Ġv v
a mm
b str
n ex
7 88
E INTR
dev c
or rect
ch apter
Un pack
8 18
Ġbar rier
KE D
Ġhold s
syn ctex
ĠA fter
ĠS eg
Ġdi vision
PLA IN
C Q
ge red
INTER VAL
Ġfind ing
Gdk Event
H ello
temp l
Initial ized
ĠPy Number
ĠCON D
C ipher
Ġ )));
h eld
Ġre moving
FIX ME
/ ");
m angled
Ġ2 14
ct mp
in ventory
up a
vol ution
- '
C CALL
e igen
@@) *@@
Ġ10 48576
dir file
Ġl xc
st rength
De ref
four cc
d cb
For ce
Ġleg acy
; */
delta s
Ġw av
Ġ\ \\
db f
Primitive Array
Ġtun nel
me ga
Ġu ct
Ġuncomp rLen
Ġi g
ins ns
or n
Ġma pi
ĠEnt er
c ra
p Parser
Ġwidget s
PrimitiveArray Critical
ĠH ost
Ġth ird
Ġfa ster
c UL
y size
Ġdi stribution
tran sparent
FALL THROUGH
Ġlib xl
ĀĀĀĀĀĀĀĀ ĀĀĀĀĀĀĀĀ
Ġfile no
Al n
Ġtermin ator
SEG MENT
up grade
Ġĉ ĠĠĠĠĠĠĠĠĠĠĠĠĠ
Ġsm allest
num s
fre elist
Ġ LEN
Ġco verage
G ATE
Ġn br
rep lica
e UL
Assertion Result
Ġp pl
ĠP l
" ",
Ġ*( *)(
ĠS um
period ic
event log
Sta mp
Ġlat ency
58 2
7 17
ul ator
Parameter i
mis matches
Asn Read
ĠC a
Ġun icast
net mask
ms ub
@@] ),
Comp onents
Ġto gether
H F
sr ch
214748364 8
bp m
Part s
# %
ub es
R d
w iz
E push
v mov
id ct
cr iteria
GN U
[ *(
ut or
J B
Ġcomp osite
RO UTE
cast ptr
PRI x
H and
db d
UL D
p D
Ġun compressed
gr d
ĠCF G
4 15
aut om
m ute
Ġg avl
entity ID
Parameter iv
ĠFc itx
Ġp Out
Ġti cket
RAD IO
Ġx or
ĠARG BUF
Ġ()) _
o some
Ġx r
Z B
Ġax es
UT T
def erred
Ġun op
fl uid
B KE
Ġc sv
Ġg ate
Ġso up
b roken
Ġb dw
9 31
ĠD IM
br w
Ġamd lib
Ġl sa
Ġ(*(__ \
Ġi tr
Ġar bit
Ġf st
u lo
Ġloc ate
wok sksp
Ġstride s
ARG BUF
support s
6 18
u an
Ġfact ory
P g
ĠDEF INE
8 28
g wy
CHAR S
ĠHeap Free
ĠV i
ho c
PIN FO
; /*
G W
Ġo g
Convert er
ĠO MX
RAN DOM
4 104
ĠC ase
w bc
Ġdisplay ed
int value
NOT FOUND
Ġresol ved
Ġb zero
vtab struct
S LAPI
Ġ GROUP
tra iler
Ġbaz A
Finalize Func
sub str
G Base
Ġt pm
sock type
Ġx ine
YY DEBUG
o urce
if c
port al
long itude
sw eep
tt ng
GN UTLS
70 2
59 3
z log
Ġbr ush
4 12
Con straints
TI FI
Gtk Action
et able
bu ilt
base line
= */
X DEC
ĠG CC
INT ERR
f uture
FR int
Ġdepend s
d so
ĠIN F
pr c
4 32
li busb
Def ine
ĠUP LO
d tr
s uggest
un ary
P N
ĠC RL
d fs
Ġ{{ {
ĠC y
Ġv len
A scii
dev id
Ġsh rink
pid file
Ġp Bt
Ġevent a
Ġspa wn
sequ ences
ĠW ord
ĠCRE ATE
ĠW E
_ "
ĠS cheme
ant s
ĠF e
Ġcomp rLen
Ġassume d
LIN UX
Ġimp ro
Ġ0 1
Ġcons ume
Ġco ding
dd s
pred icate
PAN EL
Ġd print
ĠĠĠĠĠĠĠĠĠĠĠĠĠĠĠĠĠĠĠĠĠĠĠĠĠĠĠĠĠĠĠĠ ĠĠĠĠĠĠĠĠĠĠĠĠĠĠĠĠĠĠĠĠĠĠĠĠĠĠĠĠĠĠĠĠĠ
Ġp si
ew id
dp d
Str dup
ĠPar ser
ps x
IP C
Ġcp ntr
g tm
reco v
l arg
r ctx
di vide
key name
ph an
run s
Ġ' ^
ĠX F
Ġrad io
Ġrespect ively
DAT UM
Ġyy stack
s ml
Ġc sa
Ġcomp lain
Ġ" .",
case D
Ġswitch D
GObject Class
Ġrg ba
5 78
tr ic
Encode d
Ġorder ing
h ack
SPECI FIED
ĠGener ic
] ]);
nt error
OW N
ĠT erm
Su ite
d UL
O ps
d dr
just ify
208 16
A Z
C AMEL
p mt
sb p
90 2
F rag
Ġfailure s
O CT
Ġ[ --
Ġ' ~
59 1
inf op
Red uce
Par ms
45 1
stand ing
bu st
ĠS ession
Ġl List
prop list
un safe
Ġinc X
Ġcon sidered
ĠPetsc Options
d vi
Ġn ua
Ac quire
Ġt pl
sk ew
Ġat oms
ĠExp ression
Ġ4 278
96 1
ch mod
88 4
54 3
Ġb other
nd ro
Termin al
gpg me
ĠVdbe Coverage
D u
s uc
Ġi cmp
local s
ĠFI ELD
?? ??
n try
log f
49 2
Ġresid ual
Data Size
mod ulus
BACK GROUND
format ted
orith ms
ap os
SHA RE
INITIAL IZED
TRUN C
E fi
Ġ((( ((
sd na
ĠHI WORD
H older
| %
sec comp
ĠSe quence
as sistant
N X
sp here
ĠC amel
ĠPr ivate
len g
PROPER TIES
ĠW H
OC I
proto cols
INITIAL IZE
d sl
s ll
Ġp Iter
)+ (
Ġt sk
pc s
Ġclose dir
ĠW alk
rand r
z o
PROJECT ION
Ġw n
p Buf
Ġ" ")
FA CTOR
mapping s
h aps
==== ===
Ġl k
Ġprint ing
6 39
8 38
Petsc Real
Locale Compare
Set s
g float
OC G
Ġm si
Ġs un
re dir
Ġ1 39
Ġet ype
g amgi
ar is
Ġ" ..
BU FF
ĠSa Hpi
w g
Ġt st
lib bfio
v nc
In voke
Ġle xer
PIN ST
Bra sero
46 3
PT P
Vala Collection
AS ON
Resource s
Ġg arbage
z conf
le aved
ct i
IN ChI
SO LE
Ġdegree s
N U
CA PT
l Param
X D
Ġbu mp
MAR KER
AR ROW
instance s
i id
COMM IT
8 30
Ġca ja
pea ks
G th
Ġisc si
Ġeigen values
7 20
Ġq q
Ġlib Ygl
su bj
AUTO MAT
ili ary
4 74
Ġt tl
col lapse
rr p
G HI
Ġex clude
}, {
lp m
G UINT
t ie
Ġnorm ally
Ġda mage
ĠB a
B urner
Start ing
Fix ture
Ġfc ml
8 0000
ĠG X
on um
u y
n buf
ĠT ri
rout ing
grav ity
Ġreco very
Ġpercent age
ĠR PC
CK ET
Ġy ield
Ġcon ver
isdigit git
ĠSC SI
gest ure
quad rant
lib input
Ġĉĉĉĉĉĉĉ ĠĠĠĠ
perm utation
ĠPRO C
no s
Ġ'. ');
Ġn ic
MAXIM UM
78 3
F lat
Ġp Src
Ġs mi
Ġexit ing
f ort
MO S
hy th
glf w
Ġok ay
M otion
set ter
as signed
sh arp
PY CALL
condition s
E AR
Ġh al
ĠM Z
MIN US
Ġplay back
r map
ĠV ir
77 1
mpl itude
ĠCon nect
Pe ak
Ġy asm
pla intext
print ed
G U
il le
ong g
ET HR
UL ong
Alg orithm
TRI ES
p arg
src ptr
cor rection
ui S
ĠFR AME
EH print
9999 9999
w f
88 9
w err
5 15
Ġxml Doc
TRI ANGLE
M IDI
Ġfix up
PY CCALL
lace ment
x client
70 3
d ap
14 18
fla c
u ing
bl ur
KER N
FAM ILY
n blocks
Py Fast
ier archy
PyFast CFunction
Ġp z
SE CSuccess
Ġnet if
b urner
re use
check er
ome ga
a ffected
qu eries
per missions
Ġen A
IP PROTO
Ġ" ^
yy t
Ġsocket s
UNI FORM
s le
Ġk d
RUN NING
8 68
x io
Ġ ew
nt he
ĠOption s
Ġcon tained
LI P
mark ers
Test Event
Met rics
in active
Ġt buf
erc ator
Ġh its
Ġ(" @@
49 1
i it
di strib
SP C
ĠREQ UEST
Ġb io
non null
p Right
Level s
bo gus
dot s
ĠDef ine
RE CUR
d ctx
T here
Ġc vt
TI C
CLOSE D
cp dls
Ġs free
Ġ" "));
C lick
mplement ation
Ġt lv
si fy
Ġwas n
au ss
Ġy p
O UND
sn es
SP LIT
Obj Is
ĠM RB
cor ners
Ġauth entic
Ġr ta
Ġ*/ +
Qu it
hig hest
Ġl work
ĠV ertex
pre serve
Ġdecl ared
70 1
TL V
Ġembed ded
Ġresult ing
ep silon
d B
Ġv ex
e ig
Ġc rtc
il legal
STR IP
w Param
H B
PE AT
Get Num
mar shall
Ġ3 36
ĠUN I
m al
)\ @@
Parse Context
under line
lo sing
Ġh ot
> :
Ġ" ?
err x
ĠD L
rb tree
ĠEV AS
ĠA sk
Ġ'\\ '
ĠSub routine
ir th
ag ic
Ġp R
Ġp List
P AM
Reg istry
Ġed i
Ġinteg ers
l ly
4 34
p Select
pre lude
NO W
ĠUn iv
hj ongg
A PR
MT YPE
Ġr sc
Ġsi bling
ĠV AT
uff man
Ġen cryption
Ġpot ential
Ġus leep
Ġlog ger
arm ci
sof tc
ud it
st udy
de ep
Command s
au di
8 48
t u
ĠA uto
be at
ĠE l
ag onal
lik elihood
SC P
Sub Image
Clip board
activ ation
ze itgeist
Ġadd ition
R FC
X I
Ġbe comes
d ent
CONSTR AINT
g retl
de queue
up sd
form ula
in cluding
sa f
Ġup dating
c rash
f ct
nc y
surface s
ĠI dx
ĠST ORE
ĠSe cond
ĠGLAPI ENTRY
AL IAS
Acc um
m sc
Config ure
8 44
55 1
ĠOFF SET
de activate
Page s
Ġĉĉĉĉĉĉĉĉ ĠĠ
G HashTable
MEDI UM
RENDER ER
5 77
Ġt sd
ĠCOL UMN
Ġsym metric
Ġspa cer
al one
exp lain
54 2
hour s
Ġr ho
ĠC ell
Ġde tection
ĠStr uct
serv ation
Ġ* >,
Ġmat var
ĠPK CS
Ġindic ator
ĠV ect
DATA SET
ALIGN MENT
8 60
L ex
(*( *
ĠRe ceived
MPI R
Rad ius
mp r
ma hjongg
Ġz lib
z stream
MER GE
ĠU sing
Ġas pect
fre ed
Acc el
Ġus char
t int
j c
Ġs ctp
Ġd ark
ms lice
k id
Ġc mark
ADD ING
Ġr q
NEW LINE
mul ation
de e
Co gl
Ġres ume
Ġ*)* ((_
ĠT ake
expan sion
Ġre levant
Id le
Ġgl Get
ĠByte s
m angle
Parse Optional
BUILT IN
ParseOptional Keywords
B ROW
Ġdown load
Ġava hi
bo unded
ri or
ĠSL ang
Ġdefinition EFT
00000000 0000
l list
Ġset locale
TRAN SACTION
Ġout line
ĠX Y
" -
Mult iple
Ġv list
8 58
a im
Object Extra
Ġ1 43
ad aptor
Ġis digit
ra s
fil ing
n data
st buf
> ]
tra k
ar ization
ed ia
Ġsource s
ta iled
Ġe h
= <
ma cs
Ġst unicast
could n
SH UT
Ġcomp utation
CLA MP
Ġ13 1072
Ġa cross
Ġ\ '
As sembly
log d
( ("%
ic ally
Ġq s
TOOL BAR
abb rev
un pck
Ġbyte sa
Run ning
Ġrecur sion
lo pt
=% .
Y sam
Ġav l
Ysam ur
G r
Ġlin phone
Ġ3 32
gen ce
Ġr y
Ġ**) *
ewid th
R gn
Ġch pr
Ġat k
IC MP
Ġ1 75
Part icle
G l
L i
S en
x im
sp lat
ĠS tack
Ġhash table
Ind icator
) ();
ft y
017 45
UR B
cod on
v ms
C anon
Ġh x
ĠFE AT
Ġin dividual
cobi an
n as
md a
uiS gtk
Ysamur uiSgtk
wh ence
b anner
ref ix
sr m
w al
ay s
88 7
MS GT
ĠF lush
fs ck
Ġquick time
l cl
ĠB y
ĠOP C
ĠPAR AM
F RE
AL READY
Ġ", ");
ĠQ obiScheme
in use
AR C
Ġsoft float
n Mem
Ġdebug fs
Ġs pool
len o
Ġun changed
bal sa
Ġv k
Ġde t
sub key
i u
mult if
T xt
e id
file dir
T im
x sd
Ġb ri
P ayload
Ġ7 68
Ġp Mem
< _
ar cs
Ġt ip
th readed
CH AT
ĠR L
ĠS CR
ĠC PP
76 2
ĠPR IM
Ġinterface s
Ġhigh light
ĠCOMP LEX
op codes
() -
ĠBo x
ĠMU ST
K RB
DR AM
ĠL T
ĠG PtrArray
O X
or mat
tr unk
ĠE LM
lat in
r ms
int va
db m
pre edit
r info
Ġ8 00
ab ber
cc d
14159265358979323846 264
Ġt asks
PA PI
Lat itude
None Type
Info s
Ġh sp
max val
Hash Entry
equ ation
5 10
f buf
mu la
123456 7890
: "));
ok er
ld c
sub net
so lete
NUM B
[] (
fo g
mem o
Ġemit ted
pat ial
ĠU CS
]= @@
Ġ----------------------------------------------------------------- -----
Ġex e
Ġ32 212
Ġden om
Combo Box
opt imize
hier archy
ĠĠĠĠĠĠĠĠĠĠĠĠĠĠĠĠĠĠĠĠĠĠĠĠĠĠĠĠĠĠĠĠ ĠĠĠĠĠĠĠĠĠĠĠĠĠĠĠĠĠĠĠĠĠĠĠĠĠĠĠĠĠĠĠĠĠĠĠĠĠĠĠ
Ġpol lfd
PL T
Ġvar ious
Ġ% =
13 05
ĠPR OT
ĠRO AR
C d
Image s
f list
w ra
cb data
Ġred uced
ĠPO ST
Ġcorr upt
cur ate
pa i
ĠR f
Ġthere fore
Ġtop level
Re ceive
Se parator
Ġ[ (
new val
p block
ĠFA ST
om x
ĠGst Caps
D ONT
St ar
man aged
46 1
AL GO
vi ation
ĠSy m
Ġtim ing
r ma
@@ <<
Ġopt imize
ĠPro perty
ĠpS crn
ĠU ID
p addr
tri angles
Ġ ONE
Ġi op
are f
Ġpi co
Ġy max
st ress
Ġrun s
ĠAl ways
Ġ((( ((((
dif ference
r tmp
PRO J
ĠPACK AGE
ĠG PG
Ġgrad ient
M ercator
Ġn est
76 1
77 3
S GE
Grad ient
ĠPK T
Ġp E
Ġold er
Call er
n Key
Ġh v
SL ONG
U t
Ġnum erical
Ġĉĉĉĉĉĉĉ ĠĠĠĠĠĠ
Ġv px
ST YPE
l cp
Ġl cid
AL C
ĠD A
Ġal ternative
trace This
Ġtrace This
) ~
in ations
SELE CTED
M IC
ro tt
j r
Ġm ad
MA D
quot es
Ġroutine s
GAM MA
b set
Ġwait pid
Ġte am
Ġun caught
@@," \
n ta
Ġp sp
un init
Ġfinal ize
J D
v ps
res sive
pa st
debug ger
0 20
Ġb org
b rowse
type def
String To
Ġleg al
Ġ" ))
et ched
Th ing
P references
ĠĠĠĠĠĠĠĠĠĠĠĠĠĠĠĠĠĠĠĠĠĠĠĠĠĠĠĠĠĠĠĠ ĠĠĠĠĠĠĠĠĠĠĠĠĠĠĠĠĠĠĠĠĠĠĠĠĠĠĠĠĠĠĠĠĠĠĠ
8 33
ue fi
l ined
port num
Ġp retty
tat u
Ġrout er
ja gnu
Ġg m
Ġex change
Ġ.. .\
men ubar
ĠSUP PORT
re ase
pi co
tra il
w ild
Ġy min
PRO G
ĠPo sition
m fc
tri vial
Spec ies
it ize
Tran spose
NAME S
@@< =@@
driver s
FIN ALLY
LOW ER
z mq
ATTRIBUTE S
to string
tran smission
Ġ1 90
ong o
ĠMod ule
m A
Sort ed
9 58
l sn
Error T
WE IGHT
ĠS G
Ġth unar
clo ud
Ġbo unded
ĠL ong
ĠX A
Ġsw apped
Ġtri es
ver al
las hes
Ġhist ogram
Arch ive
get line
UND ER
ux ua
ĠA FS
Ġplug ins
partition s
s box
u ck
string stream
S l
ad a
Ġaddr len
Argument s
B OLD
d field
V X
str tab
SH E
Ġcut off
n Num
cy l
ĠSIM D
init ed
rd m
Ġb abl
NI ED
ĠS witch
chk sum
D uration
g constpointer
Ġ'/ '))
gre y
Ġinterpol ation
CO GL
SCHEDULE R
Ġp Term
Ġcon sistent
Ġfa ult
FRAG MENT
Ġe ol
ĠC ert
54 1
TO DO
Ġbra sero
Ġde tach
sd n
c img
sa mr
comm od
ALE RT
OM X
d get
g Efi
Ġo sd
Ch ip
ĠP API
cur pos
ĠCLI ENT
T t
i S
Ġy r
valid ation
Ġ') ')
oid s
Ġat ol
Sh utdown
Ġsum x
Ġ3 76
Ġ19 00
DE TECT
ĠAD DR
out s
Ġm doc
ĠR ect
ĠSU CCESS
in er
pr une
tmp file
c urn
Ġin x
Ġclose st
TH ROW
D PRINTF
k not
j col
ĠR ound
uc le
disp osition
Ġsector s
Ġlon gest
to upper
ĠB ig
Ġ(* (&
ID GE
69 3
99 3
(( *@@
l value
r ptr
ĠF TS
sa fi
d ue
IMP ORT
Ġcomb ine
THRESH OLD
S INK
tmp dir
ĠD one
sv r
Ġr fc
Ġ2 28
Ġd ont
Ġa arch
dest s
ARG B
Z oom
uni q
xFFFFFFFFFFFF FF
r dr
es a
ĠL TC
byte code
Ġ((*( *(
hed ron
Ġe si
Find er
Ġv bi
ĠVARI ANT
ĠP layer
Ġtime table
Ġaccept ed
Prim ary
ile s
Ġin buf
No Error
Ġ'+ '
ad ers
String List
Sub tract
Ġl ut
ri ber
comp iled
Ġh op
Index ed
G FS
U CS
Ġ) ]
Ġtrans mit
\"/ >\
ĠV ADD
ENT IC
@@] =@@
ĠCol umn
h unk
Array s
OPT S
a vi
destroy ed
7 11
ĠE mpty
Ġ"% .*
acu um
an cy
Ġrecord a
Ġp Pars
Ġxml ns
G ON
n Size
Ġn ftnl
ĠP ASS
LIC IT
Ġp Item
ĠN DEBUG
READ ER
Ġd sc
Ġsome one
Ġ( )));
reg istration
ĠTEST DS
Ġlua K
I gnore
ĠD im
98 2
go ver
ĠTESTDS PINST
F its
DE XT
Ġma king
ili map
l ck
Ġvalid ation
FO LLOW
L ST
Ġi h
file time
329 25
Ġi pol
ĠI MP
CL R
)) *
DBG C
un block
4 26
D GRAM
c fp
Ġe fi
ref ine
Ġfrv bf
Ġh l
ĠM si
lic ant
log o
ni ce
GE L
c file
Ġ1 77
Ġ} );
", __
("% -
I FF
Ġp ur
Cell ar
ĠP AD
UN PACK
rc s
se pol
Context P
a arch
O rg
--- +
ĠTCG v
d tm
Re sid
T ags
is ing
ro c
Ġn av
error msg
Ġma gn
mm ing
Ġc df
Ġg ran
off load
ĠAL PHA
remoteDispatch Domain
M argin
g ld
si cs
UN SET
Ġav p
ĠJ son
% *
Ġs sp
ĠS LAPI
| -
compar ison
e se
Ġst rea
4 13
h stmt
Ġpre serve
End point
T c
TR UST
INFIN ITY
do bj
MP FR
6 33
Ġproject ion
Sum mary
li sp
authentic ate
106 50
Ġstrto d
m ft
Ġc py
Meta Data
Ġip atch
4 25
Ġd ash
name list
Ġle v
class name
coord inate
File Path
ĠOUT PUT
E scape
F lt
M ust
v cd
y res
alloc a
no mem
ĠExpect ing
Ġs al
r z
M VM
U tf
Ġlook ahead
H y
R SET
Ġs ds
(" );
per mission
ĠE Q
IM AL
d val
ĉ ĠĠĠĠ
Back up
l atch
ĠE IGEN
Ġlock ing
bg q
Ġyy pos
parameter list
warn ed
ĠM OS
DE NIED
code point
ĠCO ERCE
BE FORE
Ġpe ony
Ġcoeff icient
F l
l ump
at tempt
sol r
LOCK ED
Ġany more
ĠpC ut
Ġovs db
CON VERT
Ġs pice
Ġmon o
] >>
ĠN I
f ish
ĠM dim
ms b
74 1
h read
sp fn
Ġx type
Re sp
m ig
Ġcap abilities
RE xpr
Re alloc
Dest ination
put str
pla ces
("\ \
Orient ation
Ġk not
7 90
W Log
as f
ĠX Draw
Ca ched
ort ion
69 1
pad ded
Ġhow ever
c um
Ġcode page
20 18
Ġplay list
ĠvirThreadJob Set
ĠvirThreadJob Clear
Re quired
ĠM L
mo sq
Ġpro ceed
VAR S
>> >
ĠR oot
Trans verse
ĠoptInTimePeriod a
xml Schema
xffffff f
f ly
ile up
o ss
x sh
gl sl
record ing
Ġshift ed
Ġpoly nomial
__ @@[@@
op j
l stat
Ref Count
ĠReturn s
Ġb urner
ep fn
f err
ri eve
Ġop posite
001 32
priv ile
ciph ers
am ing
id ing
Ġsup posed
K eep
mp er
add set
to ff
Tex Image
ĠC IL
ĠD ate
Ġme dian
ĠST L
L NK
Ġc ds
Ġt data
Ġpr v
template s
ABCDEF GHI
ĠB egin
Ġtype cast
58 1
ATOR S
Ġexpi red
S ector
Ġm os
loc s
Ġtran sparent
' "),
ĠBU FFER
c spn
RE ASON
to h
Ġlo ss
CLASS ID
c ue
Ġl vl
Ġb rowser
Ġb ond
PRO BE
a Db
N FS
ĠA CT
Ġsh ishi
b cf
ele d
0013 0
Ġcondition al
ĠH as
Ġipol ite
SP A
Ġm antissa
t set
Ġex clusive
ĠL U
sd f
nd s
man ual
57 1
Ġmap thread
ALG OR
or i
ĠP ub
to a
Sign ed
C uLL
p Ctx
car ded
Ġo vl
Ġcon structor
havi our
si mpl
Input Stream
In q
ran s
Ġtrace Warning
gener ated
add er
r uby
Ġinter section
86 9
xffffff fe
Ġtick s
Ġif index
ap pa
Ġ"% %
ĠAL WAYS
ĠTH IS
creat ex
Ġ âĢ
PM C
error state
ud ge
Ġstr and
AG MA
cut s
ĠComple x
s di
ĠW ID
SN AP
Feature s
Ġc len
Fun cs
col d
Ġinv oked
ĠCO MM
: "))
WORD S
ĠDE VICE
DEL TA
it c
77 77
ur ls
e u
id p
Ġex perimental
ĠT ra
ĠCOM BA
Ġĉĉ ĠĠĠĠĠĠĠĠĠĠĠĠĠ
RE PL
R AT
ri bed
Long itude
Ġmove s
ĠDetectEngine Ctx
N il
*) &@@
UP LE
Ġhost ent
Ġb str
Ġh aystack
]) /
K ON
p ss
Ġu sually
ĠB lt
en ate
TR L
ĠO ct
ĠXt AddCallback
Get Type
B al
width s
l core
Ġv dev
RESOL VED
hemer al
r dev
Ġy ajl
UM B
Ġmod ulus
Ġoct et
Ġdk im
J oystick
ĠC LE
inter vals
Ġ16 7
Private Key
Ġnd pi
k u
Ġgl usterd
ĠGst Buffer
Ġglyph s
analy zer
S upp
Ġt in
Ġn dims
Ġyy thunkpos
Ġcomp il
RO WS
Table s
Ġpix a
di um
NAME D
Method s
SCROLL ED
Ġint s
Ġa bb
ĠCON T
Ġc dr
sel box
(__ ____
ĠJ ump
ĠNET WIB
I FICATION
Ġv fs
requi sition
d info
p Ntk
ĠS EV
sub stit
Ġreco ver
ĠR CONST
Ġnot ice
P hrase
ĠC W
to w
ĠB LI
Over lay
Sp line
71 1680
Ġex ceeded
P refs
Ġnext hop
ĠT ag
db p
JK LM
G Func
Ġn memb
li ers
Ġ- ---
a abl
Ġm aterial
AUTOMAT IC
bit field
M ING
RE VERSE
Ġstr p
mod n
Wr itten
ĠPO INT
FINAL IZE
Ġmsg b
ĠQ R
TIFI CATE
R ARY
v si
ĠLA NG
card s
ĠFIR ST
Cap ability
ĠP ol
Ġq true
Ġv im
el low
Ġ] \
ĠSE CSuccess
8 27
si l
off line
sr li
p mod
in fty
Ġt an
DV B
Ġxy z
Ġp V
Ġex tr
Ġan im
SIG TERM
Ġ*** )(__
m igrate
res v
exec utable
CAL C
ĠVER SION
ĠFin ish
RESER VED
i ot
Ġbal ance
ĠC E
Ġclear ed
\" .\
Ġlib cthreads
pen alty
ĠSER VICE
(% %
Ġast Get
RaiseBuffer IndexError
0 40
v key
Ġo x
Ġep silon
n str
us mv
Argus Buf
Ġask ed
con da
F close
SH M
>>:: ~
0000 1
IVE S
Ġpref er
Ġsend to
ALLOW ED
g lapi
Ġt up
bit stream
new XS
d sk
sp atial
ĠS m
DE PRE
: "),
RE FIID
new path
PARAMETER S
Ġ1 42
Ġfail b
g cc
EXT END
Ġoc fs
Ġw ocky
map per
plan ar
Ġp nt
) "));
Ġa ffect
New String
scal er
t node
ST UB
Ġ4 72
Ġun ibi
Ġbu fs
ĠI DE
id ian
EDIT ABLE
a unch
seek able
Ġos mo
Ġ3 52
ĠDesc ription
n q
foc used
de struct
Y V
Ġ( $
ĠA dv
host byname
X Set
ĠUnit Test
k mem
ĠS plit
Get Datum
send buf
Ġt gt
Ġs se
ne z
I STR
p M
ĠDE LETE
pro totype
ĠRE C
Y es
Ġ RES
ĠB IN
sock name
u str
ĠAC PI
ĠP UB
dr y
account s
Der ived
4 16
ar ter
Ġfor ced
Ġpro duce
O MP
g pt
mp fi
Ġĉĉĉ ĠĠĠĠĠĠĠĠĠ
MO UNT
Ġfe at
crol led
4 27
ĠPetsc Free
Sub set
BE X
Ġh uge
st emp
Ġn arrow
Comp ile
Ġad min
ĠV SUB
ĠXtVa CreateManagedWidget
Ġd pi
Vala Array
Ġq b
nt createx
ĠR andom
gra mmar
in place
Ġval len
T Info
cmp i
rg hs
ĠR LOCAL
Set Field
ern ion
' '
T WO
Ġc pi
K I
74 2
ĠI W
cl nt
Ġdl sym
Ġ Valid
text domain
P EN
ĠD MPlex
Pack ed
ĠAs sign
MIS MATCH
Oper and
D ummy
u ve
Ġp atterns
k mer
Ġf stat
port p
75 1
Ġiter a
expand er
ĠP TP
proc mask
QU OT
out side
app GUI
8 16
Per form
E Y
p sp
} },
MAX INT
ĠSet ting
SUFF IX
Ġ*/ ),
ĠT E
nd igits
ĠJ UMP
Ġsmart list
u io
Ġre write
Ġ2 58
ref Count
x text
md p
Ġint ro
ES CAPE
TOP LEVEL
(* (__
Ġsp lice
C LIST
b zero
ĠGAsync ReadyCallback
$ ",
REA CH
type info
od b
0012 9
vid ers
Ġbin vert
ĠWid th
p Db
lz ma
PR Id
ENC IL
Ġtemp or
Ġcap ability
n ir
pop ulate
X C
Y eval
plan ation
Ġ1 46
Box ed
Ġ'_ ')
G Callback
ĠI EEE
K SP
ar rghs
Ġi vl
Ġc buf
Te am
ĠHW LOC
nr m
Ġ{ ""
ĠA SS
######## ########
T un
close st
ĠPro gram
degree s
ĠFIL TER
i si
)) !=
o cp
Ġw ake
Ġmethod Def
Xm ATTACH
ĠPy Petsc
Ġresid ue
x k
Ġi q
er ver
Ġf arg
ĠT i
Ġirp lib
Ġmethod Sig
G ray
MEN TED
Leave s
[ (*
ch oices
fa pl
Va api
env U
access or
@@) *
Test Property
HE LL
Ġ) .
L N
ĠG egl
ĠL DB
Ġover written
T LOCK
ATTR S
re connect
ĠT arget
PyType Object
a ks
6 11
7 23
CORR UPT
f k
Ġ( ",
Ġ1 58
Ġstate ments
Ġcons umed
quir y
MOT ION
v dp
DE AD
B lit
NI CK
nop sis
p ul
ai j
XX X
F s
T g
Ġm en
Ġm fd
ic i
7 33
Get TypeInfo
ĠTRAN SL
av atar
Un ix
Ġma int
=% "
9 20
T W
ĠS uper
Ġ(" <
Ġlocation s
D TYPE
a al
po le
gl vl
F ptr
alle le
7 36
m type
Ex perimental
Ġsat is
ĠD CE
Ġ& (*
Ġm arshal
ann ess
d ropped
Ġch ance
s lapi
Ġf print
Ġp ed
sh r
transl ated
a ac
u ity
Ġle ak
67 1
d sn
p ff
str ap
effect s
comm unity
6 20
ĠPy thon
Ġnot es
FA CT
Ġinitial izing
Ġhtt ps
Pro mpt
Ġ'> ')
DE TAIL
1111 1111
mat var
c en
App let
M BEDTLS
Ġ layers
sw izzle
sol lya
ĠGdk Window
Ġe g
Ġal sa
ip a
Ġf ld
Ġ' ='
Ġfull name
Adjust ment
] ])
or ded
insert ed
UEST FS
I so
P REF
name spaces
ON Y
() [
Z BX
Ġt ear
Ġd ll
Ġarg us
x fc
Ġx assert
pt l
direct ories
an ame
con tain
Ġse em
Z FS
Ġl adish
COMP RESSED
Ġt arg
Ġbound ing
tri ev
Ġarbit rary
oi e
m name
Ġt ape
ĠTR Y
ac us
Ġperm utation
q rt
Ġav r
Ġadjust ment
inf erior
sink pad
UST ER
5 48
H KEY
ob ile
AS SED
mo bj
ĠH t
e Type
ET CH
AD V
imp orter
ĠAsn Read
Z LE
freq s
embed ded
bra sero
Ġeval u
Ġ"/ ");
g zip
4 56
F U
Ġme sg
percent age
str lcat
Ġcheck point
PI CTURE
n not
y o
ĠR untime
di vision
("% *
ABCDEFGHI JKLM
5 99
S uffix
Ġinherit ed
w printw
A re
Ġb lit
T ax
Ġs aving
ĠW INED
IC IENT
ĠCH AN
Ġxf ce
se mi
01745 32925
ret Val
q n
Ġint r
Ġan nouncement
aw ay
ĠXm ATTACH
K T
P id
un recognized
ET RY
Ġfo ot
T Z
a ag
Ġm sec
Value Ref
I J
ream ble
ĠV L
Ġtermin ation
front end
Ġ((( __
Ġre dis
Ġre peated
Ġs Ref
op ic
Ġmp q
accept ed
o pe
annot ation
g as
um bo
Ġm ate
inst alled
RE LA
cnt xt
as sis
Di a
Ġreport s
Ġ1 86
Ġ*/ ].
AG ENT
do or
Ġse veral
ĠDBus Message
5 64
ĠF etch
ĠR P
PIPE LINE
Ġfor mula
ĠL J
ve al
Ġen ergy
GLX EW
14 327
at tempts
co b
Ġb las
Ġ!* ((_
B oth
gps data
P SL
W HERE
mem dup
," <
strn printf
ĠD ST
Ġview er
case s
ok ies
ĠN FT
Device s
CI RC
Ġne mo
SLE Pc
ĠI MAP
T AP
ĠF igure
ĠH MAC
ĠF unc
Ġ'( ')
f error
~~~~~~~~ ~~~~~~~~
ec b
ĠT ERM
iv s
Ġch at
Ġalph abet
SS O
aff s
V oice
bar s
Ġtermin ating
VIS UAL
t sk
ul ine
new size
Ġc string
Ġinter mediate
Qual ity
Ġcon j
ĠGener al
db name
Ġperform ing
cs d
Append Result
Dlg Item
launch er
ro ke
An chor
6 32
Ġmsg que
cep table
DU CE
ĠDE S
SAVE D
b one
v ga
6 64
Ġp state
dd c
Ġ'% ')
single ton
SMALL INT
gs z
ĠX C
Ġpa use
A VI
]] ");
us leep
node set
Ġpe ek
Y A
su do
DEF INE
_ ?
Ġsol id
Ġp tp
ĠB t
Obj Ptr
Ġassume s
Ġre duction
vi ps
Ġ15 9
Atom ic
Ġp fd
Ġs asl
SUB R
4 55
ĠIM G
Ġl ys
gl TexCoord
) ^
q sort
s ar
ang ulation
Test Part
Ġour selves
GetItem Int
f cc
Service s
P ADDING
H SP
Ġ== ================================================================
pr j
Ġcomp o
OK EN
Ġcal endar
lick curl
arg ins
ĠG PR
0013 5
ACT OR
Wait For
G Source
ĠO ld
Output Buffer
Rel ax
sp u
Ġ19 1
n Expr
at tached
Ġg rd
ĠM apping
Ġr tl
get top
lib fvalue
AUTH ENTIC
ĠTH READ
S PR
Ġout let
n out
STRUCT URE
Ġexparallel ansinton
nowled ge
17 140
Memory view
ĠPN TR
ad vert
sp os
ĠM F
ps m
Ġi pc
Ġl an
Ġth resh
h ind
int errup
Ġma ilimap
oc sp
r db
ALLOC ATION
ol ve
20 20
av ro
Ġitem size
I US
Ref resh
Ġreco gn
n errs
Ġd ma
sp are
config s
Pol l
] _
p Name
Ġt len
Ġp M
cmp gt
Al ert
). ",
ĠMem New
partition Data
ĠImp ort
work around
Ġn dx
ĠE FI
GE D
initial izer
5 14
Ġg nome
10 40
D om
ĠGET JSAMPLE
ĠBO X
fq dn
g mpz
Ġ ue
handl ing
sen sitivity
C t
Ġc las
pr g
Ġev buffer
od r
tx g
ru leno
IDEN TIFIER
TestPart Result
u df
Ġ4 16
Ġlib fvalue
ON D
MP TY
Ġ4294967 291
ĠUN PROTECT
mort al
Ġmo o
Codec Context
5 74
u z
at an
Ġad ler
G s
Ġi row
type code
exp lo
unpack lo
@@> @@
Ġpro tect
Str ip
Inter pol
_ *
min y
enc er
43 00
ĠCon struct
ĠC DR
LE LEM
In line
Ġy az
5 32
ĠLA DSPA
Auth entic
G Async
con file
Co lour
v ote
file list
ite s
Ġk vm
RET VAL
Ġcomb ination
Cat alog
ĠI E
s key
ĠSp line
ĠB S
re at
file func
aa a
T N
x cc
Ġd ct
Get Values
aff ine
Access or
sym metric
Ġth binary
ip ple
76 3
Ġoper binary
ST AGE
ĠR AN
fs al
)( *(
WAR F
) *(_
5 80
f all
lo pen
ĠI FF
T OR
roll back
bf m
Ġ2 39
ra in
Ġexpect s
f pout
ra deon
ass o
MODI FY
DESCRIPT ION
A FF
Ġc cd
ĠB inary
ĠLO GL
7 29
Ġb urn
ĠV iew
sub vol
ĠBR OTLI
PI V
Ġ(! *@@
Ġad ns
Ġcorr upted
g hi
ĠGType Info
am bi
Ġdefinition s
oti ation
glew Experimental
li s
MT AB
LI MB
Ġ} }}
Ġt ap
Ġm gr
SC ORE
Basic Block
Per f
I mg
le ap
bo unce
ĠE AP
pre rr
ep oll
EGL PNUM
co vered
Ġch olmod
Ġh ence
EX ACT
ift i
Ġ"../../ .
Ġf wd
Ġe mail
Ġel im
MAN AGE
Ġdeterm ined
d string
Ġco spi
Ġend ptr
cat ter
Ġgener ating
Clock Time
SHE ET
sc at
Ġh m
Add Int
,"%* .*
C CODE
conf ess
ang er
h ue
Ġcaml idl
ĠA MD
ĠIn crement
Normal ize
Ġp ls
)& &(
z x
c ch
Ġw ent
Ġin Real
Ġnew p
Ġi Ret
Ġsub tree
TestEvent Listener
t err
develop ment
f set
ch osen
failure s
o vl
")) {
ĠCK M
Intern Atom
Ġsuff icient
46 2
T XT
li o
ĠIN ST
ĠREG ISTER
Ġu reg
ln L
5 38
Ġa ce
po ses
Ġsh ut
ĠET HR
MIX ER
6 25
Ġ", ",
ĠJ ob
yte s
su cc
gf id
ĠGtkText Iter
G LOBUS
ĠN v
string share
ĠDi sp
Ġref er
bound ing
ĠSW AP
sk el
Ġdefine s
enc ap
Ġra deon
Ġr uc
LA ND
x adj
Ġstr oke
oc ument
Ġ2 684
um in
Ġle ase
' "
Ar t
98 1
ga uss
Ġu g
Ġinvalid ate
x digit
ĠF LT
et ter
requi res
4 23
p Index
ĠSig nal
Ġroll back
P set
an ch
ĠApp Layer
ic ii
yte st
Ġpar ity
Ġip addr
Ġv n
h ort
ĠA CK
mod al
Ġ-- *(_
Ġac quire
S il
Ġp urpose
tr ing
Ġr ng
Ġ[ _
Ġfile Name
a Mem
Data Ptr
ĠWA IT
Ġ{ /*
Ġstring a
Def ined
QUI ET
Ġ' `
Ġz s
& ,
Ġd buf
MY FLT
ĠADIO I
n sion
person as
Ġend ing
Ġ38 137
Ġre call
mm ode
home dir
press ure
ĠSeq Id
i list
Ġsem antic
Ġb fp
Ġf onts
ĠA cc
10 64
Ġh dl
CE S
Ġpre set
Ġback trace
Ġg k
ĠX aw
fla vor
ĠC AP
Ġsen sitive
ĠIP V
book marks
ro wid
Ġch dir
Ġdiff er
Ġstrn casecmp
Ġ"= &
ĠMode l
o ob
Ġ utils
ĠI MM
Ġwh atever
EX CE
Ġrecur se
7 28
Ġtmp l
90 1
UP PER
ik er
Ġ429 49
add q
Cont rols
separ ate
m ont
Ġst em
5 11
D LE
G if
O LE
ĠD N
t ss
Ġ1 45
push integer
Ġ queued
Ġr am
min max
temp file
Work space
Ġguarante ed
4 39
w get
spar ency
())()) ())
1 001
Ġ/* ----------------------------------------------------------------
Ġsearch ing
W AL
Ġed je
T f
PIX MAP
con trast
db s
ĠX orriso
Ġpop ulate
x df
Ġpr io
Ġindex ed
Ġmod ifiers
Is Equal
CharPtr AndSize
x ec
Ġw k
y offset
fun call
C ar
f len
Ġh el
88 6
DT D
g state
pt t
ĠI Unknown
Ġg al
opt args
Ġno ops
Ġmo ment
Ġx F
ĠL abel
' m
K A
x off
an rd
Ġo sm
Ġh mac
Ġpro j
Ġindex er
p pea
v bi
w arp
Ġwh ence
p set
Type Ptr
3 000
Ġun wind
80808080 80808080
G AP
get pid
ĠĠĠĠĠĠĠĠĠĠĠĠĠĠĠĠĠĠĠĠĠĠĠĠĠĠĠĠĠĠĠĠ ĠĠĠĠĠĠĠĠĠĠĠĠĠĠĠĠĠĠĠĠĠĠĠĠĠĠĠĠĠĠĠĠĠĠĠĠ
ap pear
BC S
Ġf out
Ġpref erred
Ġ*/ [
Ġd ro
12 34
le Error
Ġf ire
io addr
Ġtemp o
any G
Ġ!! (
comp uted
Ġunder flow
YL anyG
Ġ167772 15
ĠE CP
ĠE val
Ġfile size
ther net
From Double
Ġgraph ene
head ing
Ġmem chr
b ang
READ DD
Ġsmb cli
sub system
Time s
92 38
Ġp im
a Col
Ġi ptr
)( _
Ġyy ch
d fe
read dir
cur win
Ġ4294 901760
68 1
Ġdata size
@@* (@@
pkt mbuf
ĠRegister ID
Ġxml Get
Parameter fv
S X
l upa
Ġo wl
ra ffe
Ġp ressed
ĠI C
F PRINTF
g long
se maphore
un reachable
LOG P
Ġav c
Ġwe ek
ĠK ec
Ġnd array
an alog
Ġo lsr
Ġj e
Ġor dered
pix man
v our
SP AN
FRAME BUFFER
s ftp
rec ptr
p sh
AT TER
sy stems
uli an
ORIG IN
A cpi
Ġg lf
ĠB KE
max size
Ġpriv ile
Texture s
xml GenericError
sf info
Ġspa cing
Ġaccel eration
Ġtra verse
Ġr ace
Part ial
() ==
Un ref
Ġv reinterpret
ist a
Ġflat pak
g ml
ER ATE
ĠD ev
79 1
ĠD MA
?? ?
+ ");
Ġh eld
texture s
7 27
or bit
)|| (
Ġi work
ad c
ĠA x
ĠG rid
Ġx lib
Make Symbol
EFEF EFEF
A Q
r aries
Ġs ps
90 3
Ġhappen ed
Ġphoto s
ts dn
7 44
reg map
Ġ! ((*
Ġq t
MODI FIER
UTF Chars
9 80
Gra mmar
M Z
ĠRE CT
NM Setting
m len
Ġrender ing
form al
on screen
ĠP DF
Arg TypeTest
388 608
Ġical component
C UT
den y
how to
Ġpre sence
@@)) ));
Ġ--------------------------------- ----------------
i anness
ĠC leanup
Ġwe ak
List s
CON SOLE
Values Error
u mask
as sembly
ste ad
ĠSy nopsis
Ġw orst
Ġadjust ed
9876543210 9876543210
Ġu device
Ġl status
ial ias
IO CTL
QUI RE
Ġinstr ument
= \
gl ad
DSP C
_ ");
Ġcomb ined
YP H
Ġident ify
Leak ed
ma ip
) ("
CLO SURE
Yeval S
Ġv lan
N DR
Ġvor bis
Ġ2 12
port ion
ĠR OW
A ut
i pt
>:: ~
Ġw ra
@@!= @@
Ġn elem
9 40
n and
pool s
W alk
Ġc iph
ĠPy Mem
mb r
hdr ptr
Ġamb ig
M SI
Ġser ialize
ValadocApi Node
Ġpan ic
M ip
ĠDK IM
malloc Failed
del t
m cast
Ġh vm
iter ion
ur se
ch p
bu mp
Ġ~ @@
ĠSHO W
p H
Ġ/* ------------------------------------------------------------------------
Ġfl ux
j pg
are g
5 29
font name
E SC
F x
Get Device
D PA
S PAR
Ġsi pe
ĠSendMessage A
S pe
ĠS int
Ġcomp ound
Ġ_ ("\
hw poison
PRE CISION
Mon th
st retch
rb g
Ġstr ftime
VA API
Ġs an
et er
Ġr pt
Ġsh mid
de ath
F V
Ġl dc
Ġnew ly
l chan
pro bs
Ġsimpl ify
SA HPI
ĠPI N
ĠCur sor
(" *
ĠW ERR
Ġhour s
Ġc st
de sign
Ġbaz le
Error Message
As CharPtrAndSize
ĠE SYS
9 18
Pro ps
lap sed
A CH
( [
ĠAb ort
ptr ace
void ptr
gs f
Ġpass ing
on ame
Ġt ptr
Phy sical
c nv
r di
Ġass uming
Ġber val
back ing
open Type
ular ity
PHA SE
Ġ10737 41824
Pro d
Ġme chanism
ta int
dra in
YsamuruiSgtk Y
B AL
x dlg
SA FET
: \"
li ves
Ġsym bolic
weight ed
Ġ{& __
t cs
Ġerror Code
n in
st anza
Ġi pa
th ink
new p
Val s
68 2
sub module
Ġgl p
L st
rt cm
Ġfactor ization
SAFET Y
Ġo buf
AL RM
In ner
name buf
net split
wpa buf
Ġcat alog
ĠET H
ĠS CALE
cred ential
ĠR ot
b attery
or test
Ġb on
su api
MI SSION
prod ucer
next char
ĠSA FE
@@ *(
ĠU T
Dy n
Ġo w
Ġerr str
Ġa op
RE PEAT
File Data
' )),
Ġsup press
ĠAT L
Ġĉ ĠĠĠĠĠĠĠĠĠĠĠĠĠĠ
BE DIT
dw Size
Ġsr tp
/ -
Ġa head
NV PROC
C he
l string
ke mi
-* -*
6 28
ĠA FF
ĠPy Bytes
Par a
ĠI m
IN CLUDE
Ġj x
sym metry
ĠĠĠĠĠĠĠĠĠĠĠĠĠĠĠĠĠĠĠĠĠĠĠĠĠĠĠĠĠĠĠĠ ĠĠĠĠĠĠĠĠĠĠĠĠĠĠĠĠĠĠĠĠĠĠĠĠĠĠĠĠĠĠĠĠĠĠĠĠĠ
ĠPar ent
Work er
5 26
_ (&@@
LIB RARY
{ \
py env
00000000 00
ĠM alloc
lf lag
Tra its
sy mb
Char To
f ri
at ty
dd raw
ĠA tk
Ġsu itable
Ġsub string
Ġjob s
4 17
n Byte
u idx
ĠS TE
Ġde e
Ġgr and
de allocate
Ġu f
O OL
er ce
Ġre pl
ĠG ene
98 3
W PS
ar man
7 26
ad t
ĠS ample
Ġx path
cp s
mb edtls
SER V
Ġsk y
re w
po c
Ġde mo
W V
Ġexpression s
reen ode
Ġ_(" _
ra ct
ana conda
ĠCI mg
n Vars
__ (((
ed i
CONFIG URATION
MARK UP
G wy
f bo
Start Element
fra ct
99 1
ĠVER BOSE
Ġsca mper
par ty
Ġlp Object
ĠSy nc
Ġpro tected
Ġsrc reg
ĠDim ension
ra mp
ĠD b
EVENT S
i co
gs ub
CH LD
Vala Property
b ci
Ġreloc s
PAY LOAD
S leep
Ġf ir
ĠP V
Ġclient Data
lua L
RE CE
RE USE
Ch arge
SQL STATE
SetItem String
ĠTrans form
ĠI CAL
STD IN
Ġder iv
m orph
MA Y
hdr l
Ġw v
Corr upt
dat ad
Ġ--------------------------------- --------
ring buffer
Min or
ol ver
Entry Ptr
qual ified
cvt si
am ine
M G
ĠG DA
Main Window
only TX
SUFF ICIENT
9 12
p Var
@@ ':
CH R
So up
Ġ2 70
Ġ\" .
recy cling
fabr ic
== ((
Ġbind x
Ġ4294 96
J ava
er rout
tuple s
Lin ux
Ġv cast
ĠPhy ML
EN CODER
conn ector
Ġbp ntr
Ġjit ter
Ġnew len
multif it
G row
Ġf ptr
in hibit
Ġf er
Ġman ual
S patial
cs core
nor thing
if lag
86 7
Ġacc umulator
Pro be
AI J
CHAR SET
6 56
n j
n parts
p alloc
Inv ocation
F OP
y ing
prefix len
S quare
- ",
U CH
ĠĠ ĉ
Ġ2 15
ĠC OR
f ed
Ġ ark
ĠS END
De que
File Size
Ġplay ers
Ġvir Net
Wr iting
pl r
Ġabort ed
ĠVAR SET
0 15
F allback
Ġv assert
Ġd z
20 22
ces sion
dec ref
M ass
x image
ext en
Ġver ification
9 28
R N
r set
Ġcon tour
ĠT d
Ġsome times
fold ers
rott le
Ġal ternate
PATH LEN
M ST
f min
C lasses
p Win
10 30
ĠPy Mac
Thread Ctx
Ġb df
Act ivate
707106 781
Ġframe buffer
n ntp
Ġr ay
line len
Ġsa mp
Change s
( ++
bytes left
Check ing
dm x
4 19
Ġs sid
pas ses
pr ice
config ured
d flt
Ġk r
Ġ{"" },
T OL
c art
l ansinton
Ġ~ ((
S orry
GR AB
Ġ1 93
pa a
001 48
Ġtrack s
Ġplan es
Ġhas n
Write String
Ġin finite
Add ing
Sh are
Prec ision
Y PPsym
q data
Ġ(" [
sem antics
ĠInitial ise
y x
Ġp fx
ut ive
Ġx calloc
AD J
title s
rd ma
insert ion
Ġ vari
Ġf ps
te gr
W arn
yy ruleno
ĠSEC Item
ĠR F
Tr unc
ĠRe served
qui sition
Test Info
pipe s
," /
E OL
entry Ptr
Native Integer
rav ex
men us
L amb
Ġs cores
Ġps Enc
ces sibility
REG EX
ĠGtkTree View
ĠC ARD
]= %
rm dir
ENC Y
n lines
pt ree
Ġz i
bl ink
bl ings
div isor
lif e
ent ially
To Pointer
Ġass oci
e si
In clude
ĠST OP
Cap abilities
t ch
Gtk Source
And Keywords
Z A
DAT ORY
@@@@ @@@@
Ġ! !!
Ġali ases
f pos
ch own
LE lement
ĠC TL
Ġde leting
55 44
Ġtime zone
Ġtra il
4 77
N H
ĠG ame
C sr
z Sql
table t
PFNGL GET
Ġv fo
lip se
4 0000
] *(
ext s
Ġout Idx
Ġbit set
ĠDIS PATCH
ecx CK
Ġa h
cb p
Log in
CER TIFICATE
Ġ1 47
fra gs
ĠGst Element
Ġxm ms
ĠJ O
-> %
Ġc if
Ch r
GClass InitFunc
Ġfd open
UN SPECIFIED
g un
ex errval
qh ull
2 001
Ġw w
IS A
Ġmp f
Ġten m
Ġ1 234
In direct
List Store
Cy cles
E nsure
Ġbuff ered
Ġrela x
a ead
Ġa y
valid ator
o val
Ġd ctx
Ġm ux
roup s
Ġ1 78
Ġj mp
ma int
Ġexec uting
a Data
tmp ptr
ow l
Vala TypeSymbol
DH CP
malloc ed
di mm
my id
MD A
c flags
pa que
ĠP ower
check box
v size
sc atter
ar gn
nt er
Ġreg ard
k on
as ing
IS M
Dig its
Ġformat ted
N Z
ĠD ir
ET RIC
ĠL IVES
ĠPar am
wm f
B ANK
In cr
MP P
bl t
} };
ta o
ĠP oly
Cre ation
Ġ1 55
ĠE E
ĠX INE
Feed back
Ġr limit
d gram
| \
SP HER
mix ed
( <
h apd
Ġp Level
Ġen a
de tection
Ġm q
Ġ3 44
vent ion
sane i
Ġr na
Ġst and
pp m
de jagnu
Ġ16 5
Ġman ually
Ġyy scanner
spec ifier
ONG OC
sem antic
M IP
Ġi bus
IN SUFFICIENT
right s
OUT OF
Re maining
ĠRe member
Ġmemory view
Token izer
MAN DATORY
Ġ2 44
Ġh f
7 12
Ġp alloc
dev out
ro i
Ġun iform
ĠUN IX
ĠBe fore
ĠS ORT
sr tp
Ġs la
ĠM ALLOC
Tr ust
ĠSUP ER
C irc
G INT
\" ]]");
Ġpix Destroy
Ġch roma
An imation
lock file
o op
ĠR AD
show n
Ph oto
Ġ--------------------------------- ------------------------
ĠConfig uration
Q T
o file
Ġ3 92
Ġ5 52
sv d
ucle ot
sc ra
Dialog Property
ĠT oo
off screen
xffffffff ffffff
x mpp
Ġz ap
]= "
Ġad apt
Ġ* >>::
Ġ2 30
ITH M
Ġest ablish
gen sec
ĠOpen GL
6 38
Ġp opt
NT P
sys ctl
C DK
Gtk Button
Ġpoint ing
DEF INED
A OP
Ġs uggest
MP T
PAR TIAL
Ġexpan s
sw ers
ĠCHAR ACTER
ĠT M
bes sel
ucleot ide
Set From
m ir
Ġz Name
Ġfil tered
EFF ECT
E mit
ĠP OW
col lision
Ġq mi
check ing
C airo
a size
Ġw ind
ADJUST MENT
Cont inue
warn x
Cre ating
r pi
conn man
Ġpas ses
1900 80
F REQ
Ġp end
par v
Ġfree ing
++]=" ";
b fp
mat ure
Ġus able
PER F
declar ator
ĠP URPLE
Mod ify
S crn
Ġp il
Ġservice s
aaaaaaaa aaaaaaaa
Ġu sr
Ġbox es
7 80
Ġ*/ -
ss s
Ġ16 1
CON VERSION
Ġap op
Ġvirt io
ex pl
aa intn
Ġtri ed
(; ;)
Ġband width
Ġh apd
float arg
ĠP lay
Ġup on
@@), @@
Ġx res
ER ANGE
ĠI CMP
ĠAc cess
4 99
un read
ĠGN M
G ING
ref name
Gee Abstract
Snap shot
W AV
]) {
PetscObject Comm
Jo urnal
) ")
E SYS
h ull
v card
RE START
Get Start
tet ravex
ĠĠĠĠĠĠĠĠĠĠĠĠĠĠĠĠĠĠĠĠĠĠĠĠĠĠĠĠĠĠĠĠ ĠĠĠĠĠĠĠĠĠĠĠĠĠĠĠĠĠĠĠĠĠĠĠĠĠĠĠĠĠĠĠĠĠĠ
ĠI I
Ġvert s
f call
7 40
Ġc and
Ġs ftp
ĠFL INT
Ġide a
Ġd sk
ss rc
REG ISTR
di ce
nx agent
COLLECT ION
5 18
6 378
up tion
ing roup
ĠT wo
east ing
t cb
Ġreal type
d pp
Ġre iser
add ch
to wc
dark table
H ard
k ick
ĠS ame
0000 01
Reg ular
Ġyy n
>> >>
late st
Ġbound aries
c dd
mutex attr
Ġinitial ise
Ġarg ca
W P
_ (__
format ter
As String
Ġet imer
j is
Ġq r
blk no
BU FS
HY PER
ĠCard inal
Ġs av
ST ENCIL
C ID
K L
Co ver
Ġio buf
ĠAl n
Ġhap py
ob ar
Ġme ch
FIL T
ĠCUR LE
MAX UINT
Ġd printf
ĠX SH
6 96
Ġan imation
Bytes Per
M MAP
Ġs lope
Ġdi strib
D rive
kernel s
b ct
Ġr an
copy right
ĠMAT RIX
Asn Write
Ġarm ci
A J
om ial
BO S
ĠH AS
Offset s
ĠC al
AB ASE
ĠSY N
em alloc
AU X
)? "
Try ing
Get Magick
IST GT
Copy Func
v data
ĠA OP
EM ON
Ġ}; /*
Ġĉ ĠĠĠĠĠĠĠĠĠĠĠĠĠĠĠĠ
Ġn cp
dm u
multi part
look ahead
ĠA TK
Con version
Extension s
> ();
ob server
Lat ency
main win
Request ed
IE s
X N
P B
Ġ1 49
par ound
ĠM ARK
OT F
doc ref
Ġd ual
ĠTIFF TAG
group ing
WR ONG
Mod ified
> )
A HI
C AM
Ġ0 000
Re solver
Ġpo sa
Ġ1 74
b dd
Ġadd ra
PRO DU
c j
w heel
if e
Con tains
row stride
ĠLD NS
n me
ĠID s
stra ined
vis or
supp licant
ĠE O
integ rity
D enemo
Ġst m
Bound ary
ĠB ACK
SU ITE
Hash Map
PLA NE
C IL
Ġc msg
Var int
SHUT DOWN
bu fa
Ġsub st
ĠY PPlist
win sys
ĠPix map
6 17
Ġf q
Ġal n
File Info
ĠAt tempt
H U
Ġb ins
expir ation
( ~
Ġtid y
ĠTRANSL ATORS
9 64
RE MENT
Ġma i
flow s
shift ed
7 50
Ġ', ');
S ASL
d ce
de cess
vol ve
ĠUn ix
Ext end
Ġeffect s
Ġĉ ĠĠĠĠĠĠĠĠĠĠ
Ġn xt
Ġ4294967 284
Ġf apl
][ (
ĠNet work
9 17
id c
ĠT x
ĠPro b
Ġsr slte
ah orse
88 5
Di ms
end pos
Se par
siz ing
Ġinsert ion
p Dst
Ġr str
ĠpA bc
text view
Ġt ax
an si
Ġf info
He re
va hi
Ġstr v
s li
Ġ1 79
Re po
og onal
ev p
SEC RET
Ġ(& __
ua e
ĠSH L
Ġden ied
pj sip
Ġf ro
ĠM on
Ġ28 80
timestamp s
Ġpro pagate
Ġlog file
ĠString Save
NUMERIC AL
Q C
t fp
Ġt em
ct m
Ġrec ip
Count s
Ġc ram
Ġu data
ĠP ick
ific ates
' /
J MP
CON CAT
ĠBe cause
ĠHeap Alloc
Ġi data
primitive s
Ġm time
ĠAct ive
9 38
d tls
Ġq m
sp lt
Ġcurrent Player
ParseTuple AndKeywords
n Cell
Ġ) ];
TR AP
H ot
zero es
RR OR
Ġeig env
8 55
secret s
atedeprecatedeprec atedeprecatedeprec
G adget
a ain
As Double
sa y
ber os
Ġa e
Ġy uv
Ġconvert ing
ĠG FS
Ġy s
CANCELL ED
Ġi cl
LE V
ĠE ven
pa used
BOT H
Q String
Ġi Col
Ġp arg
Ex change
@@ ";
real time
merge info
Ġre serve
ST ICK
ĠM IPS
ADDR STRLEN
NE VER
Dis connect
F og
pu zzle
Z LIB
d ad
Mo vie
pS chema
Sol ver
Ġu ptr
0000000 1
Ba sis
__ ),
ns ub
Ind ent
1994 33
D close
def er
H V
Ġ**) &@@
bra ce
ĠHD fprintf
c array
le ast
ĠT HT
Sh ip
cell score
Ġgn u
M arshal
Y PPlist
reg set
Ġcp uid
x len
Case s
Ġur g
Ġweb kit
Plan es
t iling
Ġp info
Ġn written
cac Hash
ĠKec cacHash
Ġ" ==
Ġ4 24
Ġdepend ency
/ "
5 13
Sub key
ĠPetscValid Header
DIT ION
H ave
Ġco ap
path len
Set Type
Ġyy error
ĠXX H
26 175
ĠLit tle
ĠWE ED
RE XIT
gl Delete
ĠJ ERR
Ġgen e
v pi
Ġ* ))(
Ġne ither
ub ic
m info
framer ate
O LL
a void
l str
Ġv cpu
IMPLE MENTED
mat rices
PR OB
bbbb bbbb
it a
lob ber
ĠIDirectDraw Surface
ER S
Ġe phy
as ons
ĠTR ACK
Pre vious
X IS
Ġ19 80
Ġs plt
IS REG
Un ary
Un recognized
Cal endar
ĠThere fore
SE X
Ġan ce
SY MTAB
stick y
intr insic
: /*
field name
find er
Ġnet wox
HE VC
Ġ'- ':
ĠP THREAD
Ġlocal s
distance s
ITER ATOR
r ating
sp ils
7 31
ĠI XML
Get First
yy ss
D NA
F p
th an
BROW SER
re pe
ma ill
ĠT urn
Ġw pl
Gtk doc
in ame
ĠH Reg
4 66
c flag
ine ss
LA S
ane ous
EXIT STATUS
C ST
Ġext Start
ĠVol ume
Ġn sec
ĠE B
5 98
Ġ* ","
obj Ptr
G nc
b rc
v ptr
Ġbuflen a
p Dest
Ġsh all
tw op
K NOT
Ġc wd
si pe
OL Y
Ġlo t
L eg
ĠC ho
Ġport ion
9 37
Ġre play
et ag
(" {
ine s
xt ension
ĠD LT
Ġy offset
dis cover
Ġx pos
Ġsc anning
UNI QUE
pl ant
ĠPetsc Bool
Get Image
Ġ(" -
connect able
ML V
Ġsa mpling
Ġsys db
Mix er
Ġt one
to d
0012 6
ĠPro tocol
Secondary Color
CH I
CODER EF
7 30
ic ense
Se qu
Ġgl Enable
xpan s
ĠCLE AR
b info
Ġ= (
ĠP AT
of i
IZ ATION
End Element
Rel ative
c able
Ġst amp
ĠM sg
KEY WORD
round s
BUTTON S
D STATE
n max
tr g
Ġsec ure
ĠCh ild
j arg
ol ate
Ġx len
Pair s
H ome
AV AIL
Ġindex a
ed d
str ow
Ġterm ios
Ġfo reground
st ops
Ġde crement
ĠL WORK
FUN CODEREF
Ġquot es
ĠTHT ensor
Ġp pp
Ġs data
ĠN a
ail ure
Ġg conf
De pend
Bo ot
ĠN F
opt val
ĠR ender
a si
ĠDo es
ĠBU ILD
8 24
src a
ĠB STR
Ġo t
Ġ* ****
Ġch allenge
ĠB D
Ġown ed
( *)
Ġsv g
0 11
Ġ( ++@@
key tab
ARG IN
Ġmin imal
fm add
Sol ve
Spa wn
Ġ DECLARE
clo sing
Ġexpi re
u L
ĠG nc
ĠCOM MAND
N or
Ġp Temp
pro mp
ĠM DB
rsp i
Ġct failcb
ĠSe ek
K M
^ (
Ġ2 25
SE CF
U pd
ĠC ELL
Bu iltin
8 56
A DE
n vars
t elnet
al ternate
ra pt
ob stack
cm c
ĠPI GLIT
4 37
ĠR N
Ġfore ign
ĠPetscValidHeader Specific
SECF ailure
4 75
9 24
9 59
new v
Ġmix er
n list
report s
7 10
14159265358979323846264 338
Ġd ial
r pm
Ġtra iler
my Data
xFF uLL
, /*
de ffile
Ġobj file
Ġho pe
s mt
str ncat
Ġvir Object
Ġget nsecs
Ġcon trib
ĠT ALLOC
00000000 00000
st ers
Ġout ptr
Ġplay ing
Ġ": "
)) ",
ub i
Ġse cp
Ġrb tree
C ATCH
I ss
Ġ8 64
scr ip
Pri ce
Ġcalib ration
SH OT
> ")
S close
Z OOM
or row
00 22
sign er
890 1
Ġ RESULT
," #
B ut
Re peat
IZ ER
z Db
Ġstat buf
ff d
Ġcon e
ĠE IO
CP TR
clause s
Ġw rapped
gld raw
V B
o gs
ĠC BLAS
split Pixel
Ġcy pher
ĠD AH
U AGE
RE TRY
ule s
Seg ments
dead code
Ġp Sub
ĠS ID
sn r
Se maphore
Symbol s
Ġarith metic
R ast
c gs
ĠS lapi
8 00000
si lence
10 32
O ES
_ ));
ĠM ix
DD D
Base Name
ĠAdv ance
ance led
Ġinter sect
MESSAGE S
fre quencies
I ex
ro gate
ĠF ra
Ġx v
FL AT
Ġclass a
X Event
Ġ" '%
Ġ16 711680
AP PLY
Protocol Schema
d ms
Ġg ar
ĠS SE
DB LOCK
Ġph one
Ġnc id
a is
Ġ( =
Ġc upsd
RE ALLOC
Ġpk cs
Rad io
) ]),
Ġ1 95
(" ***
Ġread able
Ġf lo
)( (@@
Ġrelease d
open ing
Ġext End
GM ime
ĠF RV
ĠD ense
ise mpty
f val
Ġt dep
ĠC AR
b ble
Ġi ps
dow ntime
() "
As Long
ĠDd Node
From Ssize
5 68
6 50
sym ndx
IGH TS
> .
G Y
ĠL IM
Ġexit ed
parser s
OG CS
ĠAST Node
P m
ĠN ON
mpl ers
S US
sub process
Ġm cl
tool z
ĠSPI CE
Ġtrig gers
G PtrArray
g lade
start pos
Ġho le
Ġs ch
Ġb map
ĠCO UNT
Ġtree s
lc id
9999 9
re new
bj modn
ĠINT O
xl an
a ad
h il
Ġe poch
Ġr ip
ĠEX EC
ĠH igh
6 16
k log
Ġ2 59
ĠE mit
gnost ics
tr ial
fd set
Ġhost apd
Ġ[- ]
k n
(& ((
EN TRIES
desc ribe
ĠLZ MA
sr p
d ats
mm er
9 30
Ġq d
Ġtr iple
ĠxmlSec Assert
Ġol dest
nto hs
n fa
q polynomial
s ad
Ġw al
ĠI CON
FOR TRAN
V LAN
s andbox
ĠThe y
ĠDAH DI
b swap
ĠS ingle
sa w
Ġcomp act
AC Y
GetMagick Module
th ird
LIST EN
Ġwr it
TMP ST
Ġc cp
ut y
WR ITER
interpreter Proxy
Ġl ttng
ĠCON DITION
( {
. -
S LICE
Ġc apt
Ġl str
iv ector
Ġback o
k ex
Ġuncomp r
Ġ1 94
cp c
PH P
b ell
ĠR AS
gen ie
man ifest
Ġmand atory
ĠW AL
Attr s
c it
LE MENT
Un map
AV OID
0 30
9 48
Ġi Obj
ĠS pe
Ġ20 2
Per cent
Dimension s
T U
Ġst broadcast
lf c
br l
uve au
Ġl Param
Ġ"\" %
Ġ2 36
ĠE st
LO DWORD
ĠRET VAL
g di
ite mp
@@)) ))
T TY
get g
QUAL ITY
@@] ]
m owgli
Ġ4 76
Py Code
Ġout Real
STD CALL
Ġm igrate
Ġb la
ĠJ K
Tra cer
ĠM IDI
Ġwe apon
Ġcur win
ĠString Value
ĠFUNC NAME
Ġdocument ation
Ġd av
Ġe o
Ġse maphore
8 26
vol info
A ck
T UPLE
Ġbit mask
cent ers
exist ent
pE List
O SE
Ġh ts
ĠpB NS
Ġe at
I OR
u buf
Ġa ug
Ġon ig
PRO M
Memory Context
ACK ET
tl b
Ġob tained
PH YSFS
atedeprecatedeprec ated
Ġbench mark
D ense
Ġget pagesize
Ġls ame
ap prox
fail nez
re striction
rab byt
ĠNET WOX
9 14
DR AG
UN DO
ĠI PC
K MF
M rBayesPrint
o ints
Ġas semble
66 1
Ġadj acent
KEY BOARD
0012 2
Expr List
Pk g
sv m
Rule s
k buf
Ġb ps
ĠK ernel
CAPT URE
t list
Ġf rm
Ġa fp
ĠAppLayer Parser
rep lies
Token s
4 33
9 16
Ġpr incipal
!= -
274 34
sp d
xff f
VR ML
J E
ABCDEFGHIJKLM NOP
Ġp gs
Ġm ol
Me chanism
conflict a
)* ((
x type
ptr diff
rep orter
pl p
ĠL S
eld bus
Inter net
Magick Event
umul ative
H C
write s
R DF
S ent
ĠM dc
gd Image
5 19
!! !
aag mA
2 00000
Ġtest ed
Message s
ĠER ANGE
Rygel Media
k vm
backend s
l wp
m utable
Ġb swap
if act
col ptr
Ġ(- (
Ġt ech
ĠBu f
Connect ed
v w
host list
Ne mo
Ġdv bpsi
fto ver
h data
Ġcirc uit
Ġm ins
is null
ĠR HS
ASC I
p Zip
Ġt ar
ba u
iff ies
Sol id
Ġ'[ ')
ss d
IDE O
) /*
ad p
)) ");
Ġannot ation
ĠD ist
ise ct
123 58
ĠPRO CE
ĠMT est
G NOME
x ch
ĠL zma
Ġtmp buf
sim ilar
SPHER OID
Ġ'* '
ĠVir tual
7 15
Ġs pr
ppv Var
J V
L x
Qu ick
Link ed
Vi sit
E uLL
n link
Event Handler
A FS
b ullet
k x
an juta
soft ware
7 49
8 80
_ ),
ab d
: @@
ĠO CI
Ġ20 97
N LS
lo d
Ġj c
mo lecule
U i
Ð ¾
Ġp u
Ġout going
No Trans
SN PRINTF
q id
Ġp ll
Ġ(! (((
Ġcol lision
Ġcomp ose
6 76
MA NGLE
black list
h ell
ĠD Y
Tran sl
Ro le
194 304
Boxed CopyFunc
recv buf
Ġpy thon
Ġin compatible
func name
================ ========
ex clusive
ab acus
dns sec
+ =(
Ġ" "),
Ġw orth
ĠHY D
u ched
set zero
ĠGLOBAL S
ĠPRIM ARY
6 000
in visible
syn chronous
Recursive Deref
Relax NG
ĠOP CODE
Ġcl r
Ġdepend ent
mp m
Ġ(! (!
nd mp
pre load
Ġclip board
S NES
Ġent ered
); );
Ġf Verbose
t size
19 99
Ġk mer
Memoryview Slice
7 22
9 122
Ġp ty
open gl
PRI MEM
Instance InitFunc
sec utive
Multi Iter
a decimal
ĠI ty
mer idian
art beat
POLY GON
P red
g il
Ġf ab
volume s
Ġve locity
is alnum
FRA C
*) _
UL ONGLONG
Ġyyg uts
N a
Ġrecord ing
Ġleave s
fro zen
ĠOr igin
x h
sign o
]; {
atom num
Ġgo al
l strcmp
ac s
q st
Pr A
Mode s
Ġb ptr
REG NO
ĠGL H
rd x
o cket
r name
Py Float
Ġ'< ')
copi es
Ġre li
yy extra
Rect s
Ġx sane
dtm f
7 64
ek sp
k ed
Ġv ld
ĠO O
S id
cmp uint
append f
Ġside s
M N
f ctx
r src
Ġc JSON
TRAN SL
D CM
Gtk Window
ĠF ast
From File
BOUND S
p sys
re ps
Ġ! __
oct ets
)) (*
get buffer
as hes
Ġup d
Ġbt or
r ub
ST S
Ġmax val
LOG ICAL
ĠDE V
si f
signature s
Ġ4 20
vent s
cr d
u size
man ufacturer
Ġsa w
Ġsp ell
? )
P kt
re iser
st l
int ensity
up time
Ġst ick
vpn info
pro cesses
neg ate
7 54
B RO
Ġ'; ')
F w
Ġsup ply
Q AL
sp lines
oc cur
move ment
ĠEX PORT
ĠEN GINE
(" &
Ġe el
ke e
Ġden sity
ĠN FS
Object Ptr
DELE TED
v self
st aff
ĠG IO
ant iate
gle s
push number
RE COVER
Ġ'\' ')
var gs
te ps
IR Q
5 17
z n
Ġf at
Ġ': ';
CAN ON
ĠF W
inter cept
Ġup load
Ġcode d
ENO DEV
Ġk ern
Ġ15 3
Ġsu bj
d um
ch ap
DO CK
ĠA I
ca f
h ub
ĠG ive
fun ct
gen omic
IDENT ITY
Sen sitive
Ġun def
C VAR
Par sing
vo x
ĠSeq Mgr
5 16
mar ie
ĠLog MagickEvent
pR tree
HIST ORY
T G
Ġs alp
PA REN
Ġ" }\
Ġg am
node id
Int Size
ĠK ER
commod ity
$ $
yy text
ĠFI LL
p Term
r surface
ĠA SM
*( *
== '\
GE OGCS
)& &
0016 02
MU ST
ĠAd dr
nto hl
6 37
P ts
sy ma
UM NS
6 14
G InstanceInitFunc
p OrderBy
Way land
Ġ2684 354
flo od
Ġ** ))
mit k
pref erence
Open SSL
G u
MAP PING
Bound ing
v bo
en r
Ġp ie
SET FL
Ġsig set
ĠComp onent
Ġt cache
Ġp ay
ul int
H ide
t sp
Ġi sis
ĠMA G
ot opic
lat er
Ġsl ight
6 100
Db Free
e mm
if old
CUR VE
795 32
CLEAN UP
ĠvirNet Message
L arge
RC V
Ġpref erences
tin y
: {
Context Ptr
Ġ*(*( *
LA B
reco gn
ĠDest ination
ad ic
Ġ2 10
Block Size
Ġrt n
Ġĉ ĠĠĠĠĠĠĠĠĠĠĠĠĠĠĠĠĠĠĠĠĠĠĠĠ
CH IP
ĠRuntime Error
th dr
ĠH MM
min imal
ĠSER VER
6 12
Ġc file
"); */
ist art
4 76
ad f
Ġj unk
7 48
lon gest
nan check
I Reg
q e
Ġs weep
Ġcon firm
cur ves
ValaCode Visitor
re z
RD X
Ġn items
@@", @@
ellip sis
g cov
Ġt gsi
Ġinstance s
Col Major
FIR M
* ",
obj c
Ġtrack ing
OVER WRITE
h table
ĠUn lock
Gdk Pixbuf
Ġx e
ĠO ID
gra ft
OS MO
ĠT LV
normal s
Ġsf tk
x mit
tra mp
Ġ4 32
Ġsp x
An not
p A
In dividual
ele v
cc c
Ġlib fdatetime
Ġc ch
High light
ĠDH CP
squ ared
fan out
9 70
36 00
Seq Loc
PE M
:% .
Ġcancel led
Fre quency
E URE
Ġd ither
Xm String
t sig
Get Size
EX ITED
DA EMON
9238 79532
8 12
Ġreject ed
l name
if ting
um ber
sig handler
KMF K
test er
0012 7
LC ID
Ġ LENGTH
to str
MAP PED
in complete
Ex A
ĠJ SAM
Sa Hpi
n orth
Ġ== =====
US hort
l q
Ġu u
Ġfile names
De crypt
Y ear
a buf
Ġb z
Ġz alloc
Ġ". "
h alt
ĠR OT
al ternative
ĠT OP
Ġ48 8
s rt
Ġr ai
Ġx printf
io stream
Ġspecial ized
is alpha
ir i
Align ed
6 19
O E
Ġv ect
Ġg xm
Ġhash config
CHAN NELS
Work Space
EURE COM
a int
w str
ROUT INE
Ġd ts
Rel a
Ġ38 128
S MP
c err
Ġshow n
DS DP
pr ng
Ġor th
Ġno op
Vala Parameter
DIS C
p urpose
po sit
ĠV endor
97 3
GF X
ĠTA IL
con trib
n C
Ġx tensa
Set Ptr
Set Attr
Ġsp atial
info list
append StringInfo
Ġgn ix
f ce
AU DIT
Th ickness
GI CK
PROJ CS
ro les
ĠCh ain
@@) ++;
CAP ABILITY
Ġl Get
Ġĉĉĉĉĉ Ċ
Ġ++ ]
Ġbit pos
pV tab
5 90
j g
j tag
p free
Ġstr spn
Ġmultip lier
trac ing
Ġc ork
ĠM issing
Ġyy size
SHR INK
7 78
j m
p line
ĠE fl
9 27
f sync
n mod
at r
lo ff
Ġsub routine
6 98
S catter
X FS
call id
cod ers
Ġinter active
Buf Size
Debug Stream
EQUAL S
ĠW ocky
Ġzero es
Ġĉĉ ĠĠĠĠĠĠĠĠĠĠĠĠ
Ġlong itude
Ġsp line
PER IO
Ġprob ability
W all
Ġbase s
Ġar p
Ġdeprecated g
ĠPo ints
ĠCSS Value
s Ptr
Ġre striction
get value
ĠF ull
, ");
ang ent
resol v
BOUND ARY
Ġto c
ĠDIG IT
L ike
S INT
Ġh ello
G p
W ine
Ġf irmware
ĠPH YSFS
An juta
I mplemented
d Var
v snprintf
type a
UN EXPECTED
Quad Part
V tab
Ġc rt
gl Enable
ĠLIB CALL
Ġlate st
ri ch
ump s
sw ith
ip sec
pre pared
b dev
Ġbuf Size
S k
p cp
w sptr
de cision
ĠV on
G ia
St roke
EX PI
sb a
Render buffer
bench mark
P latform
r fds
aggreg ator
ĠXtVa SetValues
l case
at of
c cp
Ġloop ed
CURL OPT
e pp
x offset
ĠC LO
Un defined
Ġĉĉĉĉĉĉĉĉĉĉĉĉĉĉ ĉĉĉĉĉĉĉĉĉĉĉĉĉĉĉĉ
C rypto
PER SIST
spar p
B am
p Val
p Cursor
po bj
TE LEM
ĠPetsc Malloc
ĠEx ternal
nod ename
S int
S ome
l ue
re ur
cur ses
Ġimp lies
serial ized
ing u
lab s
fl onum
Iter ation
Ġ(&_ (&_(&_
M apped
ĠR AM
Ġunder lying
B ag
Ġre triev
is lower
sent inel
Ġstr cspn
xA uLL
B PF
G WIN
@@ "));
Ġf len
Set Result
DI F
STER EO
k et
auth z
Ġget addrinfo
146 92
Drv Msg
T urn
ĠS IDE
di str
Ġ(! (_
close dir
2 0000000
R LE
ĠX InternAtom
IB us
bd addr
C MS
F LD
re open
trie val
Ġred undant
er vice
en ar
sp read
lib raw
job id
mut ate
Save Error
EXEC UTE
S ending
e scal
x g
in fl
)) -
ĠG rab
ab cd
Tree View
Alloc ated
\" ],
ĠIn stead
F old
r work
siz able
ĠUN LINK
Ġbuff erevent
Ġ2 18
W U
Ġm ut
tra it
A st
Ġ( /*
Ġc rop
Ġarg sa
Ġ-- *
inf inity
7 18
C ENT
F uLL
un comp
Ġd name
ĠD IP
Ġk i
i of
n procs
ĠN Array
Callback s
Cl r
4 79
H CI
S KE
Ġp gno
Ġn axis
Ġo ck
fa x
Ġis a
T OC
Ġx nee
ĠB B
Ġ"/ "
Ġcmd lines
Ġtypecast ed
G ravity
call ing
Ġam ong
p et
to f
Ġk vp
wd ay
8 59
x z
10 58
ne mo
Ġif r
ol ine
os mo
Z ER
Ġwork around
Ġps DBF
Ġver bosity
ĠK arman
Ġdup licates
Ġ" <<
ase d
ĠP LA
RESOL UTION
C SEQ
Ġ* >::
st ap
Ġ2 76
Ġsyn chron
ĠConfig ure
ANJ UTA
DR IVE
n pc
t ig
ĠY es
c fd
Ġĉ ĠĠĠĠĠĠĠĠĠĠĠĠĠĠĠĠĠĠĠĠĠĠĠ
ub ble
88 3
CHK ERR
H OL
Ġ variance
Ġl sp
inter section
pa u
Ġ167772 16
S aved
sy mm
mo o
@@] ->@@
conflict s
]== '\
Ġm xml
Ġk Audio
Ġlong jmp
ytest case
10 68
vi m
6 54
opt im
ell ps
: [%
Ġn Byte
Ġtoken a
h vm
Ġb ulk
red uction
sub table
part icles
6 58
fc info
8 32
Tran sition
4 36
R SP
v ulkan
Ġ) \
ĠT XT
Ġ ann
UN REACH
re init
ps w
PH YS
l printf
Ġb search
Ġr at
type id
tran sp
ĠWin Def
con sensus
ĠH DR
Str len
UL ATE
Ġds db
], ((
VIEW ER
ĠP erm
100 8
5 33
7 14
r limit
LOG IN
ĠCON VERT
ARE ST
v name
ge ar
ĠP EM
Write Byte
Ġy ytestcase
Pr ime
hw addr
Ġlevel a
Ent ities
ĠSUB LANG
FCT S
6 35
Ġyy msg
FOR K
right ness
POINT S
elim inate
Ġe poll
Ġarg list
Log Error
LONG DOUBLE
n fft
o ffer
LL D
th ough
gtk doc
by e
Allow ed
ĠvirNetMessage SaveError
is set
ht bl
Stat istics
Ġfu zz
END ING
blk size
R NG
==== ==
inv ite
n se
p opt
p gc
Ġc as
Ġm illiseconds
Ġh len
In herit
GET TEXT
sn p
ĠARM CI
ĠCu Assert
Ġp size
mon ster
Ġ"( ",
Auth entication
pW Info
Ġ262 144
7 32
P DF
Ġs int
Ġl case
Ġ4 40
6 34
9 13
n ch
Format Context
ĠSw ig
h k
ĠP LL
slurm db
ab edit
lock ing
Ġfilter ing
Set Atom
Di e
Ġsaf eness
Ġu cp
ĠS ec
ĠB ind
Ġ5 28
cal lable
ĠAB ORT
"""" """"
" --
6 239
7 24
x tensa
et ing
ĠX g
Ġdw Flags
P TS
ho mo
bt or
Q t
n proc
Ġins ns
cro ot
tset Attr
w len
ĠA UT
P AL
Ġat tempts
layout s
w si
x lib
Ġf lickcurl
Ġtre ated
t here
MM X
psx Regs
E PC
ĠCRL F
ro uble
ĠCo unter
Ġindic ation
p ure
u len
Ġa im
Ġs bp
sp lash
25 03
ĠR x
Or th
Out line
5 000
6 70
n con
IN CR
ĠE thernet
yy state
enc losure
Finish ed
ĠB L
debug fs
ĠvirObject Unref
d ollar
Ġ" ***
ch ld
am qp
Un load
sor c
9 10
E OK
Gdk Window
LET ION
Is NArray
0012 4
Single Object
i word
str ftime
Ġg one
60 49
Sample Format
p Parent
ĠD up
][ %
Ġadd end
ĠCon st
ĠA A
inter leave
44 44
RowMajor Strg
Ġr st
Ġde sign
Ġj string
per iph
Ġt g
CP P
ident ify
8 78
fs ntfs
sub exp
dd dd
Tool s
G IO
tr c
Ġreport ing
Ġreco gnized
Ġaggreg ate
ĠSeg ment
g recs
z hp
Ġ1 41
ĠE nv
ĠR ANGE
Close Handle
HP DF
un marshal
Sy ms
Head ers
mp ls
Ġd lt
ĠAV Frame
qh bci
9 26
eq p
Dig it
ALGOR ITHM
9 25
gl Gen
CONTR OLL
ĠA M
get str
Ġe reg
DB I
cam l
LU A
K W
new node
Ġsi gemptyset
Ġ**) (&
Ġexp lo
ĠEx pand
SOL ID
la ge
ĠW s
a qhbci
Ġg list
D bg
Ġpar ents
Ġgo ogle
178 49
ĠA ction
Ġfile p
******** **
VI R
Da emon
] ";
p cl
new state
Ġ20 47
Un link
Ġopt val
Ġobj c
Ġdraw n
idi agonal
ĠFin ally
ve lo
12 97
Ġde structor
Ġ16 2
St and
86 5
Ġ18 7
ĠRG BA
ĠHEAD ER
G PP
R c
g k
int ron
ĠD rop
Ġz log
Ġ(% .
rag ha
ĠCALL BACK
Ġp Man
ĠE SC
md s
Ġsource Len
4 294
o auth
t stamp
Ġs ho
gl p
Simple String
ĠE term
Ġmacro s
aa z
ĠJ DIMENSION
CALL ED
an nounce
Ġlocal b
ĠX ml
ĠFor tran
n axes
ĉ ĠĠĠĠĠĠ
Ġ rom
Ġ" //
spin lock
smb cli
GG adget
O FS
Ġp res
(" $
DAT ETIME
RI ER
Ġsubstit ution
Ġ2 53
cr s
pW al
tr aps
ĠL ST
66 2
Ġglobal b
e buf
ir s
Cfg ParseContext
6 36
SE MB
info c
host group
push value
F AR
ĠD y
Ġun w
Open GLE
ĠpF Var
ĠMay be
Ġc ff
ĠBa sic
L TYPE
TR IM
Ġq mul
cpu info
P UR
u art
HELL O
W GL
Int Equals
be am
ĠTI LE
Spa cing
Ġ/* **
Ġin cre
Ġy c
compress or
Hawk Msg
Ġ18 2
n st
z tr
yy msg
de leg
ca cc
xmlGenericError Context
Ġbe haviour
Ġper mitted
db info
Ġbit rate
y off
ĠG da
ĠTh us
SECOND ARY
N W
h File
Ġg h
Ġso on
glew Str
glew VertexAttrib
Over lap
Ġcomple ment
Ġrecv buf
b irth
OC SP
nb sp
Ġmult icast
Conf lict
Ġv ict
UM MY
edit b
W ATCH
s dim
ĠF ULL
Ġtri e
Counter s
ĠMSV CRT
b ol
u pr
32 767
Ġmin ute
ĠFo Property
v pp
cy toolz
B c
D ial
Ġn as
ĠR TP
neigh bour
Assign ment
s co
sp inner
Ġthe e
ptr long
Ġbt n
Gee Iterator
e free
Ġ(_ ("%
Dir Entry
K ill
s lap
um s
Ġbig num
Ġ2 68
AD R
ĠOb tain
G lob
Q I
n ad
time spec
AN TI
mo vl
Ġqu ite
split BBox
e msg
Ġe gl
ug ate
ren try
Ġw Param
ĠRe ference
ciph ertext
Ġp aper
op lock
To uch
Act iv
: ]
E of
Ġ2 27
In correct
ĠI DL
E CHO
Ġset env
Ġspec s
Magick False
n Data
Ġm zd
Ġj oy
client data
ĠBE TA
ĠAsk Rename
Ġf error
\" "
88 2
ĠER REXIT
ĠAcpi Ut
Ġi j
Ġ524 288
x str
cr is
rex it
t no
st bi
get ter
Ġsys conf
gpr s
Effect s
G rp
X SLT
is Error
lf ds
ĠU UID
dev in
H ING
Ġj col
Ġob stack
nav igation
n space
Ġ4 48
gl ProgramUniform
STOP PED
ĠCAML prim
6239 57
, ,
S ib
ĠB GP
\" >%
ĠGst Video
Opt ind
ĠSOCK ET
XXXX XX
wq e
On ce
Ġms gno
out fp
ir ing
ĠD WARF
ĠL ower
@@= (@@
Ġre ceiving
ĠLA ST
COLOR S
LET TER
w rd
Ġp ragma
Ġm ib
ĠG AVL
ParserCtxt Ptr
a ult
Ġre lay
bl er
> /
Ġnot ation
r vec
ed ing
Ġ3 11
0010 12
M isc
Ġ lag
ĠLIB SSH
p node
ĠG lobus
Ġenum erate
Ġbaz ar
HAND LED
Ġy pos
EC al
ĠBO OLEAN
ame s
ĠG Quark
Str Buf
Text Field
Ġ" ...
Ġa om
ER E
dex p
cur buf
ĠZ STR
Ġlimit ed
Ġlin enum
isspace ace
Ġbaz az
Ġe mu
0012 3
Ġmark s
mr ip
int d
ĠG Draw
Ġst ab
\" )
B lt
s mob
ss m
ASS UME
Tick s
bet ween
b idi
Ġz a
ĠR UN
ry ption
Ġcli pping
Ġm irror
Ġ20 6
Ġio stride
c value
n iter
od f
C FA
T CHAR
Ġinter vals
Ġgr l
Reg isters
Color Space
gx g
FFFFFFF LL
G iven
S prite
ĠT Y
d am
Ġ! (*
MOD AL
ĠPL US
ĠAQ FINTS
9 55
IN UX
Ġp iv
Ġ*/ ++)
root fs
ACT IV
8 37
stat p
out let
ĠV IPS
@@ "))
in otify
Ġ4 000
Draw ing
lld p
Ġl printf
Ġse mi
Ġbase dir
No Memory
r fd
ĠLI BUSB
Ab out
r size
Ġ ITEM
ĠV FS
G bl
ch op
mem size
ph en
@@)) {
ĠStr ip
FFT W
do es
OPEN GL
Ġsort ing
Ġat tempting
Vector s
Ġh ang
Ġma ss
ipp ets
6 26
sp lot
Ġnumber Of
ssh air
b no
d av
l tr
ĠS Z
20 80
not hing
'> '
C rtc
mb a
obj set
]) <<
pix d
PFNGL VERTEX
Ġ'# '
T ST
Ġe cs
Ġmax size
m data
sys dep
ĠĠĠĠĠĠĠĠĠĠĠĠĉĠĠĠĠĠĠĠĠĠĠĠĠ ĉĉĉĉ
n es
Ġ Ð
node list
ĠSTE P
D na
n vals
Ġs cp
Ex pect
only ontext
_ -
analy ze
C SOUND
Ġcon sist
RE JECT
od template
hash ed
V ips
b ison
bit len
Coord inate
Ġfun cs
db ase
ID B
cl ut
AUTH OR
S AME
Ġ16 6
screen shot
c fa
k nob
Ġre asons
NE AREST
cap a
structure d
Dis ks
ĠAB TS
ĠCONN ECT
ps mb
ext proc
ĠS uite
w ifi
Ġ question
Ġo i
li ps
ase ts
xdr proc
ĠIter ator
gran ule
Ġprefetch nta
Ġret v
some thing
Note book
Ġtear down
Ġĉ ĠĠĠĠĠĠĠĠĠĠĠĠĠĠĠĠĠĠĠ
ct emp
invert ed
M W
ex cl
MS A
ĠCont ent
Z L
ĠT idy
Ġ********************************* ********************************
Ġw move
.. %
D r
e flags
r uler
ĠB F
\" >
95 1
Button s
Ġrout ing
Ġnote book
l j
Ġk siz
6 78
Comp ose
P ane
Ġv st
Ġgp io
Vert ical
MACRO S
Ġ/* ================================
key ring
Ġscan line
O paque
un wrap
Ġ'% @@
Ġĉĉĉĉĉĉĉĉĉ Ġ
c sn
ca ch
F ac
ĠGdk Rectangle
e al
Ġp cl
Ġu mask
Ġ5 76
ac le
dup lex
20 10
Ġ(" .
ich ier
Process Error
v sl
Ġst oring
out e
im lib
Ġ16 3
Ġper sistent
ro ck
bb ed
ĠCurrent ly
ĠNUM BER
Ġ ary
or p
Ġg imple
Man ForEach
Ġcontin uation
(_ ("%
watch dog
Register ID
ĠSC PE
Ġ*** /
Ġmount point
fast a
ĠIn d
mult isample
8 98
X length
ht ons
dup s
huff man
Pick leError
M id
R and
Ġac curacy
ANCH OR
ĠS MALL
EX PO
COL UMNS
Ġ ENTRY
ord inal
ĠIter ate
R LIMIT
t io
Copy right
9 19
Ġp Buffer
(" ../../
F H
RE NAME
Ġ: %
Ġvalid ity
ĠOPER ATOR
ar win
val u
conf erence
ĠSE G
CY GWIN
display ed
gss api
Ġcontext a
S par
wh it
real ized
FUN CPTR
fill er
Ġ'? ';
Ġsq Int
Xt Va
Wide Char
12 00
QUOT A
ol ded
ge mm
sh mid
Ġcurve a
n B
Ġbit stream
)) \
new len
iz ations
ar en
of d
Ġde ep
w gl
ĠX PATH
Ġare as
ĠNv Ctrl
7 16
h fs
Ġf y
inc X
);}} }
Method Invocation
neg otiate
strto ul
@@ >(
Ġ2 63
Ġun map
ĠData base
sto res
Ġw len
float s
G PS
nt s
low est
e at
x fd
ur y
LO UR
ALL EL
ĠInst all
ey e
us up
em ission
ĠVAL ADOC
Gen ome
Dec imal
BIG ENDIAN
ch assis
Ġof ten
local time
able s
gen re
AV CodecContext
Ġeff icient
ĠLin phone
Ġbelong s
ĠAFF INE
Ġsh dr
DE ON
sh mem
no ck
nd n
stream ing
RELA X
v info
gn s
De leted
lua state
At t
Ġpur poses
n memb
p Key
)) ();
)) ?
Ġ2 38
comp l
Ġs rand
Ġfor get
Ġpr n
ĠID Write
L ISH
@@ ")
get info
UL DBLOCK
wait pid
Ġ'\\ ':
Ġ__ ____
mp ro
ON O
ĠI ce
Al go
Ġ8 000
ĠRe source
n nodes
Ġ ath
Ġi level
Ġc si
ĠB ody
Val NodePtr
yy accept
by pass
post gres
GtkTree Path
tur tle
20 28
ĠPR Bool
Ġd size
wn am
rapt or
ĠRAS QAL
8 99
Ġt iff
Tri angle
ĠH z
ĠW orld
link age
Ġpad ic
7 38
d reg
Ġs pc
ol igo
9 39
arg i
ST K
Pro blem
export ed
S oftware
Y our
n block
min al
loop back
adv anced
glewStr Same
Ġ1 71
ĠU sage
Ġnew node
GT S
88 1
f nc
f msub
ER PC
web kit
8 34
si dx
GR IND
ET HER
Error Type
Ġq boolean
ĠQ ueue
Ġ(** )(
aggreg ation
Ġsh orter
0012 5
Ġsepar ately
Ġx n
cl ust
Ġmem view
t ent
temp erature
Ġapp lies
ingu ish
la c
IN DENT
Ġpk ts
Ġm seq
Ġinfo Ptr
car rier
ĠDI CT
ĠEd ge
6 29
D FMT
m cp
ri e
ĠMS R
4 35
ĠP ASSED
di stribution
obj v
IO ERR
CLI CK
bnd s
m antissa
gen cy
ĠMO V
LOCAL S
ĠSIG TERM
Ġocc ured
c in
FF I
CHECK SUM
SO F
Tool bar
ct ld
ĠK B
gu ile
6 22
7 60
Ġn Vars
Ġm sp
Ġexpr Node
EA X
7 46
T s
20 38
cmp h
Ġq i
Down load
6 57
8 39
< '
lib xml
da o
fil des
bon us
v fo
istr ar
nt va
de b
Av ail
ĠD ep
cr lf
sub class
Ġ" }
no logy
ĠGst Pad
manage ment
In sufficient
Ġ## #
sn iff
COMPI LING
FI C
ĠPro g
adj ncy
ĠSo cket
p strdup
Ġx realloc
0012 1
Wh en
9 11
(! (@@
ĠIN V
ĠObj Mgr
B urn
Co un
Ġreci pe
9 29
f string
ĠC rypt
Ġp Screen
Vala Class
Load ing
xmlStr Equal
]) :
out b
Node Type
@@= -
dy nam
val ence
par agraph
100 5
CUR LE
N AM
st g
Ġ4278 190080
K lass
Ġb j
)) &
dl t
Ġcmd list
CUR R
deli very
x key
se cp
Check sum
709 12
lia Subkey
Con cat
G WY
ndro me
mp n
ĠD ialog
Start up
Exception Matches
* __
SE CT
E SP
MET RIC
Ar row
Ġgl Tex
ĠPO OL
S ched
Ġg mp
ĠP TS
Ġex if
Ġdir s
INC REMENT
gEfi Caller
Ġrepresent ed
Ġ1 73
Has No
Agg reg
0174532925 199433
ĠS AR
ĠAN SI
as fd
re versed
pix a
Ð °
sign um
ble ps
UN ION
pro cal
Ġdistance s
ĠM erge
sh ndx
bin binary
C Str
M agic
T ol
00 24
ĠH ack
be ep
iz able
null s
rectangle s
he m
ca ches
CLS ID
arg b
ĠG NC
Sw ig
Aff inity
x pd
Ġv table
Ad ded
X IO
48 00
ĠL ONGLONG
VI SION
we ather
CLA USE
YP int
Ġ'. '))
ACCE L
Ġcomp uting
branch es
ĠT DB
bitmap s
fre et
ck d
RE DUCE
Z FLG
\ ");
i ence
Det ail
cha ins
v ex
Ġwx String
ĠF X
variant s
ig est
UP D
BR ANCH
Ġp val
Ġp Name
00 25
ĠC TRL
em ux
du ces
Abs olute
kb dev
Ġ'_ '
Ġspe ex
Ġm len
ĠF ORE
ĠCH ANGE
ellip se
Ġc sp
ĠUN W
W al
g lo
REL ATIVE
c var
k an
co arse
Obj s
Ġde letion
Ġstr tab
ĠM ULT
Pa use
ĠI SA
gl Clear
Ġpartition s
ĠC AST
Ġtool bar
re vert
Ġz io
fi ed
acc umulator
65 1
) ]->
G ir
__ ("
gs b
ht on
Ġpr t
Ġk sksp
Ġsh ip
Ġuncomp ra
Ġequ ation
w pc
se linux
-- */
ĠGdkEvent Button
9 44
re build
st rea
ol dest
ap ert
perm ute
ANJ I
L asso
Ġ" "))
ĠP HY
Ġjo ined
VP N
ĠDesc riptor
x bf
Ġ( ##
Ġ(! (*
ĠX B
Lo aded
I RC
S cratch
if u
Ġc getg
Ġret b
Ġover all
Min imum
u func
con sistency
Ġsign um
g op
s ce
Ġret Val
org an
include s
Ġspect rum
Ġf elem
, \"
G get
w ipe
Ġattach ment
Ġqu eries
pop over
ĠTAIL Q
5 79
Get Info
PR INTER
Ġ15 7
Ġass umption
Termin ate
ĠE nc
Char set
DV D
Cre ated
CLU SIVE
jni Env
BOR ROW
Ġ era
eg o
GtkText Iter
P URPLE
ĠE MPTY
LD A
ĠOSP F
ĠCA CHE
sorc ery
R oll
p ree
ne cessary
6 90
me ans
Ġp X
Ġa udit
p ta
ĠPy Eval
P DB
EC DSA
Ġoptim ized
Ġ( )))
Bal ance
en deprecated
ON IC
// /
]) +
group by
Ġ-- *(
HawkMsg Listener
pw uid
Doc list
ĠSUPER LU
con strain
up g
rav it
aas world
Ġas sembly
Ġsaf ely
l vm
temp ted
Ġfe of
ĠAN Y
XF ER
Ġre mmina
tol ua
Ġin dependent
t win
ĠF ONT
C ss
Ġb ss
Ġ20 5
iss ue
insn buf
Manage Child
, _("
8 96
Ġi stride
sc d
++ ]);
bo s
ZE BRA
No Arg
ĠAU DIO
pl hs
ĠB PF
ĠG UESTFS
sk a
compo ser
F it
h uman
@@ @@;
Ġ1 98
Ġver b
bmi Header
Ġi max
000 5
Ġlog msg
( +
b last
d ag
Ġn dm
Ġ' ))
tmp name
Ġsl ider
ATI LE
HK ERRQ
I MA
c laim
j st
src Size
ten sor
TH UMB
Ġ': '))
MULTI PLE
recur sion
Ġlif etime
M ot
Ġĉĉ ĠĠĊ
Ġo a
sh ar
ĠEx ample
Ġpad ded
X offset
n fields
p unpck
Ġarch itecture
Ġeasi er
Ġdist inct
Render Target
U long
f ine
in ex
Ġ* >>>::
we ed
OPEN MP
GetField ID
Image Info
----- */
335 77
ĠCAML return
ĠE core
fe a
Ġ": ");
ĠRT MP
Ġ'+ ':
ĠSHL BYTE
Ġin consistent
ode s
di es
AV C
ĠGL short
Ġ4294967 293
Ġturn ed
= >
T erms
std log
Ġqu ark
Format s
Action s
ur istic
no bs
per mit
ne o
Ġadjust ments
gpg info
Cod er
ul ing
pro viders
ĠX OR
ĠX rm
Ġreg exp
L ua
Ġi vec
author ized
Unsigned Long
I MAT
c cs
Ġc elt
Ġsk in
Sil k
CO OK
Close Key
re j
ss g
AL PROTO
13 1072
ĠL ab
row ind
TR O
Per Sample
ĠAc count
Ġmagn itude
GSource Func
N DIM
S pice
var a
ĠM ONGOC
API ENTRY
ĠSH ORT
Ġclause s
al ic
ĠA u
art s
Ġsi lly
RT L
ĠSt orage
ĠFor ward
ĠP OS
nd p
Ġcpu mask
Encrypt ed
__ ")
fd f
dc erpc
Connection s
calib ration
4 31
p pl
TRA VERSE
Ġaccum ulate
ff tw
Ġ15 1
BL IS
ĠME SA
gEfiCaller BaseName
Y nil
Se e
Ġnormal ization
CAT ED
sub frame
Output Stream
SOL UTE
Ġp ret
Ġen if
fail s
ML INK
stre qual
ap ing
ĠL F
Ġkey sym
ĠSY NC
xA u
Ġvirt queue
recip ient
__ ((
Ġ" :",
Ġ2 84
URN AL
m size
st cb
Ġs xi
ĠY AML
Ġdis connected
ĠMS GL
a ment
s op
Ġf ence
10 50
@@) ];
))) _
field Type
Ac cessible
0014 4
Ġm alformed
! )
G dome
K O
N FLG
p match
w est
ĠC AN
GL sizei
Ty ped
m val
PA USE
cost s
Util Optind
6 15
la w
Ġvi sibility
gene ous
R cv
DEC R
Ġĉĉĉĉĉĉĉĉĉĉĉĉĉĉ ĉĉĉĉĉĉĉĉ
GEOM ETRY
M BC
P iece
n fds
20 30
Bus y
Ġd tp
SS tring
Ġcmdline sa
b are
ĠM edia
mi i
Ġover head
Ġtransl ated
c ff
m illi
s char
if lags
IN NER
red uced
Ġip iv
crypt odev
H CP
ital ic
clus api
d node
f nt
o ve
Ġdo ck
@@] -
210 48
ĠpW Info
Ġ++ _
Ġread only
Ġ20 1
Ext ents
7 70
Ġn id
cv ode
ĠP OPT
so ur
DEC IMAL
Coord inates
Ġffp msg
l sc
Ġin vol
6 92
V ENT
d si
TR AL
Raster Pos
Feat Ptr
j am
Ġc name
Ġa io
Ġ- %
GEN IE
Ġk sksksp
ci e
free N
init iator
IDI OC
A g
PA INT
cu sp
Ġinterest ed
z b
ĠC ore
ĠI RExpr
yy ssp
Ġspec ifier
ĠPa Util
count ed
ĠGE OS
RECE IVE
C ross
s RGB
yy gotominor
p Str
bo u
fs ap
sys Context
B ridge
i Column
Ġ< @@
ĠG nm
XmN top
sc s
ĠC AMEL
temp o
Size Of
Code s
Exp lo
SPE CTR
rid b
a cobian
ar ms
Ġc cs
Ġb elle
Ġd sa
ĠCO MPI
Path Name
Rep orter
cla zz
ĠDel ay
Ġsit uation
t cache
ĠPy Exc
tri ed
ĠON IG
AT HER
log out
INT VAL
cro ssing
font size
Pri or
ĠR AND
Ġmin i
ĠEd je
Ġstar ta
ĠRet rieve
p var
new s
Ġkey code
cal lee
spool ss
ĠM ethod
ep u
xml Doc
Ġxml TextWriter
5 21
ĠCH OLMOD
Ġabort ing
Ġ*/ ],
Ġun initialized
Seq Id
j obj
an oi
ĠG AP
96 12
Ġnew v
Ġ] *@@
Ġbucket s
Ġmanage ment
ravit ational
en ctype
Ġd ds
non opt
ĠVariable s
Value Type
Ġcount ing
[\" ");
cu da
H IDE
N c
g cr
ex cluded
cur wp
CODE PAGE
Ġp th
Ġle ts
86 1
BR IDGE
m unmap
Ġ zebra
or um
pol lfd
ĠOper and
Ġremain s
Ġb unch
th y
file stream
Test Details
int l
0010 24
Ġmod ification
BRO AD
an ded
fa pi
%% %
7 25
C py
y in
ĠD ot
Ġan juta
Ġ40 8
Ġx dlg
po ff
ort ed
ĠO VER
NOT IFICATION
ĠVALUE S
sx sx
: ")
B Z
G CM
Ġch n
qu art
ĠE BAD
Ġpre dict
quant um
D URATION
Get Property
pi re
Call NoArg
Heap Tuple
JO Y
pas sive
Ġpred icate
Ġc cl
ĠG lade
File Lock
AB B
ĠCon f
DF L
re me
dr suapi
6 72
I CCi
Ġm ot
ic ult
Ġu entry
ĠF ORM
6 60
B i
I FLA
X Free
p Arg
w esn
Ġm mc
ĠIn formation
Magick Wand
ĠL i
Ġlist ed
lp Struct
7 34
on k
Ġbuild ing
Ġreason able
ambi ent
Ġb lo
Ġb aton
Ġdat etime
circ ular
H Z
p Sub
ĠP D
Ġst ores
Multi Byte
" _
ME CHAN
yy pParser
220 44
Ġg fn
Ġn byte
ol sr
op endir
ST A
line ptr
)" %
grid ID
Ġapp licable
g string
x event
string buf
ĠCould n
ERROR S
reg exec
ef x
Pre view
ĠReturn ed
Ġstrea mptr
X K
n Max
ĠN U
Ġu str
ĠG Array
bo ss
ĠD UMP
AD AP
UT ABLE
Ġw rote
Ġgen ome
d enominator
is ns
ĠT CS
Ġmask s
p wnam
ĠI vy
ve adm
UN AR
AP L
lim f
Ġdelay ed
T m
d rr
Ġc bp
Ġin k
ĠI CE
gtk U
Ġtra sh
Bl ank
re veal
st one
Value Len
T close
rd er
n entries
ĠInter face
Pro cs
from space
ĠSET CAR
auto matic
hy p
OPTIM IZED
do ff
stage s
ĠDV D
he al
arg ptr
Ġdriver s
perform ance
9 34
F ire
l win
al es
Ġde termin
Ġhash map
V k
Ġg imp
ma sq
ic ed
ĠH DC
@@++ ];
AA A
Def erred
H AD
pW C
ĠEd it
8 66
w ptr
cli pm
Vdbe Mem
at exit
:\ @@
w rote
Ġf ff
ĠT ell
pad len
irp lib
D if
N av
R Q
s md
Ġ2 34
97 1
astr o
( \"%
tr s
ĠI GN
id ence
Ġg host
set jmp
Ġl psz
ĠP CM
pc d
AS SEMB
9 001
ĠFI FO
Ġpre p
h ap
ff mpeg
Ġit st
Neg ative
HasNo Text
n chars
w sp
Con ver
Ġ(* (@@
Ġ**) @@
loop er
Ġla zy
YsamuruiSgtkY gtkU
BORROW ED
` %
(" ..
," .
oc al
pm u
spe ech
lib fdatetime
Range s
PAN GO
zfs vfs
integ ration
d ft
Ġs ms
LE G
Ġma pp
rc p
mem block
Ġ16 9
cb Size
Ġline a
inode s
l loc
ĠVAL ID
ĠPL ecxY
X Get
e ip
ĠO VS
Ġindic ating
LEND AR
iface s
WI RE
Hist ogram
snap d
ed id
sd t
nest ing
F printf
Ġ2 22
Ġx xx
]," -
ĠNot ify
ĠClutter Actor
ID S
Comp iler
O DBC
Ġline len
NOT NULL
BR USH
BB BB
Packet s
Ġoverla pping
L DB
var ID
Ġg rib
rea s
PRE C
Det ach
@ <
ad spa
ap pl
ĠB IG
ĠO SM
ĠPetsc Log
ĠS AMPLE
Ġst ay
In vert
Ġget uid
frame work
VOL ATILE
ĠDS DP
ĠMAILI MAP
I OP
p wr
Ġnet link
str ong
Ġr set
state ments
E LS
u ssp
simple x
Ġfo reach
Ġ'] ')
id map
ĠS AVE
Ġh lock
Ġ8 02
rt m
ĠIN FIN
LV L
Lim its
Ġ2 33
Ġ24 3
scrip table
i mplementation
x obj
bu dget
Re start
switch es
pp id
fp m
ACT IVATE
Ġre tries
te e
score board
SV C
SDL K
reli able
s db
Ġelse where
)) +
Ġ! \
Ġ18 5
Geom Coll
OUTOF MEMORY
e ba
Ġ== ==
ro unded
Ġo stride
bo b
sor ption
Ġvict im
TI CK
ba k
swap chain
t mesh
ĠA E
end pt
Ġ(" _
Ġref ine
ĠPetscViewer ASCI
P adding
ie ksp
Token Type
22044 6049
A uLL
y nc
un s
char p
prefix ed
m use
ch ang
(" \"
Ġvisit ed
Ġyy state
Ġcorrespon ds
8 74
msg b
ĠBR ASERO
C DATA
p sprintf
st ale
Ġ(( ~
Ġst encil
ĠSh ort
220446049 2503
inc rease
((& _
Ġread l
Ġjint Long
q a
sn ippet
fragment s
var g
ct imer
ON CE
per c
SI MD
ĠH ave
frame size
ne ver
Ġperiod ic
mock a
G a
f stype
Ġĉ ĠĠĠĠĠĠĠĠĠĠĠĠ
ĠH ID
DA SH
et ition
Ġslight ly
St reams
ĠB IND
Ġmod s
ĠSy n
Ġĉĉ ĠĠĠĠĠĠĠĠĠĠĠ
op p
ĠD RM
Ġnew er
STR FUNC
i P
dx d
re sync
Ġc pos
ch ur
)) ,"\
Ġh tp
FI O
ĠGL void
MEDI ATE
9 56
Ġn im
", &@@
Ġx offset
Ġget dns
EM IT
bg av
xC uLL
Ġn cmpi
ol ated
pc alloc
Ġ2 23
23 388
Ġdesc ribe
Ġoct ets
) ])
P SK
n val
SE V
pre dictor
GL YPH
iss or
h st
v max
ĠTermin ate
de tached
Ġe loop
PRO TE
Ġpla ced
Ġlat itude
9 23
m utt
is dst
ĠPROCE SS
Ġy res
ĠPR IV
extr as
6 27
9 54
ĠC ustom
th i
do cs
Ġ"\ @@
Ġgi raffe
JUST IFY
di am
era ma
un ibi
Ġm iss
ST REQ
ĠL SA
ok ay
sol v
ĠXt Window
bu bble
ĠD id
Ġaux iliary
i col
y z
Ġr ates
get addrinfo
ĠH awk
CO V
Ġ12 00
p Aig
q type
ist ol
CO S
sr q
MON OT
gre ater
le ak
Ġx index
edit ing
MECHAN ISM
4 72
G UP
n threads
Re presentation
quit to
A nn
Ġr size
U CTION
Ġd td
rc x
ĠMult ip
str val
MT U
Ġcoeff s
n mb
ar s
int ent
Ġx acc
eg id
Ġkey map
Ġeval uation
lw geom
Ġp ai
ĠAc cept
SEN SE
m ine
Ġp ul
Ġen ded
pol arization
Parameter Buffer
g ob
rec alc
f debug
ch ord
Me an
PH ONE
5 39
PIX BUF
++ =
seq an
Lock Tracer
d min
in data
xmlStr cmp
S urf
m xt
Ġ" )");
TERMIN AL
Ġg ather
ĠC Y
ĠK MO
ĠUn expected
jk lm
KON OS
ĠFALL THROUGH
Ġp ane
ĠC alc
ĠM IME
ĠD OT
Ġdata space
sb r
Ġ" :%
________ ________
D FLOAT
v tbl
ro cs
Ġw nd
ĠV RF
Mon o
abcdef ghi
g str
ĠC UPS
sh ifts
slab s
Ġrepresent s
Ġd mu
Ġper l
DBusMessage Iter
Ġregard less
] %
^ {
Ġ2 86
Ġstr lcat
user info
s alp
un escape
render ing
! (
Py Bytes
encoding s
SELE CTOR
Ġo pr
Ġcp v
ENO SYS
b wt
d port
v printf
x fa
ĠF inal
Rot ation
Ġimpro ve
D CE
m cs
Ġ{ %
Ġa w
to i
ĠD SA
Ġdo or
@@] *@@
Ġ"* ",
ĠAV AHI
ype Info
ĠM SB
Ġar es
place ment
RE STORE
ns upc
(' %
summary view
r it
get dns
Re fs
Ġfa de
Ġq os
Ġgr pc
Return ed
ĠValue s
G BoxedCopyFunc
y ou
ĠDE TECT
__ ));
an sion
Ġr rd
neg o
Ġtexture s
E FAULT
ĠX P
b q
i C
Ġen velope
ĠH UF
Get Key
rec order
Ġsi lence
ĠC ar
LI CT
Ġmai limf
gr ind
MS ABI
I AN
Ġowner ship
b roff
Ġconvert er
Ġpipe s
Ġ"," )
] >=
ĠR M
i value
Ġun k
Ġadd s
j v
Ġc ss
Ġ0 2
ig ade
ch ptr
sub r
ĠIB V
IW USR
> (__
Ġp ps
! "
8 54
key frame
sh oot
Index es
Ġcontext s
Ro om
5 37
I RT
Ġin ptr
sla ves
ĠB URN
ĠB oth
ĠR VAL
ec ma
IR USR
ĠEN SURE
Decl Handler
escal ation
c size
GS imple
Ġtol ua
Multip ly
MONOT ONIC
U nder
Ġv dp
Ġp Dest
co lo
11 10
AD MIN
Tr ig
interpol ation
East ing
Ġx er
]; \
Ser ies
CRE D
Ġke pt
W X
Ġĉ ĠĠĠĠĠĠĠĠĠĠĠĠĠĠĠĠĠĠĠĠĠĠĠĠĠĠĠĠĠĠĠĠ
7 19
d mp
k ids
@@] ];
Ġgl Color
Ġc dw
un checked
ĠX CB
Sub sc
H Q
pr p
fmt s
ĠPo ol
ĠSV GA
REGISTR Y
P layers
Ġsub class
]= '
xF u
radio button
instruction s
In Place
node Type
5 75
G Data
ĠN ID
OP A
Ġsend s
x ev
out name
ps ub
("% @@
Ġdecl are
Weight s
Ġ== >
ĠS GE
dd d
sb i
ĠMO DULE
Fill Rectangle
Ġc entral
tra ction
Ġg pp
Ġh n
ec dsa
ĠGtk CellRenderer
Ġsv ga
ĠG eo
ĠB LK
Get CharValue
Ch oose
ĠS pice
Ġ18 9
ĠUn changed
S AN
in del
ĠD river
Ġfs al
smb cmd
ĠSY M
colour s
Nor thing
Ġo mega
ĠL imit
connect ivity
210 482
sub keys
Ġad r
ool z
ĠMem ber
lan gs
r addr
ã Ĥ
lo ud
p li
event Type
ĠO DB
CY CLE
F lip
U x
Ġ" .");
so s
t nl
Ġn digits
min o
Ġne o
bs sid
95 10
ELL OW
Ġincrement ed
Edit able
5 96
Ġi eksp
get pc
CH RON
List en
in ic
in cl
Ġstat mp
ĠB COR
() +
Ġtr f
Window Attributes
nt il
List Obj
memoryview slice
D ll
ĠJ o
BACK UP
B ond
D AD
Ġx ev
Ex if
W ALL
IN ACTIVE
Ġget hostbyname
dir fd
ĠAl ready
SUB TYPE
ĠREG NO
Ġ33 5544
Ġ lasso
Ġp cs
ld p
File Chooser
Ġbuffer a
matrix rows
matrix cols
mul ator
ĠCT DB
- \
C DR
G oto
z illa
Ġv ers
un bind
ĠE very
Ġ'- '))
Ġab stract
' ))))
Ġrad ians
wiz ard
H MM
ma s
Ġbu ddy
ds q
IP MP
FE AT
OSP F
Real Type
Ġn co
call y
cap i
Min us
q gl
Ġu disks
Int Entry
MY SQL
l ref
si le
Ġu bi
name info
trac er
x chg
in de
Ġs crolled
co bj
err al
pack ing
SIG PIPE
0 60
8 47
ur p
Ġe mp
ai lout
ĠAsnRead Id
so m
Ġmode ls
Ġmenu item
vd enc
L aunch
Ġg upnp
)) )));
ĠE OS
ĠH EV
CO DA
Ġ(~ (
in ite
ch root
ot u
Mem cpy
Scal ing
R K
to gl
Trace Info
Ġ'` ')
9 46
un orm
Ġn of
ĠF U
Ġsub mit
Ġyy err
Ġrect s
pgs ql
PRODU CT
S low
ref er
GROUP S
9 75
B ear
M s
S FLOAT
write v
FS YS
4 000000
7 45
int erest
Ġp ta
buffer size
BR ACKET
D SN
ĠC re
pa uline
') {
tv p
lin ewidth
Origin al
8 23
S up
e ject
es m
Ġac curate
SIG USR
Ġslot buf
T CS
d cd
Ġt abs
PA RE
rot li
ĠSY STEM
Get Token
ĠX Get
us hes
GET DATA
Gtk CellRenderer
ch er
OR B
pl ink
INT RA
ĠW AVE
Ġmu sic
ĠHt ml
G NC
Ġpen alty
Ġinf inity
Ġsepar ated
ĠH O
LANG UAGE
pie ces
S QU
st y
set field
Ġkey val
FS AL
bf win
leave s
ĉĉĉ Ċ
TLS v
inherit ed
5 34
K nown
u cp
Ġan v
place holder
sp x
FFFF FF
80 21
Int Push
B IF
Ġx itk
ĠI X
@@* );
uv w
strip ped
Ġ9 999
Ġc j
Number s
ĠEL SE
Ġpsm x
Ġle s
MULTI CAST
ph andle
Ġpol kit
Ġpre pend
Xm HTML
sth rough
W CS
Ġex on
Ġty ped
C SA
z r
ĠA i
In i
ab y
I ce
ot s
v xlan
tra in
c dp
ĠP tr
List Item
ĠZ IP
asy m
d ss
Ġ2 29
ĠD IST
Ġcreate s
Ġ Variant
el come
## #
Ġno Err
f dir
set g
Ġ'. ':
ĠP os
oct s
ps d
over head
u val
ĠN G
log ged
h ud
n Bytes
ct g
ĠU CHAR
Comb ine
Ġ*/ ,"
Ġ(" #
[...]
