{"<s>":0,"<pad>":1,"</s>":2,"<unk>":3,"<mask>":4,"!":5,"\"":6,"#":7,"$":8,"%":9,"&":10,"'":11,"(":12,")":13,"*":14,"+":15,",":16,"-":17,".":18,"/":19,"0":20,"1":21,"2":22,"3":23,"4":24,"5":25,"6":26,"7":27,"8":28,"9":29,":":30,";":31,"<":32,"=":33,">":34,"?":35,"@":36,"A":37,"B":38,"C":39,"D":40,"E":41,"F":42,"G":43,"H":44,"I":45,"J":46,"K":47,"L":48,"M":49,"N":50,"O":51,"P":52,"Q":53,"R":54,"S":55,"T":56,"U":57,"V":58,"W":59,"X":60,"Y":61,"Z":62,"[":63,"\\":64,"]":65,"^":66,"_":67,"`":68,"a":69,"b":70,"c":71,"d":72,"e":73,"f":74,"g":75,"h":76,"i":77,"j":78,"k":79,"l":80,"m":81,"n":82,"o":83,"p":84,"q":85,"r":86,"s":87,"t":88,"u":89,"v":90,"w":91,"x":92,"y":93,"z":94,"{":95,"|":96,"}":97,"~":98,"¡":99,"¢":100,"£":101,"¤":102,"¥":103,"¦":104,"§":105,"¨":106,"©":107,"ª":108,"«":109,"¬":110,"®":111,"¯":112,"°":113,"±":114,"²":115,"³":116,"´":117,"µ":118,"¶":119,"·":120,"¸":121,"¹":122,"º":123,"»":124,"¼":125,"½":126,"¾":127,"¿":128,"À":129,"Á":130,"Â":131,"Ã":132,"Ä":133,"Å":134,"Æ":135,"Ç":136,"È":137,"É":138,"Ê":139,"Ë":140,"Ì":141,"Í":142,"Î":143,"Ï":144,"Ð":145,"Ñ":146,"Ò":147,"Ó":148,"Ô":149,"Õ":150,"Ö":151,"×":152,"Ø":153,"Ù":154,"Ú":155,"Û":156,"Ü":157,"Ý":158,"Þ":159,"ß":160,"à":161,"á":162,"â":163,"ã":164,"ä":165,"å":166,"æ":167,"ç":168,"è":169,"é":170,"ê":171,"ë":172,"ì":173,"í":174,"î":175,"ï":176,"ð":177,"ñ":178,"ò":179,"ó":180,"ô":181,"õ":182,"ö":183,"÷":184,"ø":185,"ù":186,"ú":187,"û":188,"ü":189,"ý":190,"þ":191,"ÿ":192,"Ā":193,"ā":194,"Ă":195,"ă":196,"Ą":197,"ą":198,"Ć":199,"ć":200,"Ĉ":201,"ĉ":202,"Ċ":203,"ċ":204,"Č":205,"č":206,"Ď":207,"ď":208,"Đ":209,"đ":210,"Ē":211,"ē":212,"Ĕ":213,"ĕ":214,"Ė":215,"ė":216,"Ę":217,"ę":218,"Ě":219,"ě":220,"Ĝ":221,"ĝ":222,"Ğ":223,"ğ":224,"Ġ":225,"ġ":226,"Ģ":227,"ģ":228,"Ĥ":229,"ĥ":230,"Ħ":231,"ħ":232,"Ĩ":233,"ĩ":234,"Ī":235,"ī":236,"Ĭ":237,"ĭ":238,"Į":239,"į":240,"İ":241,"ı":242,"Ĳ":243,"ĳ":244,"Ĵ":245,"ĵ":246,"Ķ":247,"ķ":248,"ĸ":249,"Ĺ":250,"ĺ":251,"Ļ":252,"ļ":253,"Ľ":254,"ľ":255,"Ŀ":256,"ŀ":257,"Ł":258,"ł":259,"Ń":260,"ĠĠ":261,"ĠĠĠĠ":262,"@@":263,"ar":264,"in":265,"ĠĠĠ":266,"Ġ=":267,"ĠĠĠĠĠĠĠĠ":268,"re":269,"Ġ(":270,");":271,"Ġ*":272,"st":273,"var":274,"er":275,"Ġĉ":276,"at":277,"or":278,"on":279,"->":280,"ĠĊ":281,"al":282,"se":283,"le":284,"Ġi":285,"int":286,"Ġ{":287,"Ġc":288,"Ġ0":289,"en":290,"Ġ@@":291,"Ġ}":292,"de":293,"Ġt":294,"__":295,"ĠĠĠĠĠĠĠ":296,"lo":297,"si":298,"ct":299,"ur":300,"Ġif":301,"ĠĠĠĠĠ":302,"Ġre":303,"Ġĉĉ":304,"an":305,"me":306,"Ġ==":307,"Ġv":308,"Ġf":309,"Ġ+":310,"ĠĠĠĠĠĠĠĠĠĠĠĠĠĠĠĠ":311,"Ġp":312,"Ġ/":313,"un":314,"it":315,"id":316,"ed":317,"Ġs":318,"Ġ1":319,"urn":320,"Ġ\"":321,"Ġb":322,"turn":323,"str":324,"ig":325,"Ġ__":326,"el":327,"et":328,"64":329,"mp":330,"Ġ*/":331,"ch":332,"loc":333,"Ġ&":334,"ro":335,"ut":336,"ad":337,"@@,":338,"LL":339,"ex":340,"tr":341,"if":342,"ĠA":343,"Ġg":344,"Ġ|":345,"co":346,"Ġn":347,"))":348,"Ġint":349,"Ġreturn":350,"he":351,"Ġ/*":352,"Ġd":353,"Ġa":354,"Ġo":355,"ĉĉ":356,"PI":357,"\",":358,"ce":359,"Ġ)":360,"pe":361,"li":362,"ma":363,"err":364,"ame":365,"ion":366,"la":367,"ing":368,"MT":369,"Ġ||":370,"ze":371,"GR":372,"igin":373,"PIX":374,"FMT":375,"ĠAV":376,"py":377,"ent":378,"BGR":379,"Ġ;":380,"ue":381,"00":382,"ul":383,"Ġ-":384,"ff":385,"ss":386,"stat":387,"origin":388,"ile":389,"Ġw":390,"size":391,"LE":392,"con":393,"Ġr":394,"(@@":395,"ĠĠĠĠĠĠĠĠĠĠĠ":396,"ot":397,"ase":398,"ck":399,"ĠN":400,"--":401,"Ġ!":402,"ata":403,"bu":404,"set":405,"Ġ<":406,"local":407,"OR":408,"gn":409,"val":410,"Ġ*)":411,"ER":412,"sp":413,"oid":414,"else":415,"ype":416,"len":417,"um":418,"10":419,"ULL":420,"Ġm":421,"sign":422,"pyx":423,"ol":424,"Ġ2":425,"arg":426,"il":427,"Ġthe":428,"Ġch":429,"Ġorigin":430,"IN":431,"Ġ[":432,"ext":433,"ge":434,"ic":435,"pr":436,"ble":437,"th":438,"48":439,"op":440,"Ġin":441,"ult":442,"ode":443,"te":444,"Ġ//":445,"@@;":446,"Ġu":447,"ect":448,"ĠNULL":449,"is":450,"rea":451,"Ġ!=":452,"fa":453,"Ġ*(":454,"Ġelse":455,"signed":456,"),":457,"and":458,"ĠS":459,"get":460,"name":461,"error":462,"ate":463,"@@);":464,"(\"":465,"ra":466,"Ġcon":467,"));":468,"BE":469,"bj":470,"Ġĉĉĉ":471,"((":472,"Var":473,"\");":474,"ree":475,"end":476,"Ġchar":477,"data":478,"Ġ(@@":479,"Ġ#":480,"uct":481,"Ġ%":482,"up":483,"ta":484,"<<":485,"RE":486,"us":487,"all":488,"fo":489,"struct":490,"ew":491,"ĠF":492,"Ġfor":493,"Ġl":494,"Ġe":495,"ST":496,"Ġstat":497,"ĠP":498,"Ġĉĉĉĉ":499,"ve":500,"ĠG":501,"Ġto":502,"unsigned":503,"type":504,"sc":505,"Ġ((":506,"di":507,"BGRA":508,"Ġ_":509,"Ġ);":510,"Ġ&&":511,"ĠĠĠĠĠĠĠĠĠ":512,"32":513,"ĠC":514,"Ġlocal":515,"sult":516,"Ġh":517,"Ġ>":518,"return":519,"12":520,"**":521,"Ġ,":522,"ĠĠĠĠĠĠĠĠĠĠĠĠĠĠĠ":523,"reak":524,"ĠĠĠĠĠĠ":525,"intf":526,"@@)":527,"ine":528,"++":529,"add":530,"Ġvoid":531,"as":532,"ĠT":533,"Ġ*@@":534,"AT":535,"ORD":536,"Ġ'":537,"ert":538,"Ġx":539,"16":540,"do":541,"ack":542,"Ġ:":543,"ke":544,"list":545,"WORD":546,"11":547,"Ġcase":548,"nt":549,"buf":550,"ap":551,"def":552,"ub":553,"FF":554,"char":555,"DE":556,"];":557,"SE":558,"po":559,"/*":560,"bject":561,"file":562,"to":563,"----":564,"Ġof":565,"Ġ?":566,"Ġstatic":567,"ON":568,"tmp":569,"ter":570,"value":571,"Ġsize":572,"ord":573,"par":574,"ite":575,"UN":576,"ms":577,"18":578,"(&":579,"Ġconst":580,"ĠĠĊ":581,"AL":582,"Ġth":583,"vi":584,"ffer":585,"Ġ4":586,"of":587,"Ġst":588,"out":589,"ort":590,"ptr":591,"@@[":592,"AR":593,"Ġma":594,"bo":595,"rb":596,"14":597,"age":598,"pt":599,"rc":600,"printf":601,"Re":602,"sion":603,"ix":604,"pro":605,"Ġde":606,"20":607,"Ġbreak":608,"ver":609,"Ġ8":610,"IT":611,"read":612,"Ġresult":613,"ĠĉĠĠĠ":614,"(__":615,"ĠĠĠĠĠĠĠĠĠĠĠĠĠĠĠĠĠĠĠĠĠĠĠĠĠĠĠĠĠĠĠĠ":616,"text":617,"].":618,"Ġ(!":619,"info":620,"ation":621,"put":622,"Ġis":623,"ong":624,"ime":625,"void":626,"ction":627,"gs":628,"In":629,"Ġstr":630,"13":631,"Ġex":632,"Ġse":633,"ERR":634,"call":635,"unt":636,"key":637,"mem":638,"ĠM":639,"lock":640,"28":641,"art":642,"sh":643,"Ġco":644,"*(":645,"Ġ3":646,"EN":647,"Py":648,"==":649,"Ġunsigned":650,"],":651,"for":652,"Ġ*)(":653,"es":654,"alloc":655,"able":656,"ure":657,"code":658,"ir":659,"rsp":660,"iv":661,"ist":662,"mm":663,"tk":664,"qu":665,"();":666,"rbp":667,"LA":668,"od":669,"15":670,"lf":671,"ser":672,"ht":673,"::":674,"line":675,"ip":676,"dex":677,"ĠD":678,"QWORD":679,"num":680,"free":681,"mat":682,"oto":683,"Ġval":684,"const":685,"no":686,"ath":687,"Ġdo":688,"cur":689,"ref":690,"new":691,"ĠI":692,"TE":693,"fast":694,"nd":695,"im":696,"ctx":697,"rr":698,"buffer":699,"ment":700,"fastcall":701,"ined":702,"ET":703,"<<<<":704,"ĠuVar":705,"Ġj":706,"Ġwh":707,"ret":708,"OP":709,"yte":710,"Ġarg":711,"so":712,"col":713,"Ġsub":714,"uble":715,"24":716,"sa":717,"Ġstruct":718,"vent":719,"Ġy":720,"case":721,"try":722,"Ġun":723,"defined":724,"CT":725,"17":726,"ight":727,"inter":728,"LO":729,"state":730,"Ġ*(_":731,"Ġbu":732,"Ġ**":733,"string":734,"@@.":735,"che":736,"PE":737,"****":738,"pl":739,"ffset":740,"ĠE":741,"SS":742,"++)":743,"Ġ\\":744,"Ġ+=":745,"am":746,"ind":747,"word":748,"node":749,"sy":750,"lags":751,"ray":752,"ĠĠĠĠĠĠĠĠĠĠĠĠ":753,"ĠĉĠ":754,"Ġen":755,"MA":756,"log":757,"Ġpr":758,"Ġbe":759,"lay":760,"rom":761,"map":762,"sk":763,"ID":764,"one":765,"gth":766,"opt":767,"Ġsizeof":768,"40":769,"addr":770,"96":771,"30":772,"ĠPy":773,"fd":774,"res":775,"rite":776,"Object":777,"count":778,"--------":779,"AM":780,"ĠFUN":781,"wid":782,"19":783,"ĠĠĠĠĠĠĠĠĠĠĠĠĠ":784,"fs":785,"cp":786,"25":787,"object":788,"pa":789,"ĠB":790,"Ġgoto":791,"cl":792,"INT":793,"CH":794,"dow":795,"Ġlen":796,"rror":797,"est":798,"CK":799,"ĠĠĠĠĠĠĠĠĠĠĠĠĠĠĠĠĠĠĠ":800,"Ġ5":801,"IG":802,"Ġnot":803,"ĠL":804,"Pyx":805,"ssert":806,"db":807,"per":808,"Ġdata":809,"Ġat":810,"ri":811,"Ġand":812,"cmp":813,"CE":814,"ow":815,"Ġk":816,"]);":817,"ream":818,"ph":819,"ca":820,"time":821,"Val":822,"AN":823,"()":824,"mo":825,"Ġout":826,"std":827,"Ġ16":828,"are":829,"ERROR":830,"Ġfile":831,"index":832,"und":833,"Ġpro":834,"Ġ##":835,"que":836,"ly":837,"port":838,"TY":839,"mple":840,"Con":841,"..":842,"uint":843,"row":844,"act":845,"BU":846,"vice":847,"ber":848,"md":849,"init":850,"ann":851,"path":852,"reg":853,"rent":854,"lib":855,"Ġret":856,"conf":857,"ĠH":858,"ok":859,"mode":860,"@@[@@":861,"38":862,"em":863,"Ġvalue":864,"start":865,"ax":866,"andle":867,"ial":868,"St":869,"ory":870,"self":871,"result":872,"ith":873,"head":874,"Co":875,"Ġwe":876,"indow":877,"ive":878,"ac":879,"lass":880,"status":881,"msg":882,"next":883,"Ġpo":884,"AD":885,"Ġwhile":886,"Ġ6":887,"rame":888,"Get":889,"TR":890,"Ch":891,"Ġget":892,"Ġlong":893,"io":894,"Ġthis":895,"cess":896,"*)":897,"ild":898,"0000":899,"array":900,"ran":901,"its":902,"ĠW":903,"ĠV":904,"ĠR":905,"Ġ>=":906,"tx":907,"Ġerror":908,"mb":909,"Ġ<=":910,"fault":911,"max":912,"loat":913,"SET":914,"TYPE":915,"De":916,"Ġ<<":917,"ssage":918,"Ġ&@@":919,"flags":920,"ĠX":921,"ash":922,"UE":923,"Str":924,"pos":925,"ho":926,"table":927,"mage":928,"priv":929,"Ġset":930,"CO":931,"ab":932,"Ġ(*":933,"Ġĉĉĉĉĉ":934,"Ġmem":935,"ag":936,"DWORD":937,"reate":938,"Ġpar":939,"break":940,"endif":941,"Ġon":942,"PR":943,"fun":944,"ace":945,"pre":946,"eld":947,"ize":948,"urce":949,"Ġso":950,"ft":951,")(":952,"low":953,"Ġ++":954,"ator":955,"ĠU":956,"FI":957,"++;":958,"Ġtmp":959,"\";":960,"VE":961,"src":962,"ield":963,"22":964,"offset":965,"ps":966,"ib":967,"use":968,"Ġ10":969,"ĠĠĠĠĠĠĠĠĠĠĠĠĠĠĠĠĠĠĠĠĠĠĠ":970,"test":971,"back":972,"Ġit":973,"pp":974,"ml":975,"dr":976,"min":977,"Ġan":978,"comp":979,"Ġfree":980,"Ġnew":981,"pan":982,"cro":983,"][":984,"SI":985,"Error":986,"ption":987,"red":988,"event":989,"ld":990,"iter":991,"atch":992,"REF":993,"eg":994,"ork":995,"ink":996,"ME":997,"OT":998,"conn":999,"(*":1000,"GT":1001,"//":1002,"lean":1003,"obj":1004,"yy":1005,"ĠĠĠĠĠĠĠĠĠĠ":1006,"ity":1007,"ec":1008,"Ġz":1009,"base":1010,"pec":1011,"context":1012,"FFFF":1013,"nc":1014,"Ġthat":1015,"Ġfa":1016,"Ġ(\"":1017,"entry":1018,"Ġĉĉĉĉĉĉ":1019,",\"":1020,"byte":1021,"write":1022,"ust":1023,"@@__":1024,")))":1025,"length":1026,"IS":1027,"])":1028,"29":1029,"Ġnum":1030,"23":1031,"lab":1032,"55":1033,"Ġgtk":1034,"dev":1035,"itch":1036,"heck":1037,"args":1038,"Ġal":1039,"dir":1040,"last":1041,"Ġcur":1042,"Ġ\"%":1043,"av":1044,"uVar":1045,"Ġ>>":1046,"ĠO":1047,"message":1048,"Type":1049,"Set":1050,"000":1051,"lient":1052,"og":1053,"Ġuint":1054,"ave":1055,"Ġdouble":1056,"27":1057,"lose":1058,"stream":1059,"om":1060,"irst":1061,"STAT":1062,"Ġname":1063,"attr":1064,"Ġtype":1065,"50":1066,"26":1067,"ang":1068,"Ptr":1069,"rect":1070,"Ġfprintf":1071,"Ġ7":1072,"cr":1073,"Ġsy":1074,"long":1075,"ress":1076,"ĠĉĉĠĠĠ":1077,"ns":1078,"pi":1079,"tree":1080,"ty":1081,"LI":1082,"ele":1083,"Ġbuf":1084,"rec":1085,"roup":1086,"Data":1087,"pack":1088,"cb":1089,"vel":1090,"ill":1091,"sub":1092,"Ġbo":1093,"Ġundefined":1094,"UT":1095,"Ex":1096,"iled":1097,"33":1098,"box":1099,"double":1100,"68":1101,"witch":1102,"\\\"":1103,"ĠĠĠĠĠĠĠĠĠĠĠĠĠĠ":1104,"dd":1105,"(_":1106,"Ġmacro":1107,"Ġprintf":1108,"Ġq":1109,"bug":1110,"tag":1111,"EX":1112,"mt":1113,"ule":1114,"21":1115,"ant":1116,"ALSE":1117,"Ġerr":1118,"Ġle":1119,"Ġdg":1120,"header":1121,"DI":1122,"Ġsh":1123,"Ar":1124,"app":1125,"old":1126,"')":1127,"List":1128,"ull":1129,"ies":1130,"fp":1131,"ING":1132,"block":1133,"ION":1134,"Par":1135,"********":1136,"assert":1137,"date":1138,"emp":1139,"mod":1140,"ep":1141,"width":1142,"source":1143,"raw":1144,"ard":1145,"stderr":1146,"UL":1147,"Bu":1148,"cont":1149,"ay":1150,"idx":1151,"VAL":1152,"face":1153,"frame":1154,"handle":1155,"sit":1156,"fe":1157,"\")":1158,"CON":1159,"req":1160,"oc":1161,"ell":1162,"MP":1163,"ore":1164,"pc":1165,"comm":1166,"GET":1167,"PAR":1168,"nal":1169,"<<<<<<<<":1170,"NULL":1171,"Ġwith":1172,"##":1173,"valid":1174,"lag":1175,"item":1176,"temp":1177,"====":1178,"load":1179,"Pro":1180,"34":1181,"fail":1182,"Ġ'\\":1183,"_;":1184,"view":1185,"YTE":1186,"ton":1187,"ken":1188,"->@@":1189,"ĠĠĠĠĠĠĠĠĠĠĠĠĠĠĠĠĠ":1190,"Ġor":1191,"CA":1192,"ange":1193,"STR":1194,"lob":1195,"arget":1196,"pect":1197,"sn":1198,"ector":1199,"Ġ32":1200,"window":1201,"Ġend":1202,"Name":1203,"Ġadd":1204,"OK":1205,"80":1206,"ts":1207,"Ġexpan":1208,"@@))":1209,"56":1210,"ush":1211,"Ġop":1212,"ide":1213,"class":1214,"FA":1215,"ug":1216,"US":1217,"ĠĉĠĠĠĠĠ":1218,"work":1219,"_((":1220,"Int":1221,"ql":1222,"cs":1223,"cpy":1224,"pert":1225,"Ġself":1226,"ary":1227,"Po":1228,"check":1229,"ute":1230,"ffff":1231,"':":1232,"arch":1233,"Ġdi":1234,"ers":1235,"(*(":1236,"desc":1237,"ont":1238,")->":1239,"olean":1240,"main":1241,"Ġread":1242,"Ġ(_":1243,"Ġtr":1244,"gl":1245,"ENT":1246,"60":1247,"Info":1248,"GTK":1249,"Ġkey":1250,"OL":1251,"58":1252,"hash":1253,"float":1254,"Ġrax":1255,"Ġlist":1256,"String":1257,"BYTE":1258,"ance":1259,"Ġfrom":1260,"FLA":1261,"(!":1262,"ely":1263,"NO":1264,"ast":1265,"height":1266,"cc":1267,"quest":1268,"Ġsigned":1269,"widget":1270,"tp":1271,"OFF":1272,"config":1273,"ery":1274,"----------------":1275,"ilter":1276,"Ġ(__":1277,"cmd":1278,"current":1279,"annel":1280,"color":1281,"Ġ20":1282,"ĠFALSE":1283,"OB":1284,"ses":1285,"Ġexpansion":1286,"Ġas":1287,"37":1288,"option":1289,"Ġcol":1290,"File":1291,"argv":1292,"ll":1293,"mask":1294,"label":1295,"UR":1296,"MO":1297,"from":1298,"DO":1299,"PO":1300,"Ġ*__":1301,"thread":1302,"36":1303,"user":1304,"Value":1305,"sed":1306,"sg":1307,"move":1308,"ĠTR":1309,"ats":1310,"44":1311,"sl":1312,"Ġid":1313,"ren":1314,"FLAG":1315,"@@]":1316,"unction":1317,"'t":1318,"ob":1319,"image":1320,"utton":1321,"lic":1322,"enu":1323,"ark":1324,"vert":1325,"ded":1326,"Ġtest":1327,"uld":1328,"input":1329,"ĉĉĉĉ":1330,"dup":1331,"Ġbuffer":1332,"Ġline":1333,"bl":1334,"errno":1335,"ated":1336,"OPT":1337,"Ġ(&":1338,"connect":1339,"Ġsc":1340,"Ġ9":1341,"OFFSET":1342,"ams":1343,"Ġbyte":1344,"GE":1345,"splay":1346,"ump":1347,"tran":1348,"ument":1349,"oy":1350,"Ġare":1351,")_":1352,"IL":1353,"35":1354,"sizeof":1355,"field":1356,"lik":1357,"gra":1358,"Ġne":1359,"func":1360,"@@));":1361,"uple":1362,"Ġstart":1363,"ITE":1364,"undefined":1365,"DEC":1366,"format":1367,"device":1368,"ĠLA":1369,"ai":1370,"Ġtime":1371,"SC":1372,"client":1373,"SU":1374,"likely":1375,"ĠĠĠĠĠĠĠĠĠĠĠĠĠĠĠĠĠĠĠĠ":1376,"print":1377,"GL":1378,"0010":1379,"bit":1380,"filename":1381,"BUG":1382,"SH":1383,"VER":1384,"Size":1385,"env":1386,"INE":1387,"ls":1388,"andl":1389,"Ġcheck":1390,"ECT":1391,"Ġsrc":1392,"PARAM":1393,"Ġmax":1394,"reen":1395,"Node":1396,"88":1397,"Ġcont":1398,"stack":1399,"ng":1400,"Ġassert":1401,"tem":1402,"close":1403,"unk":1404,"DB":1405,"ZE":1406,"ĠRe":1407,"OBJ":1408,"uLL":1409,"output":1410,"dst":1411,"Ġsi":1412,"ĠPyObject":1413,"not":1414,"ify":1415,"Ġnode":1416,"ds":1417,"inue":1418,"DEBUG":1419,"ifdef":1420,"Ġstate":1421,"AB":1422,"goto":1423,"70":1424,"ACK":1425,"open":1426,"strcmp":1427,"Ġme":1428,"Ġreg":1429,"gtk":1430,"be":1431,"Ġres":1432,"DAT":1433,"PY":1434,"Ġ24":1435,"Ġup":1436,"ister":1437,"Ġrc":1438,"FILE":1439,"Ġ(*(":1440,"128":1441,"',":1442,"39":1443,"Un":1444,"gr":1445,"group":1446,".\\":1447,"Ġ|=":1448,"ces":1449,"perty":1450,"iz":1451,"@@=":1452,"stroy":1453,"top":1454,"point":1455,"cache":1456,"wh":1457,"Ġyy":1458,"debug":1459,"LOG":1460,"form":1461,"[@@":1462,"BIT":1463,"Ġno":1464,"Ġcomp":1465,"TI":1466,"orm":1467,"lect":1468,"pix":1469,"rix":1470,"cket":1471,"Ġdefault":1472,"*/":1473,"BO":1474,"gen":1475,"UM":1476,"ne":1477,"(&@@":1478,"sb":1479,"99":1480,"link":1481,"root":1482,"boolean":1483,"Ġswitch":1484,"lear":1485,"level":1486,"ins":1487,"wn":1488,"ameter":1489,"mbol":1490,"VI":1491,"his":1492,"query":1493,"';":1494,"ting":1495,"En":1496,"this":1497,"Ġstrlen":1498,"bytes":1499,"@@),":1500,"aut":1501,"create":1502,"AP":1503,"FS":1504,"default":1505,"Ġinfo":1506,"Wid":1507,"Col":1508,"KE":1509,"cod":1510,"78":1511,"alse":1512,"sition":1513,"AME":1514,"signal":1515,"sw":1516,"lobal":1517,"]=":1518,"ĠST":1519,"\"))":1520,"dim":1521,"Id":1522,"Ġptr":1523,"mit":1524,"order":1525,"inst":1526,"ign":1527,"Ġcount":1528,"utex":1529,"fl":1530,"pected":1531,"ĠFI":1532,"unlikely":1533,"param":1534,"ĠTRUE":1535,"here":1536,"4096":1537,"Ġav":1538,"page":1539,"seq":1540,"pool":1541,"pol":1542,"WIG":1543,"31":1544,"fprintf":1545,"my":1546,"bus":1547,"ifi":1548,"Ġpre":1549,"Buffer":1550,"qlite":1551,"ED":1552,"ound":1553,"host":1554,"net":1555,"Ġctx":1556,"Ġlo":1557,"space":1558,"left":1559,"Ġ^":1560,"Ġfailed":1561,"child":1562,"sor":1563,"MAX":1564,"dest":1565,"Ġindex":1566,"ale":1567,"90":1568,"tra":1569,"copy":1570,"ERT":1571,"Di":1572,"flag":1573,"Ġstatus":1574,"SIZE":1575,"ey":1576,"=%":1577,"Ġstring":1578,"target":1579,"match":1580,"RO":1581,"URE":1582,"exp":1583,"Ġexit":1584,"LINE":1585,"core":1586,"Context":1587,"uc":1588,"Ġoffset":1589,",&":1590,"queue":1591,"ĠĠĠĠĠĠĠĠĠĠĠĠĠĠĠĠĠĠĠĠĠĠĠĠĠĠĠ":1592,"parent":1593,"ero":1594,"rt":1595,"sum":1596,"Ġtemp":1597,"token":1598,"BEL":1599,"Ġcode":1600,"SP":1601,"her":1602,"button":1603,"Ġbool":1604,"ain":1605,"sure":1606,"hdr":1607,"pref":1608,"LEN":1609,"sr":1610,"OBJECT":1611,"@@].":1612,"Ġcan":1613,"Ġby":1614,"\":":1615,"ĠIn":1616,"Ġ\"\\":1617,"Ġmode":1618,"server":1619,"OC":1620,"Ġlog":1621,"vari":1622,"\"),":1623,"arn":1624,"first":1625,"DECREF":1626,"Ġhave":1627,"IP":1628,"77":1629,"dp":1630,"Ġevent":1631,"sv":1632,"spec":1633,"54":1634,"tab":1635,"Len":1636,"ux":1637,"Key":1638,"cpu":1639,"sec":1640,"ick":1641,"ĠĉĉĠ":1642,"Pr":1643,"win":1644,"Ġnumber":1645,"Add":1646,"*@@":1647,"Ġcurrent":1648,"@@++)":1649,"alin":1650,"ĠĠĠĠĊ":1651,"Ġlength":1652,"location":1653,"umn":1654,"Ġfloat":1655,"andler":1656,"lement":1657,"mutex":1658,"TH":1659,"Ġnext":1660,"\"));":1661,"element":1662,"lete":1663,"pointer":1664,"ui":1665,"To":1666,"session":1667,"@@,@@":1668,"qword":1669,"unc":1670,"PYX":1671,"Ġfail":1672,"TA":1673,"Ġcall":1674,"Ġinter":1675,"Ġfd":1676,"stem":1677,"ual":1678,"thod":1679,"Ġfunction":1680,"ript":1681,"real":1682,"parse":1683,"can":1684,"Ġinput":1685,"Ġ*)&":1686,"Ġstalin":1687,"channel":1688,"Ġlib":1689,"values":1690,"xml":1691,"Bo":1692,"otal":1693,"qual":1694,"ĠĠĠĠĠĠĠĠĠĠĠĠĠĠĠĠĠĠĠĠĠ":1695,"function":1696,"ĠIf":1697,"Ġfirst":1698,"Num":1699,"da":1700,"State":1701,"pen":1702,"ua":1703,"FO":1704,"rol":1705,"number":1706,"ĠiVar":1707,"xy":1708,"Ġmp":1709,"ĠĠĠĠĠĠĠĠĠĠĠĠĠĠĠĠĠĠĠĠĠĠĠĠĠĠĠĠĠĠĠ":1710,"76":1711,"store":1712,"off":1713,"params":1714,"MS":1715,"cf":1716,"model":1717,"Ġblock":1718,"Vala":1719,"fig":1720,"bs":1721,"send":1722,"Ġuser":1723,"ote":1724,"Ġ--":1725,"<<<<<":1726,"Ġ<<<<<<<<<":1727,"Ġ<<<<<<<<<<<<<<":1728,"lot":1729,"ĠThe":1730,"filter":1731,"bits":1732,"uid":1733,"igh":1734,"cal":1735,"CC":1736,"Ġoption":1737,"FOR":1738,"enc":1739,"version":1740,"dy":1741,"cond":1742,"Ġdst":1743,"Ġ\",":1744,"Ġ40":1745,"Ġsqlite":1746,"Ġtra":1747,"Ġonly":1748,"options":1749,"Ġcomm":1750,"Ġ64":1751,"we":1752,"unref":1753,"ĠLABEL":1754,"Array":1755,"Ġall":1756,"ML":1757,"ply":1758,"ba":1759,"INTER":1760,"Ġpos":1761,"Ġgchar":1762,"NE":1763,"Ġuse":1764,"PyObject":1765,"parser":1766,"Widget":1767,"AV":1768,"Ġcp":1769,"49":1770,"Ġ-=":1771,"malloc":1772,"Ġoutput":1773,"BC":1774,"UP":1775,"At":1776,"ĠGL":1777,"READ":1778,"yle":1779,"os":1780,"Ġpa":1781,"Ġli":1782,"(\"%":1783,"AS":1784,"Ġrb":1785,"ARG":1786,"menu":1787,"Ġopt":1788,"append":1789,")[":1790,"Ġinline":1791,"iff":1792,"iew":1793,"IO":1794,"Ġinit":1795,"Ġ(((":1796,"lease":1797,"layer":1798,"REG":1799,"vector":1800,"Ġ12":1801,"@@_":1802,"request":1803,"ost":1804,"Ġpath":1805,"IGN":1806,"cnt":1807,"Ġalloc":1808,"dio":1809,"sym":1810,"_(":1811,"Ġstd":1812,"son":1813,"SSERT":1814,"right":1815,"ener":1816,"ension":1817,"destroy":1818,"Ġap":1819,"dis":1820,"IC":1821,"man":1822,"cap":1823,"property":1824,"ature":1825,"FUN":1826,"fsqword":1827,"readfsqword":1828,"Ġentry":1829,"unter":1830,"action":1831,"sf":1832,">>":1833,"Gtk":1834,"ence":1835,"FT":1836,"annot":1837,"Ġlast":1838,"Arg":1839,"NAME":1840,"ition":1841,"CCE":1842,"Ġmsg":1843,"98":1844,"45":1845,"*(_":1846,"DR":1847,"cat":1848,"update":1849,"66":1850,"Ġhas":1851,"mi":1852,"qui":1853,"aa":1854,"ĠQ":1855,"kt":1856,"Ġflags":1857,"fn":1858,"cd":1859,"range":1860,"xx":1861,"ĠĠĠĠĠĠĠĠĠĠĠĠĠĠĠĠĠĠ":1862,"ich":1863,"vec":1864,"ĠĉĠĠĠĠ":1865,"TO":1866,"========":1867,"New":1868,"Ġcontinue":1869,"tain":1870,"urface":1871,"by":1872,"ĠThis":1873,"...":1874,"ci":1875,"display":1876,"ader":1877,"rd":1878,"RG":1879,"ude":1880,"upport":1881,"Ġtrue":1882,"ECK":1883,"Ġ.":1884,"Se":1885,"****************":1886,"part":1887,"XT":1888,"coe":1889,"strdup":1890,"af":1891,"spon":1892,"ume":1893,"Ġxml":1894,"){":1895,"oi":1896,"Ġwrite":1897,"ative":1898,"Ġ};":1899,"ape":1900,"Ġtable":1901,"ther":1902,"dep":1903,"VEC":1904,"ugin":1905,"etsc":1906,"EF":1907,"INVAL":1908,"ABLE":1909,"Ġone":1910,"ĠJ":1911,"75":1912,"while":1913,"001":1914,"Mem":1915,"ĠPR":1916,"internal":1917,"Ġ();":1918,"fin":1919,"},":1920,"Lo":1921,"hs":1922,"POS":1923,"Free":1924,"MAT":1925,"Ġobject":1926,"Ġwid":1927,"Ġrow":1928,"ager":1929,"wr":1930,")));":1931,"sample":1932,"46":1933,"@@+":1934,"ORT":1935,"72":1936,"arb":1937,"proc":1938,"trib":1939,"ched":1940,"Ġser":1941,"cli":1942,"ents":1943,"pd":1944,"Ġro":1945,"Ġargv":1946,"REE":1947,"nect":1948,"alog":1949,"mpl":1950,"Ġext":1951,"Ġwill":1952,"ATE":1953,"Ġpla":1954,"Ġold":1955,"SY":1956,"sock":1957,"ait":1958,"Ġrec":1959,"GOT":1960,"KEY":1961,"Ġbytes":1962,"atter":1963,"ĠĉĉĉĠĠĠ":1964,"ĉĠĠĠĠĠ":1965,"xFFFF":1966,"ULT":1967,"BG":1968,"LOCK":1969,"Ġmalloc":1970,"Ġmin":1971,"Tuple":1972,"find":1973,"Ġput":1974,"Ġbase":1975,"ev":1976,"Text":1977,"font":1978,"ĠGet":1979,"symbol":1980,"Char":1981,"For":1982,"Al":1983,"command":1984,")\\":1985,":%":1986,"ish":1987,"ALL":1988,"CALL":1989,"Ġok":1990,"Ġca":1991,"ail":1992,"led":1993,"Ġtran":1994,"ner":1995,"Ġsa":1996,"mark":1997,"ks":1998,"Ġneed":1999,"Index":2000,"ĠĠĠĠĠĠĠĠĠĠĠĠĠĠĠĠĠĠĠĠĠĠĠĠĠ":2001,"'s":2002,"poly":2003,"lection":2004,"74":2005,"sd":2006,"Ref":2007,"utf":2008,"256":2009,"ry":2010,"Ġdest":2011,"switch":2012,"CP":2013,"Ġarray":2014,"Ġcpl":2015,"Ġany":2016,"Ġopen":2017,"TK":2018,"]->":2019,"select":2020,"Ġ*/;":2021,"Ġ){":2022,"Ġ15":2023,"SL":2024,"okup":2025,"MEM":2026,"gment":2027,"ONE":2028,"sig":2029,"Ġfield":2030,"ie":2031,"hould":2032,"Ġenable":2033,"itor":2034,"auth":2035,"ĠĠĠĠĠĠĠĠĠĠĠĠĠĠĠĠĠĠĠĠĠĠĠĠ":2036,"Obj":2037,"Ġhandle":2038,"tries":2039,"!=":2040,"packet":2041,"Ġ(%":2042,"TS":2043,"ift":2044,"ved":2045,"pid":2046,"END":2047,"())":2048,"atrix":2049,"86":2050,"arning":2051,"Ġph":2052,"imer":2053,"Ġad":2054,"ĠĉĊ":2055,"Ġprint":2056,"ome":2057,"udio":2058,"bb":2059,"QL":2060,"Ġvalues":2061,"Table":2062,"vala":2063,"clear":2064,"sing":2065,"Ġcreate":2066,"PA":2067,"79":2068,"ek":2069,"Ġmessage":2070,"RA":2071,"ND":2072,"del":2073,"prev":2074,"Ġpl":2075,"Ġspec":2076,"bp":2077,"Ġver":2078,"DATA":2079,"He":2080,"bar":2081,"edge":2082,"02":2083,"Ġargument":2084,"POSIT":2085,"callback":2086,"pla":2087,"RES":2088,"Sh":2089,"59":2090,"USE":2091,"argc":2092,"STATUS":2093,"100":2094,"CCESS":2095,"bin":2096,"Ġmod":2097,"ific":2098,"show":2099,"gle":2100,"su":2101,"CM":2102,"HT":2103,"Window":2104,"Ġ**)":2105,"Ġmemcpy":2106,"Ġgl":2107,"ctor":2108,"nown":2109,"anged":2110,"Ġmemory":2111,"SA":2112,"dk":2113,"Ġobj":2114,"Ġformat":2115,"08":2116,"Ġ(!@@":2117,"sm":2118,"../":2119,"Ġper":2120,"EST":2121,"ĠCo":2122,"INFO":2123,"structure":2124,"late":2125,"sys":2126,"ical":2127,"ii":2128,"pha":2129,"pass":2130,"TER":2131,"ally":2132,"handler":2133,"Ġdefined":2134,"build":2135,"):":2136,"Ġac":2137,"LD":2138,"Ġshould":2139,"Item":2140,"Ġfalse":2141,"ĠGtk":2142,"Ġ((@@":2143,"ĠĠĠĠĠĠĠĠĠĠĠĠĠĠĠĠĠĠĠĠĠĠ":2144,"loop":2145,"Me":2146,"tv":2147,"AND":2148,"acket":2149,"bool":2150,"dialog":2151,"sic":2152,"Ġsv":2153,"sponse":2154,"fr":2155,"ression":2156,"Ġbit":2157,"Cur":2158,"dout":2159,"ĠCO":2160,"ormal":2161,"active":2162,"ints":2163,"Ġoper":2164,"rap":2165,"global":2166,"Ġframe":2167,"Is":2168,"task":2169,"module":2170,"Sy":2171,"register":2172,"prefix":2173,"Ġ255":2174,"address":2175,"Ġbut":2176,"dx":2177,"exit":2178,"ĠSWIG":2179,"Ġ48":2180,"tail":2181,"trace":2182,"Out":2183,").":2184,"stride":2185,"BACK":2186,"Ġensure":2187,"sz":2188,"Ġmatch":2189,"eger":2190,"uri":2191,"Ġpc":2192,"cel":2193,"GOTREF":2194,"ACE":2195,"TEST":2196,"screen":2197,"vol":2198,"COL":2199,"bc":2200,"tings":2201,"Ġitem":2202,"ared":2203,"gram":2204,"Ġmo":2205,"br":2206,"Ġ\\\"":2207,"ern":2208,"Ġel":2209,"ĠGTK":2210,"Ġprocess":2211,"connection":2212,"Mode":2213,"Call":2214,"attrib":2215,"Ġargs":2216,"Ġsn":2217,"ise":2218,"View":2219,"ONG":2220,"ĠSet":2221,"sible":2222,"ĠĉĠĠĠĠĠĠ":2223,"STRING":2224,"};":2225,"has":2226,"Test":2227,"Ġmemset":2228,"(\"\\":2229,"ASTAT":2230,"ĠWe":2231,"mon":2232,"Err":2233,"rv":2234,"trans":2235,"Ġtext":2236,")\",":2237,"scale":2238,"WR":2239,"used":2240,"Ġ*((_":2241,"define":2242,"variable":2243,"___":2244,"dat":2245,"pace":2246,"SK":2247,"Ġsym":2248,"scr":2249,"Ġgboolean":2250,"STATE":2251,"ception":2252,"dl":2253,"iVar":2254,"Ġfind":2255,"ivate":2256,"TIME":2257,"Ġ\"/":2258,"ake":2259,"xFFFFFFFF":2260,"Ġaddr":2261,"track":2262,"PL":2263,"Read":2264,"Ġ*/,":2265,"dig":2266,"CTION":2267,"oper":2268,"42":2269,"lict":2270,"com":2271,"Ġgr":2272,"method":2273,"ĠK":2274,"NOT":2275,"Sc":2276,"Ġfound":2277,"PRO":2278,"pybuffer":2279,"lp":2280,"ask":2281,"Ġ128":2282,"966":2283,"From":2284,")),":2285,"attern":2286,"lin":2287,"lable":2288,"Ġpix":2289,"47":2290,"NT":2291,"Ġmust":2292,"Ġ'%":2293,"angle":2294,"comple":2295,"ee":2296,"ger":2297,"push":2298,"ia":2299,"Ġother":2300,"ĠĠĠĠĠĠĠĠĠĠĠĠĠĠĠĠĠĠĠĠĠĠĠĠĠĠĠĠĠ":2301,"uccess":2302,"QU":2303,"rg":2304,"Ġ->":2305,"Ġsp":2306,"prop":2307,"itle":2308,"LS":2309,"ĠOP":2310,"acter":2311,"Ġsprintf":2312,"Time":2313,"Reg":2314,"rence":2315,"ach":2316,"Code":2317,"scan":2318,"Ġ]":2319,"chr":2320,"Ġargc":2321,"Init":2322,"WIN":2323,"go":2324,"Ġtoken":2325,"arbon":2326,"sync":2327,"with":2328,"save":2329,"Ġ(-":2330,"cry":2331,"ĠY":2332,"rl":2333,"rectory":2334,"Le":2335,"DU":2336,"lit":2337,"inc":2338,"_);":2339,"ations":2340,"carbon":2341,"53":2342,"AVE":2343,"41":2344,"Event":2345,"RET":2346,"run":2347,"mult":2348,"tainer":2349,"VALUE":2350,"expr":2351,"codes":2352,"enum":2353,"Ġ*/)":2354,"style":2355,"PP":2356,"52":2357,"Comp":2358,"AU":2359,"cell":2360,"EXT":2361,"section":2362,"fc":2363,"Image":2364,"Ġcmd":2365,"Count":2366,"ASSERT":2367,"CHECK":2368,"Ġcontext":2369,"eno":2370,"--------------------------------":2371,"ready":2372,"coder":2373,"Ġ_(\"":2374,"ctl":2375,"Ġwork":2376,"(),":2377,"doc":2378,"quence":2379,"MODE":2380,"Ġar":2381,"MM":2382,"Ġ},":2383,"ĠIN":2384,"Ġ*,":2385,"43":2386,"(((":2387,"Class":2388,"Ġheader":2389,"57":2390,"job":2391,"tm":2392,"matrix":2393,"Ġexp":2394,"cursor":2395,"aw":2396,"hel":2397,"Ġcl":2398,"fore":2399,"UB":2400,"Ġip":2401,"draw":2402,"0011":2403,"WEN":2404,"bind":2405,"Ġstream":2406,"Create":2407,"Ġmake":2408,"@@++;":2409,"url":2410,"Ġgst":2411,"regs":2412,"ĠTEST":2413,"DEPOSIT":2414,"(!__":2415,"pixel":2416,"TEXT":2417,"tuple":2418,".\",":2419,"DIO":2420,"process":2421,"Color":2422,"Ġev":2423,"Parse":2424,"5966":2425,"kip":2426,"ĠĠĠĠĠĠĠĠĠĠĠĠĠĠĠĠĠĠĠĠĠĠĠĠĠĠ":2427,"Ġhash":2428,"Ġback":2429,"SUCCESS":2430,"record":2431,"nr":2432,"icon":2433,"Ġwindow":2434,"Ġnet":2435,"flow":2436,"UINT":2437,"@@];":2438,"Ġdis":2439,"remove":2440,"Ġwidth":2441,"DL":2442,"domain":2443,"util":2444,"ose":2445,"Ġdb":2446,"lice":2447,"ĠĉĉĠĠĠĠĠ":2448,"sid":2449,"lm":2450,"xFFFFFFFFLL":2451,"clude":2452,"Ġimage":2453,"gp":2454,"SO":2455,"zero":2456,"hw":2457,"cast":2458,"Ġexpected":2459,"memory":2460,"ernal":2461,"amp":2462,"ops":2463,"mac":2464,"ĠZ":2465,"cept":2466,"((__":2467,"Entry":2468,"fmt":2469,"Ġ**)(":2470,"CODE":2471,"ĠMPI":2472,"conflict":2473,"IX":2474,"GTH":2475,"Ġab":2476,"dict":2477,"Ġover":2478,"--;":2479,"_,":2480,"Ġsend":2481,"Ġclose":2482,"Ġdone":2483,"ĠPetsc":2484,"Ġdevice":2485,"ank":2486,"egin":2487,"river":2488,"the":2489,"Ġinst":2490,"coding":2491,"(%":2492,"RC":2493,"xc":2494,"OF":2495,"continue":2496,"riptor":2497,"Ġtf":2498,"CL":2499,"BA":2500,"Ġtarget":2501,"IF":2502,"__,":2503,"Ġcopy":2504,"full":2505,"ized":2506,"ailed":2507,"ugh":2508,"delete":2509,"rel":2510,"mote":2511,"search":2512,"ous":2513,"ĠMA":2514,"Ġ100":2515,"Message":2516,"static":2517,"column":2518,"utes":2519,"xffff":2520,"','":2521,"fix":2522,"ifier":2523,"ialize":2524,"surface":2525,"CS":2526,"FAIL":2527,"LENGTH":2528,"names":2529,"Ġnow":2530,"insert":2531,")*":2532,"tc":2533,"Ġ~":2534,"BUF":2535,"Ġwas":2536,"sent":2537,"Ġconfig":2538,"cfg":2539,"align":2540,"CHK":2541,"Ġfl":2542,"LIST":2543,"VAR":2544,"Ġport":2545,"leanup":2546,"INVALID":2547,"84":2548,"ĠĠĠĠĠĠĠĠĠĠĠĠĠĠĠĠĠĠĠĠĠĠĠĠĠĠĠĠ":2549,"ITEM":2550,"Ġfp":2551,"ierr":2552,"plugin":2553,"NG":2554,"Ġleft":2555,"Ġwhich":2556,"down":2557,"Ġused":2558,"Ġdef":2559,"Comm":2560,"Ġĉĉĉĉĉĉĉ":2561,"API":2562,"instance":2563,"Ġpart":2564,"px":2565,"Ġtree":2566,"Ġact":2567,"ict":2568,"dc":2569,"round":2570,"eth":2571,"Stat":2572,"depth":2573,"onent":2574,"pm":2575,"Ġcolor":2576,"wd":2577,"Tree":2578,"Ġiter":2579,"OUT":2580,"Cont":2581,"CHAR":2582,"Ġpage":2583,"Iter":2584,"tom":2585,"92":2586,"stdout":2587,"proto":2588,"total":2589,"Ġparse":2590,"Ġinvalid":2591,"ĠĉĉĉĠ":2592,"graph":2593,"Ġwhen":2594,"Ġclient":2595,"PS":2596,"rerror":2597,"SIGN":2598,"Ġthen":2599,"CR":2600,"@@++":2601,"spr":2602,"LAY":2603,"ĉĉĉ":2604,"Ġ\");":2605,"Ġrange":2606,"SWIG":2607,"np":2608,"AUDIO":2609,"fi":2610,"resh":2611,"Ġmain":2612,"->_":2613,"Ġrequest":2614,"ified":2615,"cy":2616,"expected":2617,"CLA":2618,"Ġdoes":2619,"let":2620,"IM":2621,"stats":2622,"rows":2623,"Ġ*(*(":2624,"Ġsvn":2625,"Log":2626,"Ġierr":2627,"Ġmy":2628,"ane":2629,"ameters":2630,"Ġshort":2631,"Check":2632,"Ġpriv":2633,"Byte":2634,"term":2635,"td":2636,"ior":2637,"ORE":2638,"SION":2639,"Ġpacket":2640,"Ġstructure":2641,"Function":2642,"Ġcommand":2643,"upported":2644,"Ġelement":2645,"strlen":2646,"nb":2647,"erm":2648,"DOW":2649,"Ġgint":2650,"gchar":2651,"01":2652,"eta":2653,"chunk":2654,"df":2655,"Ġhere":2656,"pad":2657,"uth":2658,"Ġmask":2659,"rag":2660,"BCERROR":2661,"raph":2662,"Ġvar":2663,"uni":2664,"socket":2665,"nection":2666,"AGE":2667,"pair":2668,"way":2669,"294":2670,"PC":2671,"change":2672,"dist":2673,"Path":2674,"NUM":2675,"ERRQ":2676,"ject":2677,"ak":2678,"Ġright":2679,"HE":2680,"Ġmap":2681,"Ġlevel":2682,"ĠĠĠĠĠĠĠĠĠĠĠĠĠĠĠĠĠĠĠĠĠĠĠĠĠĠĠĠĠĠĠĠĠĠĠ":2683,"Line":2684,"());":2685,"NONE":2686,"SER":2687,"dw":2688,"service":2689,"dec":2690,"null":2691,"lu":2692,"ĠCH":2693,"Ġoptions":2694,"))(":2695,"Ġpoint":2696,"elem":2697,"Ġpointer":2698,"EC":2699,"http":2700,"side":2701,"medi":2702,"position":2703,"cm":2704,"lookup":2705,"enter":2706,"Stream":2707,"ten":2708,"tl":2709,"uff":2710,"Ġ256":2711,"Ġapp":2712,"Ġref":2713,"Buf":2714,"End":2715,"rate":2716,"97":2717,"acc":2718,"Ġsock":2719,"empty":2720,"changed":2721,"unlock":2722,"Ġrsb":2723,"[]":2724,"pend":2725,"prog":2726,"ĠĉĠĠ":2727,"Ġcal":2728,"Ġ(*@@":2729,"sel":2730,"short":2731,"layout":2732,"ĠGST":2733,"puVar":2734,"ĠĉĉĠĠĠĠ":2735,"ription":2736,"95":2737,"rp":2738,"67":2739,"94":2740,"iface":2741,"Ġnon":2742,")@@":2743,"place":2744,"(-":2745,"ĠEx":2746,"sol":2747,"private":2748,"Th":2749,"cv":2750,"timeout":2751,"iss":2752,"Mod":2753,"diff":2754,"HO":2755,"Ġwr":2756,"EM":2757,"Ġdon":2758,"EV":2759,"Ġparam":2760,"disp":2761,"wo":2762,"va":2763,"chan":2764,"Ġthere":2765,"Ġsource":2766,"Ġchild":2767,"las":2768,"Ġidx":2769,"\",\"":2770,"Length":2771,"Ġlua":2772,"Tran":2773,"Ġeax":2774,"area":2775,"enable":2776,"Ġdev":2777,"IVE":2778,"Ġqu":2779,"GLE":2780,"Ġ(!(":2781,"ster":2782,"ĠPyTuple":2783,"65":2784,"ATION":2785,"Format":2786,"XDECREF":2787,"Ġfilter":2788,"types":2789,"Ġaddress":2790,"Ġoff":2791,"interp":2792,"thon":2793,"pop":2794,"So":2795,"ĠCheck":2796,"Ġtrace":2797,"stop":2798,"just":2799,"SB":2800,"over":2801,"Ġdir":2802,"=(":2803,"Map":2804,"04":2805,"NA":2806,"ĠĠĠĠĠĠĠĠĠĠĠĠĠĠĠĠĠĠĠĠĠĠĠĠĠĠĠĠĠĠ":2807,"Ġcannot":2808,"eq":2809,"exec":2810,"content":2811,"ĠRE":2812,"@@*":2813,"Ġinto":2814,"sort":2815,"CLASS":2816,"ics":2817,"mul":2818,"../../":2819,"LY":2820,"CHKERRQ":2821,"done":2822,"region":2823,"ĠFILE":2824,"wrap":2825,"Number":2826,"atom":2827,"tach":2828,"Failed":2829,"IB":2830,"fill":2831,"FORMAT":2832,"edit":2833,"Write":2834,"buff":2835,"Ġloop":2836,"unit":2837,"step":2838,"Ġgroup":2839,"Ġ11":2840,"Ġ&=":2841,"WID":2842,"vide":2843,"Start":2844,"found":2845,"cerror":2846,"TT":2847,"Ġats":2848,"Ġflag":2849,"ĠVAL":2850,"VIDE":2851,"control":2852,"Qu":2853,"rx":2854,"settings":2855,"Device":2856,"ident":2857,"Ġdesc":2858,"ITY":2859,"0012":2860,"URN":2861,"Ġio":2862,"');":2863,"fir":2864,"opts":2865,"now":2866,"hi":2867,"fter":2868,"allocator":2869,"Long":2870,"Result":2871,"Ġcpu":2872,"@@<":2873,"Ġsome":2874,"Ġupdate":2875,"ummy":2876,"51":2877,"Man":2878,"items":2879,"Ġsnprintf":2880,"DD":2881,"}}":2882,"limit":2883,"Ġserver":2884,"casecmp":2885,"DEF":2886,"shared":2887,"ADD":2888,"MASK":2889,"insn":2890,"img":2891,"lVar":2892,"ulong":2893,"bi":2894,"mpty":2895,"ĠID":2896,"ĠĠĠĠĠĠĠĠĠĠĠĠĠĠĠĠĠĠĠĠĠĠĠĠĠĠĠĠĠĠĠĠĠ":2897,"proxy":2898,"vid":2899,"libs":2900,"rand":2901,"Ġregister":2902,"vp":2903,"Element":2904,"GI":2905,"timer":2906,"Ġ56":2907,"card":2908,"Loc":2909,"00000000":2910,"ertex":2911,"ĠSQL":2912,"older":2913,"Ġgener":2914,"Ġfwrite":2915,"LED":2916,"vs":2917,"COMP":2918,"dump":2919,"ssize":2920,"gc":2921,"pw":2922,"equal":2923,"Ġdebug":2924,"Ġsys":2925,"VIDEO":2926,"No":2927,"nl":2928,"vl":2929,"rad":2930,"ctxt":2931,"Ġalready":2932,"Ġthan":2933,"@@],":2934,"Ġgen":2935,"Ġparent":2936,"Ġcache":2937,"container":2938,"cert":2939,"warning":2940,"EXP":2941,"flush":2942,"Vector":2943,"))))":2944,"Ġpthread":2945,"PAT":2946,"ĠpuVar":2947,"Pix":2948,"MAP":2949,"audio":2950,"cre":2951,"ily":2952,"gener":2953,"title":2954,"This":2955,"Tra":2956,"mag":2957,"Ġskip":2958,"basic":2959,"Ġstrcmp":2960,"Ġrecord":2961,"dbus":2962,"bose":2963,"orage":2964,"Ġ*)(*(_":2965,"sprintf":2966,"Ġfilename":2967,"FALSE":2968,"Ġpref":2969,"licy":2970,"Ġrun":2971,"Ġrv":2972,"Ġcb":2973,"Ġpevent":2974,"Func":2975,"Ġva":2976,"only":2977,"PT":2978,"pg":2979,"Ġdim":2980,"Ġhost":2981,"ilt":2982,"FLO":2983,"pv":2984,"mid":2985,"gint":2986,"ĠATS":2987,"lapack":2988,"ĠĉĉĉĠĠĠĠĠ":2989,"manager":2990,"Status":2991,"files":2992,"69":2993,"uration":2994,"Ġsystem":2995,"TED":2996,"MSG":2997,"Ġus":2998,"INC":2999,"etch":3000,"ient":3001,"tack":3002,"ud":3003,"RESULT":3004,"xf":3005,"rs":3006,"other":3007,"USED":3008,"PER":3009,"\\\",":3010,"ĠDe":3011,"ou":3012,"known":3013,")&":3014,"reply":3015,"Inter":3016,"Ġbits":3017,"Ġmay":3018,"Ġvalid":3019,"Memory":3020,"Ġlink":3021,"////":3022,"ĠĉĉĠĠ":3023,"iterator":3024,"ĠĠĠĠĠĠĠĠĠĠĠĠĠĠĠĠĠĠĠĠĠĠĠĠĠĠĠĠĠĠĠĠĠĠĠĠĠĠĠ":3025,"FR":3026,"Ġ\\\"%":3027,"->(":3028,"lip":3029,"Ġcor":3030,"entries":3031,"Ġ*/);":3032,"tract":3033,"begin":3034,"Ġ1024":3035,"stra":3036,"Handle":3037,"'\\":3038,"03":3039,"Base":3040,"WAR":3041,"adata":3042,"pkt":3043,"\"\"":3044,"ward":3045,"Ġload":3046,"Ġhr":3047,"Attrib":3048,"Block":3049,"Ġchannel":3050,"ility":3051,"RETURN":3052,"TRY":3053,"ĠGWEN":3054,"Ġversion":3055,"alpha":3056,"lower":3057,"stamp":3058,"mer":3059,"Ġ14":3060,"Ġthread":3061,"less":3062,"roll":3063,"Ġzero":3064,"Ġsum":3065,"MB":3066,"body":3067,"(*(_":3068,"sen":3069,"response":3070,"PTR":3071,"Ġtag":3072,"curr":3073,"Ġheight":3074,"fields":3075,"shape":3076,"PUT":3077,"mail":3078,"counter":3079,"na":3080,"Option":3081,"vm":3082,"shift":3083,"ans":3084,"61":3085,"rection":3086,"atal":3087,"ĠlVar":3088,"None":3089,"App":3090,"tok":3091,"ĠpcVar":3092,"Max":3093,"strn":3094,"SN":3095,"chk":3096,"Ġ*)@@":3097,"BOX":3098,"csa":3099,"Ġreal":3100,"ĠARG":3101,"points":3102,".\");":3103,"63":3104,"Ġ13":3105,"cols":3106,"ĠCon":3107,"ĠĉĉĉĠĠ":3108,"FAI":3109,"wait":3110,"DF":3111,"Ġ**@@":3112,"GF":3113,"Frame":3114,"verse":3115,"Desc":3116,"HA":3117,"Sub":3118,"tool":3119,"rep":3120,"MD":3121,"intn":3122,")==":3123,"lat":3124,"++]":3125,"Ġcomple":3126,"Op":3127,"Ġpng":3128,"Ġ),":3129,"notify":3130,"bound":3131,"INTERP":3132,"Ġvala":3133,"non":3134,"pattern":3135,"eded":3136,"Ġafter":3137,"Ġphase":3138,"ĠFIR":3139,"Ġcs":3140,"access":3141,"Do":3142,"ssl":3143,"ution":3144,"Ġgo":3145,"IV":3146,"lines":3147,"PRE":3148,"pb":3149,"common":3150,"anon":3151,"freq":3152,"UND":3153,"xffffffff":3154,"tls":3155,"imum":3156,"rm":3157,"ĠCON":3158,"Ġpass":3159,"Ser":3160,"ĠĠĠĠĠĠĠĠĠĠĠĠĠĠĠĠĠĠĠĠĊ":3161,"Ġjust":3162,"perties":3163,"Ġtop":3164,"make":3165,"Ġlock":3166,"ni":3167,"org":3168,"Ġcounter":3169,"wc":3170,"Ġ18":3171,"asy":3172,"MIN":3173,"Ġvariable":3174,"pand":3175,"retval":3176,"Ġmethod":3177,"HER":3178,"62":3179,"RUN":3180,"ernel":3181,"Not":3182,"pename":3183,"+=":3184,"ntr":3185,"Ġguint":3186,"MI":3187,"Ġsw":3188,"Ġstrcpy":3189,"scratch":3190,"Flags":3191,">\\":3192,"FL":3193,"XX":3194,"Field":3195,"Ġattr":3196,"967":3197,"intnt":3198,"system":3199,"Ġchange":3200,"heap":3201,"EW":3202,"umns":3203,"Hash":3204,"Ġia":3205,"selection":3206,"RT":3207,"jo":3208,"failed":3209,"skip":3210,"decl":3211,"MAIN":3212,"ference":3213,"anny":3214,"ĠLO":3215,"INIT":3216,"Ġmore":3217,"sert":3218,"RefN":3219,"RefNanny":3220,"Ġmatrix":3221,"met":3222,"[(":3223,"lc":3224,"BOOL":3225,"ĠĠĠĠĠĠĠĠĠĠĠĠĠĠĠĠĠĠĠĠĠĠĠĠĠĠĠĠĠĠĠĠĠĠ":3226,"any":3227,"memcpy":3228,"fg":3229,"rule":3230,"ATURE":3231,"CI":3232,"Ġmult":3233,"keys":3234,"MPI":3235,"NS":3236,"pybuffernd":3237,"fname":3238,"ped":3239,"LONG":3240,"ĠĠĠĊ":3241,"DULE":3242,"interface":3243,"api":3244,"dn":3245,"ĠDEBUG":3246,"ulate":3247,")\"":3248,"ranch":3249,"UNUSED":3250,"ĠVALUE":3251,"final":3252,"pf":3253,"svn":3254,"Ġ!(":3255,"prec":3256,")-":3257,"Ġfin":3258,"Pos":3259,"nn":3260,"imp":3261,"ass":3262,"reset":3263,"OM":3264,"Ġsu":3265,"png":3266,"Ġspace":3267,"LIBCERROR":3268,"Struct":3269,"Config":3270,"ĠĉĉĉĉĠĠĠ":3271,"nodes":3272,"ES":3273,"pk":3274,"ids":3275,"Rec":3276,"cle":3277,"iro":3278,"================":3279,"ATTR":3280,"Ġsection":3281,"Ġsig":3282,"slot":3283,"vious":3284,"Ġtry":3285,"ORY":3286,"Ġsame":3287,"Up":3288,"remote":3289,"Pointer":3290,"NC":3291,"WINDOW":3292,"xt":3293,"rev":3294,"Ġroot":3295,"71":3296,"oice":3297,"Open":3298,"direct":3299,"lim":3300,"73":3301,"delta":3302,"IST":3303,"IDE":3304,"inv":3305,"peer":3306,"DBG":3307,"Ġim":3308,"ĠĉĉĉĠĠĠĠ":3309,"den":3310,"509":3311,"Ġtotal":3312,"ĠCOEF":3313,"MODULE":3314,"]))":3315,"crypt":3316,"AUT":3317,"cause":3318,":;":3319,"setup":3320,"Ġsample":3321,"sq":3322,"COLOR":3323,"tt":3324,"Ġ80":3325,"ived":3326,"Sele":3327,"ating":3328,"Of":3329,"ĠĉĉĠĠĠĠĠĠ":3330,"ĠHAVE":3331,"coef":3332,"gx":3333,"Ġquery":3334,"formation":3335,"Ġreq":3336,"Ġty":3337,"resource":3338,"Ġglobal":3339,"EL":3340,"ailable":3341,"(*@@":3342,")((":3343,"variant":3344,"Ġretval":3345,"Ġ2048":3346,"Ġexist":3347,"cairo":3348,"decode":3349,"Ġag":3350,",%":3351,"Ġsm":3352,"]),":3353,"ĉĉĉĉĉĉĉĉ":3354,"ted":3355,"Ġsin":3356,"GER":3357,"WRITE":3358,"Ġputs":3359,"ĠSt":3360,"ample":3361,"MENT":3362,"integer":3363,"Ġtoo":3364,"ĠAl":3365,"Ġ$":3366,"fb":3367,"Ġfunc":3368,"scm":3369,"nump":3370,"'))":3371,"RGB":3372,"oken":3373,"exception":3374,"Ġselect":3375,"[\\\"":3376,"YPE":3377,"PRINT":3378,"oth":3379,"hist":3380,"CALLBACK":3381,"Ġposition":3382,"ART":3383,"BUS":3384,"Ġrequi":3385,"Ġ...":3386,"Ġvec":3387,"sin":3388,"OS":3389,"DIS":3390,"Draw":3391,"AC":3392,"blk":3393,">::":3394,"grid":3395,"Bool":3396,"ates":3397,"Param":3398,"thing":3399,"Ġ\"-":3400,"NODE":3401,"ear":3402,"-##":3403,"._":3404,"Input":3405,"cor":3406,"Invalid":3407,"seg":3408,"FFER":3409,"lyph":3410,"Ġattrib":3411,"ialog":3412,"abs":3413,"Ġword":3414,"gf":3415,"ste":3416,"Address":3417,"ĠEX":3418,":\\":3419,"coord":3420,"Offset":3421,"Print":3422,"oo":3423,"VERSION":3424,"Ġlabel":3425,"cope":3426,"aise":3427,">,":3428,"split":3429,"Ġ\"##":3430,"339":3431,"RAY":3432,"@@.@@":3433,"0013":3434,"OPER":3435,"slice":3436,"airo":3437,"ĠLAB":3438,"pandas":3439,"rer":3440,"nder":3441,"TRUE":3442,"WARN":3443,"As":3444,"INCREF":3445,"Ġses":3446,"sis":3447,"FE":3448,"ĠĠĠĠĠĠĠĠĠĠĠĠĠĠĠĠĠĠĠĠĠĠĠĠĠĠĠĠĠĠĠĠĠĠĠĠĠ":3449,"tests":3450,"DK":3451,"Ġsave":3452,"seek":3453,"book":3454,"Ġallow":3455,"PACK":3456,"yych":3457,"</":3458,",\"%":3459,"Ġinternal":3460,"89":3461,"segment":3462,"Box":3463,"294967":3464,"Ġorder":3465,"Ġsignal":3466,"very":3467,"post":3468,"Idx":3469,"Ġinteger":3470,"ENTRY":3471,"Ġvector":3472,"Ġbefore":3473,"ater":3474,"Ġgot":3475,"ksp":3476,"Msg":3477,"snprintf":3478,"nam":3479,"CAL":3480,"ĠsVar":3481,"OW":3482,"Expr":3483,"cg":3484,"ĠĠĠĠĠĠĠĠĠĠĠĠĠĠĠĠĠĠĠĠĠĠĠĠĠĠĠĠĠĠĠĠĠĠĠĠ":3485,"ottom":3486,"play":3487,"CUR":3488,"ENO":3489,"ors":3490,"Ġbl":3491,"ipe":3492,"video":3493,"DIR":3494,"Ġgpointer":3495,"Ġ{{":3496,"ping":3497,"scal":3498,"ĠĉĉĉĉĠ":3499,"Ġapr":3500,"builder":3501,"encode":3502,"FD":3503,"orig":3504,",(":3505,"adoc":3506,"ĠĉĉĉĉĠĠ":3507,"recv":3508,"board":3509,"spar":3510,"character":3511,"GS":3512,"cancel":3513,"bd":3514,"ĠGET":3515,"rop":3516,"Ġinitial":3517,"Point":3518,"normal":3519,"saction":3520,"ĠMAX":3521,"release":3522,"chain":3523,"ffect":3524,"driver":3525,"ANT":3526,"Ġmenu":3527,"mis":3528,"ĠXt":3529,"bitmap":3530,"FAILED":3531,"ĠUn":3532,"external":3533,"gt":3534,"Ġeach":3535,"dns":3536,"200":3537,"Group":3538,"rw":3539,"stmt":3540,"Ġent":3541,"bf":3542,"Ad":3543,"SSL":3544,"Stack":3545,"ities":3546,"CONF":3547,"Ġstrdup":3548,"alt":3549,"Tr":3550,"inner":3551,"feature":3552,"ĠGN":3553,"Ġshow":3554,"Exp":3555,"memset":3556,"Ġbeen":3557,"bt":3558,"Ġclass":3559,"xd":3560,"DOMAIN":3561,"emit":3562,"Ġvir":3563,"Ġsign":3564,"dt":3565,"Width":3566,"member":3567,"glew":3568,"FUNC":3569,"ĠStr":3570,"BUFFER":3571,"Ġps":3572,"Ġplaintn":3573,"WIDGET":3574,"Destroy":3575,"complex":3576,"du":3577,")+":3578,"\\@@":3579,"/_":3580,"high":3581,"argument":3582,"Ġ&(":3583,"IGHT":3584,"mc":3585,"mtx":3586,"mount":3587,"lex":3588,"ef":3589,"Display":3590,"Page":3591,"air":3592,"Ġ*=":3593,"Ġcolumn":3594,"Per":3595,"ĠDE":3596,"Ġprev":3597,"Next":3598,"Ġstack":3599,"Ġ28":3600,"hr":3601,";}":3602,"FAULT":3603,"attribute":3604,"puts":3605,"peed":3606,"Ġchunk":3607,"Copy":3608,"itten":3609,"TREE":3610,"fra":3611,"keep":3612,"Ġmark":3613,"Matrix":3614,"dm":3615,"Ġour":3616,"site":3617,"Ġcairo":3618,"kw":3619,"Ġparams":3620,"tect":3621,"Release":3622,"Fin":3623,"255":3624,"GC":3625,"ency":3626,"nv":3627,"Ġ(;":3628,"ĠPar":3629,"chema":3630,"mux":3631,"Ġpixel":3632,"syn":3633,"Ġstrerror":3634,"day":3635,"pth":3636,"sitive":3637,"usage":3638,"ning":3639,"ias":3640,"score":3641,")/":3642,"Ġsession":3643,"report":3644,"pipe":3645,"ĠFor":3646,"Ġstderr":3647,"pub":3648,"codec":3649,"Ġ1000":3650,"ĠInt":3651,"Ed":3652,"strict":3653,"arr":3654,"FREE":3655,"iler":3656,"detail":3657,"invalid":3658,"OID":3659,"ĠIP":3660,"tact":3661,"Ġbin":3662,"Alloc":3663,"lt":3664,"true":3665,"pear":3666,"derer":3667,"Mask":3668,"DS":3669,"fam":3670,"false":3671,"extra":3672,"inton":3673,"PU":3674,"Vertex":3675,"93":3676,"TAG":3677,"Ġpe":3678,"clip":3679,"ethod":3680,"Ġgsl":3681,"GtkWidget":3682,"arp":3683,"cred":3684,"Source":3685,"ĠbVar":3686,"Ġallocate":3687,"Nlm":3688,"ctrl":3689,"rot":3690,"rough":3691,"vals":3692,"dices":3693,"lang":3694,"UCT":3695,"lx":3696,"lication":3697,"swig":3698,"ĠNo":3699,"parameter":3700,"Ġind":3701,"Private":3702,"ina":3703,"iority":3704,"ACT":3705,"85":3706,"sup":3707,"ĠATSlocal":3708,"numpy":3709,"coefs":3710,"nm":3711,"Ġ*)__":3712,".@@":3713,"Ġast":3714,"json":3715,"lem":3716,"ĠINT":3717,"VICE":3718,"VM":3719,"Ġbecause":3720,"GX":3721,"Ġsocket":3722,"Proc":3723,"Ġseq":3724,"att":3725,"ĠAdd":3726,"Ġ/**":3727,"ĠSET":3728,"Ġ72":3729,"Ġpol":3730,">=":3731,"refe":3732,"Ġdisplay":3733,"texture":3734,"resol":3735,"Ġdig":3736,"ĠAR":3737,"Last":3738,"Ġdraw":3739,"Client":3740,"pcVar":3741,"@@\",":3742,"Ġ((*":3743,"]\\":3744,"EE":3745,"PATH":3746,"caps":3747,"ĠASSERT":3748,"Ġ4294967":3749,"vas":3750,"SUB":3751,"actor":3752,"factor":3753,"Ġwin":3754,"Bit":3755,"sio":3756,"FIL":3757,"klass":3758,"ĠDAT":3759,"iod":3760,"ination":3761,"weight":3762,"lineno":3763,"Ġign":3764,"Ac":3765,"bx":3766,"@@]);":3767,"ĠVec":3768,"6339":3769,"Property":3770,"Ġhandl":3771,"mv":3772,"********************************":3773,"Tab":3774,"lua":3775,"Ġsymbol":3776,"ĠPI":3777,"Method":3778,"ANDLE":3779,"Ġconnection":3780,"Ġprop":3781,"ire":3782,"VEREF":3783,"TP":3784,"ĠGtkWidget":3785,"GIVEREF":3786,"Ġgf":3787,"GLEW":3788,"@@,\"":3789,"/%":3790,"Ġisl":3791,"descriptor":3792,"alg":3793,"Module":3794,"ĠPROP":3795,"ways":3796,"Token":3797,"script":3798,"Ġusing":3799,"Ġenum":3800,"MET":3801,"IR":3802,"Ġ*_":3803,"tbl":3804,"=\\\"":3805,"Ġconf":3806,"Ġ655":3807,"('":3808,"ular":3809,"Menu":3810,"anner":3811,"OPEN":3812,"SIGNATURE":3813,"83":3814,"Ġconvert":3815,"traits":3816,"ization":3817,"Ġ'?":3818,"DC":3819,"ful":3820,"Ver":3821,"uster":3822,"words":3823,"profile":3824,"Ġcdef":3825,"uto":3826,"meta":3827,"strcasecmp":3828,"Ġempty":3829,"zone":3830,"Ġrbx":3831,"ressed":3832,"initial":3833,"]));":3834,"0000000":3835,"@@:":3836,"Ġdel":3837,"Ġerrno":3838,"Lock":3839,"87":3840,"ANGE":3841,"ĠĉĉĉĠĠĠĠĠĠ":3842,"Ġ\"@@":3843,"Ġfs":3844,"ARGS":3845,"FLOAT":3846,"help":3847,"Ġremove":3848,"Ġ17":3849,"Thread":3850,"Ġfix":3851,"Ġyou":3852,"Ġappear":3853,"ĠĠĠĠĠĠĊ":3854,"struction":3855,"Vari":3856,"pow":3857,"children":3858,"mix":3859,"Ġdist":3860,"ĠSpec":3861,"cx":3862,"Ġmove":3863,"Ġsearch":3864,"verbose":3865,"ĠFIX":3866,"_->":3867,"ighb":3868,"RUNTIME":3869,"our":3870,"sip":3871,"ĠCreate":3872,"backend":3873,"family":3874,"[%":3875,"Ġhdr":3876,"rank":3877,"asc":3878,"UBLE":3879,"Ġ(&@@":3880,"Rect":3881,"1000":3882,"note":3883,"alle":3884,"XML":3885,"git":3886,"channels":3887,"ateg":3888,"Header":3889,"AG":3890,"0014":3891,"olks":3892,"libcerror":3893,"zz":3894,"ĠTh":3895,"ram":3896,"mov":3897,"FAILURE":3898,"ga":3899,"FUNCTION":3900,"Ġsz":3901,"SQL":3902,"ĠSDL":3903,"Ġbfd":3904,"CCode":3905,"compare":3906,"reader":3907,"dpy":3908,"AA":3909,"der":3910,"strncmp":3911,"phy":3912,"DP":3913,"xp":3914,"Seq":3915,"ice":3916,"Level":3917,"Attr":3918,"gboolean":3919,"auto":3920,"Ġpool":3921,"Font":3922,"ipher":3923,"GRO":3924,"convert":3925,"Ġwant":3926,"Temp":3927,"SPE":3928,"ĠXML":3929,"Ġoperator":3930,"ValaCCode":3931,"Ġpid":3932,"gg":3933,"Ġdy":3934,"iats":3935,"bg":3936,"volume":3937,"Ġconn":3938,"ĠĠĠĠĠĠĠĠĠĠĠĠĠĠĠĠĠĠĠĠĠĠĠĠĠĠĠĠĠĠĠĠĠĠĠĠĠĠ":3939,"ELD":3940,"Row":3941,"VIEW":3942,"ring":3943,"ĠNGX":3944,"Ġqueue":3945,"Ġ\"\",":3946,"sound":3947,"CTX":3948,"ĠPo":3949,"ALLOC":3950,"tcp":3951,"finish":3952,"Ġ'\"":3953,"Parser":3954,"Ġtrans":3955,"calc":3956,"ermin":3957,"1024":3958,"coo":3959,"swap":3960,"ene":3961,"Ġass":3962,"LIB":3963,"ĠSTR":3964,"duct":3965,"Ġprefix":3966,"player":3967,"Ca":3968,"ĠMS":3969,"imit":3970,"ki":3971,"sql":3972,"ground":3973,"EVENT":3974,"ceived":3975,"NET":3976,"losure":3977,"tax":3978,"blocks":3979,"PLAY":3980,"media":3981,"jor":3982,"leg":3983,"Callback":3984,"xpan":3985,"ĠPro":3986,"unicode":3987,"delay":3988,"ndef":3989,"Ġ19":3990,"ORM":3991,"Ġfill":3992,"Ġĉĉĉĉĉĉĉĉ":3993,"Ġ`":3994,"GEN":3995,"BLOCK":3996,"Spec":3997,"pending":3998,"Ġ30":3999,"FILTER":4000,"uv":4001,"sequence":4002,"Ġbound":4003,"comment":4004,"txt":4005,"ollow":4006,">(":4007,"got":4008,"::__":4009,"Ġclear":4010,"__);":4011,"cxx":4012,"SIG":4013,"ometry":4014,"xff":4015,"dims":4016,"Parameter":4017,"EP":4018,"simple":4019,"Ġenv":4020,"Ġboot":4021,"sfer":4022,"ips":4023,"gb":4024,"Ġdat":4025,"mx":4026,"axis":4027,"Ġcallback":4028,"archive":4029,"game":4030,"pay":4031,"ingle":4032,"encoding":4033,"ian":4034,"ĠError":4035,"Ġcharacter":4036,"Ġsl":4037,"pthread":4038,"Ġimp":4039,"monitor":4040,"##'":4041,"Ġ{{'":4042,"User":4043,"Ġsec":4044,"Ġ{{'##'":4045,"ĠPyErr":4046,"description":4047,"ncpy":4048,"Pixel":4049,"helper":4050,"\\\\":4051,"CB":4052,"ĠSQLITE":4053,")\");":4054,"Ġht":4055,"Ġdelete":4056,"alf":4057,"And":4058,"az":4059,"directory":4060,"Def":4061,"alk":4062,"Query":4063,"Ġnull":4064,"Ġaction":4065,"ves":4066,"rid":4067,"ELE":4068,"!\\":4069,"template":4070,"BUTT":4071,"conv":4072,"ored":4073,"512":4074,"UNK":4075,"Ġ++@@":4076,"selected":4077,"Ġwhere":4078,"siz":4079,"bad":4080,"BAD":4081,"Ġsure":4082,"imal":4083,"Valid":4084,"gname":4085,"editor":4086,"REAM":4087,"BUTTON":4088,"IZE":4089,"Ġdirectory":4090,"Output":4091,",*":4092,"metadata":4093,"IFT":4094,"Ġcalloc":4095,"cleanup":4096,"Ġatom":4097,"Ġexpr":4098,"Ġatoi":4099,"ĠSCM":4100,"samples":4101,"async":4102,"Ġalign":4103,"Ġ*)((":4104,"&&":4105,"SUPP":4106,"164":4107,"BASE":4108,"neg":4109,"attrs":4110,"tile":4111,"05":4112,"@@==":4113,"Cell":4114,"opcode":4115,"EXIT":4116,"arm":4117,"Ġabort":4118,"Ġstrchr":4119,"]*":4120,"ĠFT":4121,"Ap":4122,"Ġcy":4123,"Port":4124,"vars":4125,"multi":4126,"soap":4127,"UMENT":4128,"_@@":4129,"ĠCh":4130,"piVar":4131,"Xm":4132,"TRACE":4133,"events":4134,"ron":4135,"000000":4136,"UNET":4137,"combo":4138,"Ġsd":4139,"PARAMV":4140,"ĠLo":4141,"OPY":4142,"Process":4143,"iven":4144,"Ġfopen":4145,"ĠGst":4146,"ADDR":4147,"Mult":4148,"Ġfe":4149,"era":4150,"fact":4151,"Ġcell":4152,"Ġbox":4153,"81":4154,",@@":4155,"vc":4156,"sinton":4157,",*(":4158,"The":4159,"Ġtp":4160,".(":4161,"ti":4162,"ings":4163,"dition":4164,"Ġngx":4165,"Ġvol":4166,"conds":4167,"Ġlp":4168,"sched":4169,"Ġacc":4170,"Ġfull":4171,"ONLY":4172,"program":4173,"sist":4174,"ifndef":4175,"Ġauth":4176,"BITS":4177,"Ġ^=":4178,"aps":4179,"arge":4180,"bfd":4181,"Ġ];":4182,"06":4183,"Boolean":4184,"Ġ*((":4185,"need":4186,"ctype":4187,"Current":4188,"82":4189,"SSAGE":4190,"AUTH":4191,"extension":4192,"interval":4193,"enabled":4194,"147":4195,"SHA":4196,"Ġ((*(":4197,"dbe":4198,"fds":4199,"_@@;":4200,"BL":4201,"Channel":4202,"91":4203,"On":4204,"REQ":4205,"Pl":4206,"Ġpt":4207,"Ġ96":4208,"Ġfclose":4209,"ĠComp":4210,"hy":4211,"AF":4212,"wib":4213,"sport":4214,"Command":4215,"Ġwait":4216,"Ġ%%":4217,"Ġla":4218,"Ġsee":4219,"atype":4220,"Ġscale":4221,"ification":4222,"emon":4223,"Ġrel":4224,"iple":4225,"inf":4226,"chars":4227,"wise":4228,"Screen":4229,"LLOC":4230,"hd":4231,"Button":4232,"Part":4233,"Ġtypename":4234,"ĠFA":4235,"Dict":4236,"straint":4237,"Can":4238,"DEFAULT":4239,"NV":4240,"account":4241,"Ġparser":4242,"apt":4243,"Ġgt":4244,"xb":4245,"Ġtok":4246,"ĠĠĠĠĠĠĠĠĠĠĠĠĠĠĠĠĠĠĠĠĠĠĠĠĠĠĠĠĠĠĠĠĠĠĠĠĠĠĠĠĠ":4247,"DOUBLE":4248,"@@)->":4249,"_(\"":4250,"uest":4251,"Ġstore":4252,"ĠCHECK":4253,"lash":4254,"UI":4255,"CRE":4256,"Ġbuild":4257,"Ext":4258,"div":4259,"SR":4260,"ustom":4261,"Ġmb":4262,"ineno":4263,"gi":4264,"light":4265,"LEFT":4266,"SHIFT":4267,"OTO":4268,"tore":4269,"ĠĠĠĠĠĠĠĠĠĠĠĠĠĠĠĠĠĠĠĠĠĠĠĠĠĠĠĠĠĠĠĠĠĠĠĠĠĠĠĠ":4270,"HANDLE":4271,"Ro":4272,"dv":4273,"rary":4274,"Ġedge":4275,"Ġexec":4276,"EA":4277,"[-":4278,"kb":4279,"allow":4280,"ws":4281,"Mo":4282,"frames":4283,"intval":4284,"Ġview":4285,"(_(\"":4286,"Ġbeg":4287,"entity":4288,"Ġcleanup":4289,"Ġsol":4290,"Ġbad":4291,"iov":4292,"ĠĉĉĉĉĠĠĠĠ":4293,"WN":4294,"Ġbet":4295,"Ġ\".":4296,"minor":4297,"RD":4298,"Ġtwo":4299,"TRAN":4300,"dsa":4301,"storage":4302,"Ġtd":4303,"Doc":4304,"Ġfont":4305,"PLE":4306,"COM":4307,"Ġet":4308,"Ġinterface":4309,"Ġhead":4310,"sink":4311,"sive":4312,"START":4313,"Ġ60":4314,"THREAD":4315,"Ġ'/":4316,"Ġloc":4317,"Ġer":4318,"hook":4319,"ANCE":4320,"110":4321,"Ġ\"<":4322,"Ġsockaddr":4323,"rhs":4324,"__(":4325,"ĠInit":4326,"render":4327,"Ġpv":4328,"ĠERROR":4329,"ĠUN":4330,"ios":4331,"DA":4332,"properties":4333,"xe":4334,"hex":4335,"Ġinsert":4336,"alet":4337,"Ġthrough":4338,"Ġnb":4339,"ĠAAV":4340,"EQ":4341,"Ġ31":4342,"kind":4343,"Ġreturned":4344,"policy":4345,"INST":4346,"ware":4347,"sem":4348,"ideo":4349,"gid":4350,"Ġscreen":4351,"Could":4352,"NI":4353,"INLINE":4354,"lg":4355,"GIN":4356,"vo":4357,"epi":4358,"ssp":4359,"CF":4360,"argp":4361,"MEN":4362,"aux":4363,"FIX":4364,"ĠNO":4365,"Ġcursor":4366,"pS":4367,"@@+@@":4368,"ĠSy":4369,"xa":4370,"Ġms":4371,"ced":4372,"ccode":4373,"ggle":4374,"mpz":4375,"vertex":4376,"USER":4377,"SW":4378,"ough":4379,"gnome":4380,"Ġcould":4381,"LOB":4382,"Ġmodel":4383,"warn":4384,"border":4385,"Ġemit":4386,"0016":4387,"mpi":4388,"Ġalpha":4389,"SM":4390,"igger":4391,"gui":4392,"password":4393,"248":4394,"chine":4395,"Bytes":4396,"inition":4397,"wok":4398,"ĠEV":4399,"Ġrdx":4400,"Control":4401,"vf":4402,"parator":4403,"cent":4404,"PORT":4405,"optarg":4406,"Debug":4407,"Ġfmt":4408,"Ġaccess":4409,"digit":4410,"Close":4411,"Ġoperation":4412,"RL":4413,"native":4414,"tains":4415,"ould":4416,"ĠĠĠĠĠĠĠĠĠĠĠĠĠĠĠĠĠĠĠĠĠĠĠĠĠĠĠĠĠĠĠĠĠĠĠĠĠĠĠĠĠĠĠ":4417,"vt":4418,"OG":4419,"ĠDo":4420,"inode":4421,"364":4422,"PROC":4423,"Ġmodule":4424,"Ġsuccess":4425,"120":4426,"264":4427,"resp":4428,"dummy":4429,"uage":4430,"asm":4431,"alette":4432,"ERO":4433,"CONFIG":4434,"PF":4435,"INK":4436,"sqlite":4437,"Select":4438,"ĠTO":4439,"IND":4440,"Ġtemplate":4441,"served":4442,"tb":4443,"iltin":4444,"--)":4445,"tion":4446,"ither":4447,"Ġsupported":4448,"YP":4449,"protocol":4450,"elf":4451,"shell":4452,"Ġfiles":4453,"andom":4454,"band":4455,"Inst":4456,"Ġ[%":4457,"srs":4458,"Trans":4459,"Ġits":4460,"gine":4461,"finalize":4462,"@@][":4463,"rblapack":4464,"metr":4465,"eval":4466,"Ġcalc":4467,"TABLE":4468,"issing":4469,"gsl":4470,"ARGUMENT":4471,"Coord":4472,"0015":4473,"fil":4474,"progress":4475,"attributes":4476,"Ġregion":4477,"Ġmu":4478,"esc":4479,"Ġulong":4480,"CAST":4481,"Ġlook":4482,"ARRAY":4483,"fv":4484,"putc":4485,"Ġsupport":4486,"payload":4487,"SYS":4488,"adow":4489,"mu":4490,"Ġsince":4491,"gst":4492,"ool":4493,"lap":4494,"BR":4495,"mr":4496,"namic":4497,"Ġcurr":4498,"sptr":4499,"clar":4500,"DT":4501,"wkt":4502,"Ġfields":4503,"ĠSV":4504,"Ġ%.":4505,"Ġ200":4506,"ĠTRACE":4507,"ower":4508,"serial":4509,"join":4510,"STREAM":4511,"Ġextra":4512,"TEGER":4513,"Min":4514,"present":4515,"]+":4516,"Ġgdk":4517,"disk":4518,"ius":4519,"Ġhw":4520,"Height":4521,"utter":4522,"180":4523,"Ġneeded":4524,"Ġxmm":4525,"reach":4526,"Params":4527,"Ġ@":4528,"operator":4529,"scope":4530,"compress":4531,"orld":4532,"heet":4533,"OPTION":4534,"CLE":4535,"attach":4536,"izer":4537,"ĠXm":4538,"Model":4539,"SCM":4540,"cheme":4541,"mplement":4542,"Ġdec":4543,"agick":4544,"Dir":4545,"PM":4546,"Ġtc":4547,"vbox":4548,"ĠWIN":4549,"Ġdelta":4550,"reshold":4551,"Delete":4552,"Ġrte":4553,"Ġdif":4554,"Ġstop":4555,"Ġelif":4556,"Ġvi":4557,"vider":4558,"WA":4559,"Ġcre":4560,"maining":4561,"ĠERR":4562,"iteral":4563,"home":4564,"tol":4565,"unknown":4566,"ipv":4567,"blob":4568,"HEAD":4569,"ĠGR":4570,"MEMORY":4571,"ĠSO":4572,"master":4573,"visible":4574,"adding":4575,"Record":4576,"success":4577,"Ġwidget":4578,"CONN":4579,"wy":4580,"Ġfollow":4581,"Find":4582,"Ġsort":4583,"))_((":4584,"tracker":4585,"Dis":4586,"pto":4587,"mpt":4588,"gpointer":4589,"Options":4590,"Filter":4591,"Ġspecified":4592,"vd":4593,"elp":4594,"POINTER":4595,"@@=@@":4596,"CONTA":4597,"Ġman":4598,"Ġsq":4599,"Ġjob":4600,"okie":4601,"ged":4602,"BER":4603,"(!@@":4604,"lobus":4605,"xF":4606,"elements":4607,"bVar":4608,"ĠRead":4609,"Ġprevious":4610,"<=":4611,"Ġ'-":4612,"ĠLOG":4613,"Ġed":4614,"EINVAL":4615,"Ġ(**":4616,"Ġlimit":4617,"Ġhandling":4618,"Ġ{\"":4619,"Ġdp":4620,"Xt":4621,"pped":4622,"hid":4623,"Ġreset":4624,"UID":4625,"Cache":4626,"CD":4627,"Ġtri":4628,"supported":4629,"Ġinformation":4630,"Ġ));":4631,"Ġrect":4632,"Symbol":4633,"Ġdiff":4634,"Ġtimeout":4635,"LM":4636,"hbox":4637,"ha":4638,"Db":4639,"ARB":4640,"ĠMem":4641,"Ġ*(*":4642,"Ġstep":4643,"ĠĉĉĉĉĠĠĠĠĠ":4644,"COPY":4645,"ĠOn":4646,"Real":4647,"abled":4648,"&@@":4649,"Ġarguments":4650,"ĠFIXME":4651,"Request":4652,"ITH":4653,"sep":4654,"Ġtrack":4655,"GN":4656,"Pre":4657,"timestamp":4658,"Ġpp":4659,"Range":4660,"ROM":4661,"Ġax":4662,"folder":4663,"ĠDB":4664,"sess":4665,"Ġct":4666,"tri":4667,"fac":4668,"qp":4669,"Ġ4096":4670,"columns":4671,"unpack":4672,"pxi":4673,"WARNING":4674,"Petsc":4675,"pare":4676,"++){":4677,"best":4678,"Match":4679,"safe":4680,"Ġep":4681,"woksp":4682,"Ġthem":4683,"Dialog":4684,"Float":4685,"dlg":4686,"Ġbest":4687,"exist":4688,"Ġunable":4689,"Ġparameter":4690,"00000":4691,"FLAGS":4692,"COUN":4693,"upper":4694,"dbg":4695,"termin":4696,"Ġrt":4697,"Ġft":4698,"....":4699,"Ġshift":4700,"Ġparameters":4701,"trl":4702,"ĠĉĉĉĉĉĠ":4703,"ĠĉĉĊ":4704,"contact":4705,"Ġ/**<":4706,"Ġmon":4707,"dot":4708,"Ġalways":4709,"leep":4710,"nf":4711,"utls":4712,"CLI":4713,"ATIVE":4714,"tex":4715,"Ġ50":4716,"Ġperror":4717,"rout":4718,"binary":4719,"ĠMO":4720,"bottom":4721,"Load":4722,"DEX":4723,"Ġresponse":4724,"abel":4725,"plit":4726,"ĠTcl":4727,"Tex":4728,"ered":4729,"ENABLE":4730,"gno":4731,"Ġcr":4732,"Ġqword":4733,"bove":4734,"Ġconnect":4735,"second":4736,"amma":4737,"Ġbutton":4738,"URCE":4739,"Ġ36":4740,"Ġsecond":4741,"Ġsup":4742,"CONST":4743,"clock":4744,"Ġ))":4745,"ETER":4746,"component":4747,"ĠGNUNET":4748,"scroll":4749,"PRIV":4750,"Ġta":4751,"400":4752,"strerror":4753,"dh":4754,"Back":4755,"ĠGF":4756,"pin":4757,"ĠString":4758,"center":4759,"Ġrequired":4760,"NEW":4761,"((_":4762,"Ġexpa":4763,"share":4764,");}":4765,"FIELD":4766,"'re":4767,"tot":4768,"licit":4769,"Ġ22":4770,"ĠTYPE":4771,"adjust":4772,"aded":4773,"PROTO":4774,"ness":4775,"Ġdoesn":4776,"Tag":4777,")]":4778,"Ġns":4779,"apter":4780,"mk":4781,"rat":4782,"virt":4783,"aset":4784,"atile":4785,"108":4786,"PK":4787,"testing":4788,"Ġnormal":4789,"ARD":4790,"Ġdimension":4791,"NOWN":4792,"Ġusage":4793,"Ġpoints":4794,"Ġentries":4795,"aff":4796,"eb":4797,".%":4798,"Word":4799,"isc":4800,"ccur":4801,"Ġsegment":4802,"mime":4803,"::_":4804,"pts":4805,"digits":4806,"reference":4807,"icode":4808,"VEL":4809,"Ġproperty":4810,"GObject":4811,"Or":4812,"owner":4813,"glyph":4814,"istr":4815,"Sec":4816,"---":4817,"Ġci":4818,"INET":4819,"Child":4820,"cpi":4821,"Ent":4822,"Ġscan":4823,"Ġmk":4824,"Bits":4825,"clineno":4826,"folks":4827,"Ġavailable":4828,"THON":4829,"Ġcli":4830,"big":4831,"allel":4832,"JIT":4833,"Ġ\"(":4834,"colors":4835,"Ġtermin":4836,"andard":4837,"Lay":4838,"ĠUINT":4839,"IA":4840,"details":4841,"rgb":4842,"spin":4843,"HI":4844,"Cursor":4845,"++,":4846,"include":4847,"orture":4848,"Ġmat":4849,"Ġjson":4850,"writer":4851,"rcbuffer":4852,"@@<@@":4853,"coeff":4854,"ov":4855,"LIC":4856,"tocol":4857,"Valadoc":4858,"vis":4859,"strides":4860,"cpl":4861,"SELE":4862,"ĠTest":4863,"merge":4864,"Ġown":4865,"kernel":4866,"Ġ!@@":4867,"Ġrad":4868,"]]":4869,"630":4870,"Ġanon":4871,"CHE":4872,"Setup":4873,"Ġgraph":4874,"160":4875,"ead":4876,"YS":4877,"='":4878,"decoder":4879,"ential":4880,"ending":4881,"ĠGDK":4882,"eline":4883,"med":4884,"192":4885,"Ġalso":4886,"Ġdump":4887,"ĠHRESULT":4888,"package":4889,"Connection":4890,"Ġinsn":4891,"GROUP":4892,"html":4893,"contents":4894,"ONT":4895,"FC":4896,"Ġcoord":4897,"Update":4898,"////////":4899,"Ġkrb":4900,"Ġ112":4901,"RB":4902,"generic":4903,"NAL":4904,"parameters":4905,"Ġ512":4906,"perm":4907,"sage":4908,"Return":4909,"norm":4910,"Ġnp":4911,"Ġsyn":4912,"transform":4913,"vision":4914,"FACE":4915,"oft":4916,"digest":4917,"ĠLI":4918,"USH":4919,"pixbuf":4920,"errors":4921,"Ġyacc":4922,"ices":4923,"Ġfailure":4924,"CONT":4925,"tual":4926,"ĠBO":4927,"Ġnc":4928,"ln":4929,"GWEN":4930,"ARY":4931,"ĠAC":4932,"mtxAp":4933,"ĠSC":4934,"Ġ2064":4935,"ween":4936,"cut":4937,"UNKNOWN":4938,"GMT":4939,"rences":4940,"ĠĉĉĉĉĠĠĠĠĠĠ":4941,"ĠĠĠĠĠĠĠĠĊ":4942,"Ġlow":4943,"Ġff":4944,"tle":4945,"foc":4946,"Ġob":4947,"fid":4948,"sch":4949,"accept":4950,"*)(":4951,"Ġ(\"%":4952,"Ġdword":4953,"Ġbegin":4954,",-":4955,"Ġecc":4956,"ody":4957,"Ġbranch":4958,"Net":4959,"Ġdepth":4960,"fx":4961,"yg":4962,"Finish":4963,"ĠTr":4964,"Ġdummy":4965,"fatal":4966,"INER":4967,"Ġraise":4968,"WS":4969,"Ġ25":4970,"ĠGError":4971,"WI":4972,"Trace":4973,"_)":4974,"Ġdecode":4975,"Ġattribute":4976,"offsets":4977,"UTF":4978,"awk":4979,"ĠSpecial":4980,"unch":4981,"ession":4982,"Ġcorrect":4983,"FORM":4984,"Ġside":4985,"Ġ120":4986,"oom":4987,"By":4988,"commit":4989,"ĠMU":4990,"lk":4991,"Ġsequence":4992,"ĠSL":4993,"LOCAL":4994,"ech":4995,"Ġdoc":4996,"Ġtx":4997,"Ġ()":4998,"ĠValue":4999,"Ġĉĉĉĉĉĉĉĉĉĉ":5000,"leaf":5001,"Append":5002,"operand":5003,"Ġdict":5004,"sha":5005,"SV":5006,"0017":5007,"WOR":5008,"smb":5009,"PG":5010,"matches":5011,"ĠCK":5012,"Ġna":5013,"~~":5014,"itude":5015,"Wr":5016,"toggle":5017,"Ġreport":5018,"realloc":5019,"140":5020,"||":5021,"tf":5022,"Style":5023,"Ġmm":5024,"VOID":5025,"slist":5026,"which":5027,"undef":5028,"Ġtm":5029,"Ġdw":5030,"118":5031,"strcpy":5032,"Global":5033,"Ġcnt":5034,"STD":5035,"104":5036,"Clear":5037,"Convert":5038,"gd":5039,"adj":5040,"renderer":5041,"Default":5042,"SF":5043,"cipher":5044,"768":5045,"indent":5046,"Win":5047,"sx":5048,"sensitive":5049,"grp":5050,"Left":5051,"pat":5052,"_->_":5053,"@@)))":5054,"ORTED":5055,"Ġcomplex":5056,"guint":5057,"Flag":5058,"Ġhigh":5059,"ĠĠĠĠĠĠĠĠĠĠĠĠĠĠĠĠĠĠĠĠĠĠĠĠĠĠĠĠĠĠĠĠĠĠĠĠĠĠĠĠĠĠ":5060,"Ġcc":5061,"Ġlocation":5062,"install":5063,"Ġmd":5064,"STRUCT":5065,"Ġwhat":5066,"pixels":5067,"poll":5068,"Ġdc":5069,"Ġsmall":5070,"fixed":5071,"Content":5072,"Ġunit":5073,"fetch":5074,"Ġos":5075,"Ġ88":5076,"moved":5077,"setting":5078,"ĠMake":5079,"Ġui":5080,"DEVICE":5081,"KER":5082,"constant":5083,"bucket":5084,"saved":5085,"Ġcalled":5086,"Ġwarning":5087,"renc":5088,"force":5089,"ended":5090,"complete":5091,"MESSAGE":5092,"prim":5093,"Column":5094,"own":5095,"vsp":5096,"tctx":5097,"priority":5098,"Ġib":5099,"YTHON":5100,"Ġprogram":5101,"Ġfn":5102,"ĠGdk":5103,"CMD":5104,"activate":5105,"lv":5106,"mar":5107,"TEX":5108,"impl":5109,"ĠDBG":5110,"written":5111,"Ġdown":5112,"GST":5113,"wp":5114,"Ġ\"\");":5115,"pParse":5116,"rive":5117,"swer":5118,"suff":5119,"ĠAL":5120,"ple":5121,"INPUT":5122,"Unknown":5123,"blue":5124,"pic":5125,"alias":5126,"ĠFAIL":5127,"ighbor":5128,"batch":5129,"Enum":5130,"DED":5131,"reco":5132,"ĠSSL":5133,"Ġ*(&":5134,"lause":5135,"Env":5136,"Store":5137,"Post":5138,"MON":5139,"viron":5140,"ascii":5141,"ĠNum":5142,"shader":5143,"Ġplugin":5144,"Sample":5145,"An":5146,"ĠLD":5147,"SD":5148,"CONTAINER":5149,"09":5150,"ldst":5151,"Cannot":5152,"((@@":5153,"DATE":5154,"Action":5155,"typ":5156,"verify":5157,"584":5158,"Ġii":5159,"TF":5160,"Ġdup":5161,"Ġ%[":5162,"Ġsetup":5163,"iting":5164,"Ġbp":5165,"II":5166,"entic":5167,"Ġchanged":5168,"usec":5169,"Ġcontrol":5170,"EMP":5171,"ctr":5172,"Exception":5173,"Local":5174,"Ġrealloc":5175,"speed":5176,"nx":5177,"Ġsingle":5178,"nil":5179,"PARAMETER":5180,"Del":5181,"operation":5182,"curity":5183,"COMM":5184,"Ctx":5185,"sktop":5186,"753":5187,"PRI":5188,"after":5189,"cludes":5190,"asn":5191,"acl":5192,"pcm":5193,"inline":5194,"Ġutf":5195,"Ġauto":5196,"Ġbind":5197,"aved":5198,"mesh":5199,"PH":5200,"dom":5201,"Ġterm":5202,"pping":5203,"Ġfra":5204,"'\",":5205,"ARCH":5206,"]=((":5207,"Ġpack":5208,"Sig":5209,"indices":5210,"SSION":5211,"@@])":5212,"Ġge":5213,"Vec":5214,"builtin":5215,"Ġabs":5216,"locale":5217,"ĠReg":5218,"IFY":5219,"Usage":5220,"Ġ!*":5221,"Ġthey":5222,"Ġprec":5223,"LEVEL":5224,"ging":5225,"direction":5226,"ArgError":5227,"Ġpad":5228,"MAGE":5229,"Interface":5230,"TOK":5231,"Ġlibcerror":5232,"usb":5233,"utils":5234,"Gener":5235,"XY":5236,"MOD":5237,"Server":5238,"VA":5239,"ĠPr":5240,"Ġdomain":5241,")_((":5242,"acters":5243,"Ġfflush":5244,"Ġraw":5245,"Manager":5246,"Ġhandler":5247,"ĠNT":5248,"Ġrestrict":5249,"Ġ'.":5250,"SEC":5251,"quire":5252,"reloc":5253,"ipeline":5254,"DECL":5255,"CTOR":5256,"ificate":5257,"Ġspecial":5258,"Expression":5259,"888":5260,"Ġ%\"":5261,"foo":5262,"ĠSIG":5263,"zip":5264,"NORM":5265,"teger":5266,"REC":5267,"mpler":5268,"Ġmail":5269,"MAC":5270,"Ġba":5271,"QUAL":5272,"kwds":5273,"import":5274,"groups":5275,"ments":5276,"Ġ***":5277,"Handler":5278,"Ġgiven":5279,"Ġenough":5280,"expression":5281,"Ġneg":5282,"network":5283,"Ġpj":5284,"130":5285,"encoder":5286,"All":5287,"engine":5288,"Version":5289,"watch":5290,"lack":5291,"().":5292,"ĠPK":5293,"ether":5294,"002":5295,"sens":5296,"tags":5297,"Ġstrm":5298,"Ġavoid":5299,"lush":5300,"STRIDE":5301,"igno":5302,"quot":5303,"rypt":5304,"bm":5305,"calloc":5306,"PRINTF":5307,"Ġprog":5308,"MENU":5309,"argin":5310,"ĠĉĉĉĉĉĠĠĠ":5311,"ferent":5312,"CONTEXT":5313,"MUL":5314,"ĠDi":5315,"Iterator":5316,"diag":5317,"Hawk":5318,"Ġnr":5319,"Vdbe":5320,"Ġmeta":5321,"plan":5322,"Ġpossible":5323,"ATOR":5324,"factory":5325,"orith":5326,"LastError":5327,"eff":5328,"Ġignore":5329,"hp":5330,"ASE":5331,"Ġfo":5332,"NEL":5333,"uuid":5334,"rpc":5335,"until":5336,"Xframe":5337,"OO":5338,"ena":5339,"Term":5340,"INDEX":5341,"112":5342,"upt":5343,"focus":5344,"ndr":5345,"Ġ(_(\"":5346,"verage":5347,"Ġslot":5348,"calar":5349,"route":5350,"Ġpattern":5351,"hl":5352,"replace":5353,"Ġactive":5354,"Exc":5355,"Ġsr":5356,"Ġstrcat":5357,"Declar":5358,"hostname":5359,"IBU":5360,"Position":5361,"gree":5362,"ategory":5363,"Ġrule":5364,"Register":5365,"pixmap":5366,"Native":5367,"props":5368,"Texture":5369,"SDL":5370,"683":5371,"Ġwould":5372,"ĀĀ":5373,"gdb":5374,"ĠpiVar":5375,"2000":5376,"cons":5377,"ATS":5378,";\\":5379,"have":5380,"LABEL":5381,"wm":5382,"Sa":5383,"ĠĉĉĉĉĉĠĠ":5384,"ability":5385,"(\"/":5386,"REAL":5387,"Ġ\"\"":5388,"ceive":5389,"xFF":5390,"elt":5391,"Ġnetwib":5392,"lend":5393,"PRIVATE":5394,"errmsg":5395,"Ġpipe":5396,"licate":5397,"ĠWrite":5398,"rB":5399,"Ġts":5400,"295":5401,"iso":5402,"tems":5403,"Ġdt":5404,"ĠTI":5405,"Ġgs":5406,"Ġbetween":5407,"serv":5408,"Values":5409,"car":5410,"Ge":5411,"export":5412,"lon":5413,"Ġinstance":5414,"LF":5415,"(&(":5416,"Space":5417,"wt":5418,"headers":5419,"random":5420,"ĠBYTE":5421,"Ġds":5422,"07":5423,"HOD":5424,"Equal":5425,"snap":5426,"Ġ104":5427,"Ġdatabase":5428,"URL":5429,"Ġkeep":5430,"Assert":5431,"ĠAbc":5432,"Cmd":5433,"Ġld":5434,"Ġreference":5435,"airiats":5436,"))->":5437,"ssh":5438,"panel":5439,"ĠReturn":5440,"ROW":5441,"Ġ21":5442,"ENOMEM":5443,"Ġ':":5444,"resize":5445,"iform":5446,"sole":5447,"IBUTE":5448,"eric":5449,"ANE":5450,"Attribute":5451,"Ġ63":5452,"anairiats":5453,"First":5454,"perf":5455,"ĠMP":5456,"Label":5457,"Direct":5458,"SOCK":5459,"identifier":5460,"Ġwithout":5461,"special":5462,"itical":5463,"@@*@@":5464,"parm":5465,"Ġscal":5466,"Build":5467,"ĠNPY":5468,"Ġ..":5469,"Ġpop":5470,"ĠIt":5471,"scanner":5472,"history":5473,"Unable":5474,"Ġtab":5475,"COUNT":5476,"ĠNote":5477,"PROCE":5478,"Surface":5479,"gets":5480,"Ġencode":5481,"UEST":5482,"FRAME":5483,"abort":5484,"LC":5485,"ALOG":5486,"sizes":5487,"ons":5488,"ĠĠĠĠĠĠĠĠĠĠĠĠĠĠĠĠĠĠĠĠĠĠĠĠĠĠĠĠĠĠĠĠĠĠĠĠĠĠĠĠĠĠĠĠ":5489,"utdown":5490,"106":5491,"Ġident":5492,"Ġoverflow":5493,"mary":5494,"Ġassign":5495,"cam":5496,"Ġrows":5497,"ĠREG":5498,"RENT":5499,"threads":5500,"rte":5501,"pri":5502,"Ġssize":5503,"signature":5504,"ORDER":5505,"allocate":5506,"Ġ44":5507,"RNA":5508,"peg":5509,"Link":5510,"Ġevery":5511,"ĠĠĠĠĠĠĠĠĠĠĠĠĠĠĠĠĠĠĠĠĠĠĠĠĠĠĠĠĠĠĠĠĠĠĠĠĠĠĠĠĠĠĠĠĠĠĠ":5512,"FIN":5513,"Ġbuff":5514,"Ġra":5515,"Const":5516,"ĠNone":5517,"Ġmissing":5518,"uchar":5519,"avail":5520,"MU":5521,"gap":5522,"slate":5523,"mand":5524,"marker":5525,"fw":5526,"Ġhton":5527,"appen":5528,"Ġdid":5529,"click":5530,"itional":5531,"nnz":5532,"ELEMENT":5533,"ĉĊ":5534,"ender":5535,"Ġdirect":5536,"endor":5537,"Job":5538,"ĠLIB":5539,"DESC":5540,"eps":5541,"MBOL":5542,"HAVE":5543,"\",@@":5544,"srv":5545,"expand":5546,"Ġscr":5547,"union":5548,"ĠData":5549,"DEV":5550,"210":5551,"Ġexpect":5552,"untime":5553,"idle":5554,"ea":5555,"trie":5556,"bv":5557,"ĠFOR":5558,"Ġglobus":5559,"nz":5560,"048":5561,"SPACE":5562,"Ġstuff":5563,"mbda":5564,"arrayobject":5565,"sect":5566,"Ġfi":5567,"Ġ26":5568,"ĠTODO":5569,"Ġfinish":5570,"collection":5571,"ĠUse":5572,"Ġmid":5573,"Src":5574,"Ġcert":5575,"shot":5576,"errval":5577,"%%":5578,"erride":5579,"Ġleast":5580,"ture":5581,"Ġnl":5582,"six":5583,"cinfo":5584,"KP":5585,"Ġgrid":5586,"STACK":5587,"Ġstride":5588,"Change":5589,"Ġtask":5590,"Ġkw":5591,"Ġprobe":5592,"PET":5593,"ĠĠĠĠĠĠĠĠĠĠĠĠĠĠĠĠĠĠĠĠĠĠĠĠĠĠĠĠĠĠĠĠĠĠĠĠĠĠĠĠĠĠĠĠĠ":5594,"Session":5595,"acity":5596,"(&__":5597,"Ġhappen":5598,"CLO":5599,"384":5600,"Ġinitialize":5601,"Ġarea":5602,"Ġabout":5603,"assed":5604,"SAM":5605,"au":5606,"sector":5607,"Ġiface":5608,"14748":5609,"197":5610,"crc":5611,"://":5612,"where":5613,"Addr":5614,"Ġcompute":5615,"Ġpy":5616,"Ġ[-":5617,"LOBAL":5618,"ĠSo":5619,"Ġfft":5620,"cn":5621,"Ġservice":5622,".*":5623,"ĠAT":5624,"Seg":5625,"Ġpi":5626,"metric":5627,"reason":5628,"655":5629,"ups":5630,"esats":5631,"cluster":5632,"pages":5633,"ZERO":5634,"SUPPORTED":5635,")];":5636,"Ġ!*(_":5637,"Ġsmb":5638,"Ġelements":5639,"ĠFind":5640,"Ġabove":5641,"]==":5642,"->__":5643,"Ġlookup":5644,"WM":5645,"power":5646,"Ġknow":5647,"Ġgrub":5648,"Ġ*)*":5649,"Ġsoap":5650,"hing":5651,"urple":5652,"geometry":5653,"sci":5654,"LIKE":5655,"Ġ127":5656,"138":5657,"ARK":5658,";)":5659,"Ġhttp":5660,"____":5661,"assign":5662,"Ġboth":5663,"Notify":5664,"yyvsp":5665,"xpansion":5666,"Ġ\"_":5667,"Act":5668,"Ġstrncpy":5669,"xmm":5670,"partition":5671,"peat":5672,"AI":5673,"mapping":5674,"With":5675,"road":5676,"24753":5677,"Ġlines":5678,"Right":5679,"ĠNot":5680,"Ġtalloc":5681,"CLEAR":5682,"DER":5683,"ually":5684,"bn":5685,"ĠArg":5686,"Ġproc":5687,"year":5688,"ĠCR":5689,"ĠEn":5690,"Ġpush":5691,"scanf":5692,"fh":5693,"suffix":5694,"rq":5695,"spa":5696,"document":5697,"windows":5698,"ifo":5699,"():":5700,"quark":5701,"159":5702,"ĠMIN":5703,"cles":5704,"Cy":5705,"sity":5706,"PROPER":5707,"ĠIS":5708,"PyExc":5709,"sib":5710,"Ġ65535":5711,"Ġselected":5712,"ww":5713,"Ġyet":5714,"ĠRSB":5715,"results":5716,"torture":5717,"clu":5718,"Ġexpansinton":5719,"Ġagain":5720,"ĠUp":5721,"elist":5722,"Ġerrors":5723,"fre":5724,"CHAN":5725,"ĠGEN":5726,"pn":5727,"plot":5728,"Ġcd":5729,"jit":5730,"single":5731,"Graph":5732,"ĠFree":5733,"APP":5734,"blem":5735,"abl":5736,"ĠGMT":5737,"ĠAB":5738,"Ġdifferent":5739,"Api":5740,"Ġeven":5741,"Bind":5742,"strings":5743,"Ġorig":5744,"ĠBu":5745,"mouse":5746,"Ġnto":5747,"??":5748,"etime":5749,"desktop":5750,"Ġpk":5751,"Unit":5752,"Ġpg":5753,"ĠDWORD":5754,"DBus":5755,"pcb":5756,"Oper":5757,"orithm":5758,"ĠUSE":5759,"Ġsysfs":5760,"memcmp":5761,"Ġgn":5762,"aster":5763,"Ġlit":5764,"prefs":5765,"canvas":5766,"ube":5767,"wrapper":5768,"ntval":5769,"reams":5770,"Ġnames":5771,"Ġdisp":5772,"ather":5773,"Double":5774,"BB":5775,"Malloc":5776,"sheet":5777,"STATIC":5778,"ubyte":5779,"magic":5780,"press":5781,"Fe":5782,"ooser":5783,"crement":5784,"Ġreading":5785,"tif":5786,"uestfs":5787,"SON":5788,"NORMAL":5789,"CONNECT":5790,"hint":5791,"construct":5792,"@@].@@":5793,"atomic":5794,"ĠNow":5795,"PyTuple":5796,"RED":5797,"phone":5798,"checksum":5799,"iling":5800,"ĠYY":5801,"plane":5802,"LIKELY":5803,"ection":5804,"unless":5805,"python":5806,"xfs":5807,"Track":5808,"RECT":5809,"usr":5810,"Ġsafe":5811,"endian":5812,"Raise":5813,"ĠAF":5814,"Ġcar":5815,"dyn":5816,"Ġcontent":5817,"PROP":5818,"168":5819,"Ġresol":5820,"die":5821,"agent":5822,"Ġcfg":5823,"ĠSe":5824,"Ġfall":5825,"transport":5826,"buflen":5827,"CPU":5828,"Ġcondition":5829,"compo":5830,"ĠFile":5831,"Ġextension":5832,"green":5833,"@@][@@":5834,"background":5835,"Ġ144":5836,"Ġconstant":5837,"Variable":5838,"Multi":5839,"onents":5840,"locate":5841,"Ġpair":5842,"transaction":5843,"tered":5844,"STORE":5845,"Ġresource":5846,"onal":5847,"Ġdx":5848,"Ġreply":5849,"Auth":5850,"oke":5851,"Ġmight":5852,"Ġface":5853,"'\");":5854,"spect":5855,"ATCH":5856,"ae":5857,"Ġpacketbuf":5858,"snd":5859,"ĠTrue":5860,"Ġtimer":5861,"Ġinstead":5862,"branch":5863,"andid":5864,"super":5865,"Ġfinal":5866,"Ġlower":5867,"DIALOG":5868,"ORITY":5869,"chor":5870,"ĠInvalid":5871,"@@\");":5872,"127":5873,"Gen":5874,"vers":5875,"xl":5876,"ACTION":5877,"Ġ',":5878,"Gst":5879,"nlen":5880,"lapi":5881,"IAL":5882,"Ġstdout":5883,"ru":5884,"Ġss":5885,"leted":5886,"Ġasn":5887,"Ġmaximum":5888,"Ġssl":5889,"Ġtv":5890,"compiler":5891,"fm":5892,"Disp":5893,"Ġatslab":5894,"Ġcm":5895,"AIN":5896,"LOC":5897,"Ġ23":5898,"aml":5899,"LETE":5900,"Printf":5901,"Ġworks":5902,"rest":5903,"Enc":5904,"udp":5905,"Ġmany":5906,"psz":5907,"148":5908,"Ġthese":5909,"Save":5910,"initialize":5911,"mg":5912,"Ġappend":5913,"Root":5914,"RIGHT":5915,"]-":5916,"rowser":5917,"ĠLIBCERROR":5918,"ssing":5919,"----------------------------------------------------------------":5920,"syntax":5921,".,":5922,"Ġ\"../../":5923,"Ġsb":5924,"FinishContext":5925,"RefNannyFinishContext":5926,"YY":5927,"Ġplain":5928,"Ġoriginal":5929,"Ġ((__":5930,"Ġrout":5931,"Ġsetting":5932,"14748364":5933,"cq":5934,"ĠCL":5935,"Ġstyle":5936,"ENTER":5937,"Ġrp":5938,"units":5939,"custom":5940,"closure":5941,"Mat":5942,"EPS":5943,"Ġldb":5944,"ĠĉĠĠĠĠĠĠĠ":5945,"talloc":5946,"hints":5947,"gdk":5948,"NM":5949,"Ntk":5950,"METHOD":5951,"mf":5952,"Program":5953,"username":5954,"ĠCYTHON":5955,"Search":5956,"binding":5957,"gest":5958,"diminfo":5959,"wap":5960,"jump":5961,"Ġda":5962,"Compare":5963,"ading":5964,"Atom":5965,"urm":5966,"Ġopcode":5967,"Ġ/=":5968,"Ġnodes":5969,"Ġseg":5970,"RF":5971,"((*":5972,"seed":5973,"Ġelem":5974,"Ġstill":5975,"Ġbig":5976,"]:":5977,"cost":5978,"Ġheap":5979,"ĠSEC":5980,"LOAD":5981,"xs":5982,"Cert":5983,"Ord":5984,"Ġspa":5985,"\\\"\",":5986,"Ġtesting":5987,"Packet":5988,"-%":5989,"ĠEN":5990,"orter":5991,"Ġdns":5992,"Pack":5993,"transfer":5994,"gate":5995,"123":5996,"ignore":5997,"Ġbus":5998,"_%":5999,"mgr":6000,"wpa":6001,"++]=":6002,"Sequence":6003,"plain":6004,"Ġimplement":6005,"imitive":6006,"wind":6007,"regex":6008,"Args":6009,"Ġcontain":6010,"cookie":6011,"alignment":6012,"Ġ')":6013,"ofs":6014,")*(":6015,"bra":6016,"pxd":6017,"kp":6018,"ĠGList":6019,"ĠType":6020,"ĠKEY":6021,"qh":6022,"ĠPIPE":6023,"quad":6024,"POINT":6025,"*)@@":6026,"ProcAddress":6027,"Ġhow":6028,"choice":6029,"Ġcap":6030,"raise":6031,"Ġbeing":6032,"Integer":6033,"TCP":6034,"ueue":6035,"major":6036,"phase":6037,"imm":6038,"Ġbg":6039,"ĠXXX":6040,"schema":6041,"HEADER":6042,"condition":6043,"les":6044,"rtx":6045,"Ġadjust":6046,"rtp":6047,"renced":6048,"Ġuntil":6049,"Ġrd":6050,"PAGE":6051,"logy":6052,"vironment":6053,"cdata":6054,"Ġway":6055,"maps":6056,"repo":6057,"Ġmpfr":6058,"Ġevents":6059,"oriz":6060,"ĠSH":6061,"ĠSh":6062,"shadow":6063,"Ġgc":6064,"ĠCPL":6065,"IMP":6066,"Ġvert":6067,"erge":6068,"anel":6069,"worker":6070,"MATCH":6071,"Ġrep":6072,"provider":6073,"Ġbs":6074,"Ġcolumns":6075,"ĠFalse":6076,"forward":6077,"pict":6078,")(@@":6079,".;":6080,"Ġcontains":6081,"Instance":6082,"LIT":6083,"Ġpkt":6084,"alc":6085,"span":6086,"ino":6087,"EQUAL":6088,"blas":6089,"!!":6090,"Ġactual":6091,"Ġbelow":6092,"25683":6093,"Ġho":6094,"Ġextern":6095,"MOVE":6096,"oci":6097,"ĠOut":6098,"Ġtake":6099,"ALIGN":6100,"888584":6101,":\",":6102,"Ġform":6103,"Ġpm":6104,"FILTERING":6105,"Ġkernel":6106,"pP":6107,"MemoryView":6108,"Ġextract":6109,"msa":6110,"abfd":6111,"Ġĉĉĉĉĉĉĉĉĉ":6112,"Ġupper":6113,"Date":6114,"LINK":6115,"Ġeval":6116,"144":6117,"Target":6118,"ĠMat":6119,"radio":6120,"Icon":6121,"BD":6122,"Comple":6123,"bounds":6124,"Ġplay":6125,"ys":6126,"Ġjo":6127,"typename":6128,"SYMBOL":6129,"800":6130,"Ġcharacters":6131,"arpu":6132,"AX":6133,"lb":6134,"ĠLODWORD":6135,"Descriptor":6136,"Ġbt":6137,"ldap":6138,"orary":6139,"drv":6140,"Ġsaved":6141,"Ġsent":6142,"Ġctxt":6143,"Resource":6144,"Scalar":6145,"Ġsnd":6146,"Align":6147,"otion":6148,"compat":6149,"Ġremote":6150,"counts":6151,"Ġlena":6152,"emu":6153,"uted":6154,"Ret":6155,"charset":6156,"LADD":6157,"vq":6158,"Ġ34":6159,")?":6160,"IMAGE":6161,"roadcast":6162,"Ġrefe":6163,"Internal":6164,"TLS":6165,"ĠPO":6166,"107":6167,"xi":6168,"urf":6169,"palette":6170,"application":6171,"Ġdiag":6172,"wl":6173,"APH":6174,"vty":6175,"loor":6176,"krb":6177,"Uint":6178,"Ġicon":6179,"boot":6180,"Audio":6181,"Ġdestroy":6182,"erator":6183,"imple":6184,"quant":6185,"language":6186,"DY":6187,";@@":6188,"Ġsf":6189,"nel":6190,"geom":6191,"Ġ%#":6192,"Service":6193,"Ġnothing":6194,"Ġencoding":6195,"ftp":6196,"Ġtests":6197,"oring":6198,"Ġexists":6199,"guid":6200,"ason":6201,"Ġsk":6202,"ĠNC":6203,"8080":6204,"Ġ],":6205,"ĠSRC":6206,"\\\"\\":6207,"ILD":6208,"Det":6209,"150":6210,"Ġblocks":6211,"tty":6212,"lots":6213,"Ġcinfo":6214,"False":6215,"@@]->":6216,"irq":6217,"pose":6218,"extent":6219,"before":6220,"Ġunknown":6221,"Ġsurface":6222,"LT":6223,"[],":6224,"ĠMULADD":6225,"MC":6226,"=@@":6227,"Ġlet":6228,"rem":6229,"Ġlater":6230,"Mark":6231,"ASS":6232,"Variant":6233,"ĠWh":6234,"Ġlike":6235,"Sign":6236,"PROPERTY":6237,"lied":6238,"Ġigraph":6239,"Ġ45":6240,"croll":6241,"project":6242,"stage":6243,"rf":6244,"ĠAPI":6245,"Ġchain":6246,"ao":6247,"Ġswap":6248,"Ġround":6249,"urnal":6250,"tip":6251,"Ġpeer":6252,"================================":6253,"serve":6254,"Ġic":6255,"LEAN":6256,"period":6257,"ndim":6258,"Ġipmi":6259,"half":6260,"0018":6261,"MODEL":6262,"clone":6263,"CALE":6264,"CONTR":6265,"none":6266,"refs":6267,"ĠĠĠĠĠĠĠĠĠĠĠĠĠĠĠĠĠĠĠĠĠĠĠĠĠĠĠĠĠĠĠĠĠĠĠĠĠĠĠĠĠĠĠĠĠĠ":6268,"HASH":6269,"Mon":6270,"Ġkeys":6271,"HOST":6272,"Ġ%@@":6273,"Ġgp":6274,"resses":6275,"buffers":6276,"spi":6277,"cancellable":6278,"ĠTH":6279,"optind":6280,"Region":6281,"ĠpvVar":6282,"Ġgdb":6283,"allocated":6284,"One":6285,"Ġsamples":6286,"RI":6287,"Ġrandom":6288,"ja":6289,"Ġrecv":6290,"drop":6291,"tected":6292,"ĠASN":6293,"Ġhard":6294,"ĠHe":6295,"220":6296,"Ġscm":6297,"XP":6298,"Async":6299,"Rel":6300,"@@>":6301,"Ġdd":6302,"web":6303,"Ġelf":6304,"roller":6305,"prob":6306,"states":6307,"RESP":6308,"PASS":6309,"SIGNAL":6310,"duration":6311,"Ġcom":6312,"shal":6313,"Ġallocated":6314,"apply":6315,"refresh":6316,"arf":6317,"Ġ\"#":6318,"211":6319,"COND":6320,"macro":6321,"patch":6322,"herit":6323,"Ġ\"--":6324,"Ġsplit":6325,"UST":6326,"Ġ136":6327,"137":6328,"Res":6329,"ĠGtkTree":6330,"xm":6331,"validate":6332,"Ġgrn":6333,"HTML":6334,"FLOW":6335,"ccurred":6336,"QR":6337,"xdr":6338,"101":6339,"Ġforce":6340,"uring":6341,"volatile":6342,"Ġrelease":6343,"comb":6344,"Ġdescriptor":6345,"True":6346,"0364":6347,"isters":6348,"Ġfftw":6349,"literal":6350,"Ġzconf":6351,"devices":6352,"Ġ++;":6353,"PHA":6354,"Ġaudio":6355,"Ġcmp":6356,"edges":6357,"ango":6358,"PLA":6359,"Ġeither":6360,"Magick":6361,"Ġ\"[":6362,"Lib":6363,"GetProcAddress":6364,"Ġsettings":6365,"requi":6366,"ĠCopy":6367,"]\",":6368,"Ġpost":6369,"separator":6370,"mn":6371,"ĠĉĉĉĉĉĠĠĠĠ":6372,"subject":6373,"Ġclock":6374,",\"\\":6375,"ĠBOOL":6376,"SetString":6377,"Ġfr":6378,"extract":6379,"stract":6380,"tun":6381,"cessary":6382,"arrow":6383,"pitch":6384,"__@@,":6385,"Ġ>>=":6386,"Begin":6387,"ĠWINAPI":6388,"Ġweight":6389,"Names":6390,"llu":6391,"arc":6392,"ĠĠĠĠĠĠĠĠĠĠĠĠĠĠĠĠĠĠĠĠĠĠĠĠĠĠĠĠĠĠĠĠĠĠĠĠĠĠĠĠĠĠĠĠĠĠĠĠĠ":6393,"world":6394,"demand":6395,"plus":6396,"Ġplayer":6397,"@@[]":6398,"Ġmember":6399,"disable":6400,"uch":6401,"Ġfactor":6402,"tid":6403,"Ġallocation":6404,"available":6405,"Ġfre":6406,"Ġstats":6407,"208":6408,"Queue":6409,"LEX":6410,"*)\"":6411,"descr":6412,"instr":6413,"straints":6414,"ĠPer":6415,"uce":6416,"outfile":6417,"@@\\":6418,"deprec":6419,"alen":6420,"TOP":6421,"rols":6422,"ĠBIT":6423,"Ġaux":6424,"SPECI":6425,"Pol":6426,"SQLITE":6427,"ĠPRO":6428,"xxxx":6429,"Ġrequested":6430,"js":6431,"cu":6432,"Send":6433,"Ġ**(":6434,"Ġfixed":6435,"cision":6436,"SERVER":6437,"RESS":6438,"ĠOK":6439,"IsOK":6440,"Ġdialog":6441,"Ġdigit":6442,"Reader":6443,"Ġimg":6444,"Make":6445,"[*":6446,"Ġrest":6447,"GB":6448,"Scale":6449,"Ġwrong":6450,"Ġexpression":6451,"Ġdriver":6452,"GRE":6453,"ĠPRI":6454,"EXPORT":6455,"Ġdistance":6456,"Ġvariables":6457,"((\"":6458,"gnum":6459,"Ġcomment":6460,"300":6461,"Ġaccept":6462,"sim":6463,"ORI":6464,"ARGET":6465,"1646":6466,"ison":6467,"drag":6468,"dispatch":6469,"erred":6470,"cached":6471,"lour":6472,"lst":6473,"xor":6474,"9999":6475,"Ġmeans":6476,"500":6477,"Ġvirtual":6478,"isl":6479,"ĠOpen":6480,"rier":6481,"Ġnever":6482,"Ġhex":6483,"Ġpriority":6484,"ĠBo":6485,"ĠDet":6486,"Ġhist":6487,"dle":6488,"CAP":6489,"probe":6490,"Ġgwy":6491,"Ġassume":6492,"ĉĠĠĠ":6493,"368":6494,"ioctl":6495,"ĠXen":6496,"Declarations":6497,"jj":6498,"GLOBAL":6499,"Ġfputs":6500,"ĠLAPACK":6501,"sets":6502,"Ġinstruction":6503,"LP":6504,"Ġtevent":6505,"Fast":6506,"Ġdate":6507,"!\");":6508,"tick":6509,"seen":6510,"668":6511,"vb":6512,"FFF":6513,"Ġdl":6514,"distance":6515,"Ġequal":6516,"Ġsqrt":6517,"ock":6518,"Ġfname":6519,"ĠUNUSED":6520,"FAT":6521,"ny":6522,"Ġbody":6523,"cos":6524,"encrypt":6525,"DX":6526,"Ġindic":6527,"Order":6528,"Edge":6529,"Cl":6530,"MULTI":6531,"Main":6532,"MAN":6533,"Host":6534,"QUI":6535,"Top":6536,"BLA":6537,"ĠGLubyte":6538,"Ġ27":6539,"compressed":6540,"CLIENT":6541,"ĠMSG":6542,"Ġfmpz":6543,"sparse":6544,"theme":6545,"RSB":6546,"aaA":6547,"MALLOC":6548,"Ġ(*(__":6549,"Fix":6550,"elems":6551,"failure":6552,"FILL":6553,">\",":6554,"Ġregs":6555,"statement":6556,"ond":6557,"threshold":6558,"ĠSeq":6559,"oct":6560,"Vol":6561,"machine":6562,"WIDTH":6563,"Med":6564,"ĠMEM":6565,"Ġpresent":6566,"fout":6567,"Ġgenerate":6568,"(\"<":6569,"CMP":6570,"Ġallowed":6571,"accel":6572,"rn":6573,"Ġmpz":6574,"158":6575,"Ġmrb":6576,"PIN":6577,"ĠNOT":6578,"ename":6579,"102":6580,"105":6581,"Ġprob":6582,"System":6583,"Ġ';":6584,"Ġck":6585,"seconds":6586,"Ġurl":6587,"Ġneeds":6588,"Bin":6589,"Ġ\":":6590,"pC":6591,"If":6592,"INS":6593,"Ġ160":6594,"UNIT":6595,"REA":6596,"ĠBU":6597,"SELECT":6598,"Ġendif":6599,"edtls":6600,"ĠMPIR":6601,"lace":6602,"ĠdVar":6603,"Ġrcx":6604,"BEGIN":6605,"Ġ&__":6606,"Ġtypes":6607,"amel":6608,"111":6609,"strcat":6610,"Ġhelp":6611,"cls":6612,"870":6613,"ivity":6614,"ocation":6615,"\"\\":6616,"Plugin":6617,"]],":6618,"Ġcompare":6619,"des":6620,"rdf":6621,"ision":6622,"tep":6623,"TC":6624,"ĠCC":6625,"TOKEN":6626,"[])":6627,"Ġfollowing":6628,"224":6629,"mrb":6630,"280":6631,"Dest":6632,"foreach":6633,"ĠSTRUCT":6634,"hes":6635,"ĠCur":6636,"BF":6637,"Ġdirection":6638,"edure":6639,"ports":6640,"lave":6641,"Use":6642,"3333":6643,"proj":6644,"fclose":6645,"ATTRIBUTE":6646,"Ġ*(__":6647,"SetupContext":6648,"Ġpolicy":6649,"Ġ38":6650,"previous":6651,"parts":6652,"product":6653,"SOURCE":6654,"Null":6655,"Ġ\";":6656,"icast":6657,"RefNannySetupContext":6658,"answer":6659,"allocation":6660,"RefNannyDeclarations":6661,"LOW":6662,"sitor":6663,"ILL":6664,"CORE":6665,"ĠDO":6666,"ĠUP":6667,"Ġrx":6668,"mission":6669,"walk":6670,"roff":6671,"strip":6672,"Ġattributes":6673,"aly":6674,"Ġinv":6675,"pats":6676,"ĠUpdate":6677,"TL":6678,"Ġksp":6679,"DBUS":6680,"keyword":6681,"TEXTURE":6682,"istry":6683,"getc":6684,"Ġaa":6685,"GRAPH":6686,"Ġfeature":6687,"gnutls":6688,"ĠOUT":6689,"wb":6690,"CHANGE":6691,"MIT":6692,"Red":6693,"GO":6694,"TX":6695,"Ġ33":6696,"prompt":6697,"DOWN":6698,"ĠNew":6699,"Ġverify":6700,"VECTOR":6701,"Ġbuflen":6702,"Ġ29":6703,"Ġresults":6704,"__:":6705,"tage":6706,"oa":6707,"Ġ47":6708,"apr":6709,"Gee":6710,"dsp":6711,"neighbor":6712,"Core":6713,"memview":6714,"FROM":6715,"Ġvp":6716,")|":6717,"AST":6718,"ĠIs":6719,"(((__":6720,"Ġ\"\";":6721,"handl":6722,"INTEGER":6723,"Ġflint":6724,"NUMBER":6725,"Ġrs":6726,"compute":6727,"Ġpoly":6728,"peek":6729,".)":6730,"@@/":6731,"Ġnote":6732,"FileName":6733,"GetItem":6734,"Ġboolean":6735,"FIR":6736,"Loop":6737,"ĠAt":6738,"INSN":6739,"month":6740,"125":6741,"Elem":6742,"Ġplace":6743,"demux":6744,"unix":6745,"Ġpd":6746,"ology":6747,"Ġ2072":6748,"ued":6749,"Ġ...)":6750,"Ġ65":6751,"Expected":6752,"Ġpixels":6753,"MAND":6754,"Ġputchar":6755,"Reference":6756,"cessed":6757,"Ġ==,":6758,"rnd":6759,"116":6760,"274":6761,"outputs":6762,"Ġgame":6763,"Ġfputc":6764,"ih":6765,"daemon":6766,"nan":6767,"imag":6768,"ĠPyLong":6769,"Ġtransaction":6770,"ĠCol":6771,"Ġmac":6772,"YPT":6773,"radius":6774,"@@){":6775,"initialized":6776,"(*((":6777,"Ġmpi":6778,"dimension":6779,"author":6780,"Ġcv":6781,"Access":6782,"ĠME":6783,"132":6784,"Ġdeterm":6785,"Ġflush":6786,"inp":6787,"secret":6788,")){":6789,"Ġscore":6790,"GtkTree":6791,"Ġitems":6792,"listen":6793,"Ġshape":6794,"Ġdbus":6795,"unique":6796,"Ġvertex":6797,"missing":6798,"ĠAllocate":6799,"ĠVAR":6800,"STEM":6801,"Ġtt":6802,"MF":6803,"lev":6804,"Ġbinary":6805,"390":6806,"ayload":6807,"ĠList":6808,"Ġ'\\\\":6809,"Ġimpl":6810,"packages":6811,"look":6812,"effect":6813,"Warning":6814,"Render":6815,"Normal":6816,"We":6817,"ĠNumber":6818,"EK":6819,"Ġstrn":6820,"6309":6821,"nick":6822,"tw":6823,"GetAttr":6824,"377":6825,"Ġtre":6826,"Proxy":6827,"Ġopts":6828,"ĠInitialize":6829,"gamma":6830,"notebook":6831,"shm":6832,"anldst":6833,"Ġtitle":6834,"Ġ{__":6835,"Ġpassed":6836,"Ġarchive":6837,"objects":6838,"ERY":6839,"Ġ!*(":6840,"rum":6841,"oms":6842,"intern":6843,"Uniform":6844,"cid":6845,"ldb":6846,"perror":6847,"errupt":6848,"picture":6849,"avctx":6850,"178":6851,"Ġtcp":6852,"ik":6853,"UNLIKELY":6854,"Ġtile":6855,"hit":6856,"Ġags":6857,"Ġstrstr":6858,"lld":6859,"Ġ*))":6860,"Gdk":6861,"icmp":6862,"ndx":6863,"NL":6864,"Ġxf":6865,"recur":6866,"ĠSTRUCTURE":6867,"acy":6868,"CACHE":6869,"ĠFirst":6870,"plug":6871,"Ġuni":6872,"ASN":6873,"Ġreplace":6874,"EB":6875,"ĠPrint":6876,"ErrorCode":6877,"Ġlarge":6878,"Ġbr":6879,"pu":6880,"ole":6881,"Ġuid":6882,"Run":6883,"Unicode":6884,"MARK":6885,"Ġmultiple":6886,"zend":6887,"UMN":6888,"Ġ=>":6889,"Ġdestination":6890,"ĠEVP":6891,"Sort":6892,"Ġqh":6893,"Ġ&_":6894,"features":6895,"expect":6896,"ĠName":6897,"sscan":6898,"012":6899,"Video":6900,"Ġprocessing":6901,"ragma":6902,"small":6903,"chooser":6904,"lan":6905,"ĠIO":6906,"Slot":6907,"una":6908,"ĠIDirect":6909,"Ġuv":6910,"Dat":6911,"Ġenc":6912,"Ġptrs":6913,"pdf":6914,"procedure":6915,"))));":6916,"Ġnt":6917,"Ġpb":6918,"ĠĠĠĠĠĠĠĠĠĠĠĠĠĠĠĠĠĠĠĠĠĠĠĠĠĠĠĠĠĠĠĠĠĠĠĠĠĠĠĠĠĠĠĠĠĠĠĠ":6919,"adv":6920,"padding":6921,"Ġred":6922,"Ġreturns":6923,"HTTP":6924,"Ġhold":6925,"Ġwritten":6926,"Ġov":6927,"Ġnm":6928,"++]=\"":6929,"ense":6930,"Ġ()),":6931,"eof":6932,"Ġwhether":6933,"Sync":6934,"Ġec":6935,"FP":6936,"ONSE":6937,"UV":6938,"Ġadded":6939,"Ġframes":6940,"PyArg":6941,"Area":6942,"PING":6943,"Ġrbp":6944,"Ġ*/))":6945,"Parent":6946,"reserved":6947,"fragment":6948,"spf":6949,"pspec":6950,"ceed":6951,"SAMPLE":6952,"indexer":6953,"funcs":6954,"dtype":6955,"136":6956,"Section":6957,"ĠĉĉĉĉĉĠĠĠĠĠ":6958,"Postiats":6959,"disconnect":6960,"cpp":6961,"__.":6962,"INTERNAL":6963,"gw":6964,"Ġ(*(*(":6965,"sgi":6966,"popup":6967,"exists":6968,"Ġcancel":6969,"Ġ**)(__":6970,"lope":6971,"Ġnecessary":6972,"Ġrhs":6973,"dirty":6974,"PFN":6975,"quency":6976,"oe":6977,"Ġinc":6978,"Ġmis":6979,"destination":6980,"ĠGC":6981,"Ġtexture":6982,"hide":6983,"samp":6984,"Ġlayer":6985,"misc":6986,"curve":6987,"Ġguestfs":6988,"crypto":6989,"134":6990,"cpssp":6991,"Ġgdouble":6992,"114":6993,"adapter":6994,"240":6995,"\")))":6996,"Ġtail":6997,"HP":6998,"UC":6999,"public":7000,"bal":7001,"PLU":7002,"VALID":7003,"ĠPNG":7004,"ncid":7005,"Heap":7006,"Ġvideo":7007,"coords":7008,"ulk":7009,"190":7010,"Ġutil":7011,"errbuf":7012,"146":7013,"Ġreally":7014,"printer":7015,"MEDI":7016,"linear":7017,"CONTROL":7018,"vertices":7019,"UInt":7020,"bw":7021,"istics":7022,"__)":7023,"Ġdefinition":7024,"quit":7025,"leave":7026,"Ġuri":7027,"Ġunder":7028,"170":7029,"tokens":7030,"Ġmx":7031,"Ġwere":7032,"Ġexcept":7033,"Imp":7034,"Final":7035,"sksp":7036,"Ġmessages":7037,"avg":7038,"bat":7039,"fptr":7040,"PEG":7041,"Ġgd":7042,"Ġblk":7043,"Ġreceived":7044,"__;":7045,"176":7046,"amily":7047,"SCII":7048,"locked":7049,"Ġdelay":7050,"gnu":7051,"ENUM":7052,"Transform":7053,"Ġwpa":7054,"HW":7055,"msp":7056,"wi":7057,"ĠREAL":7058,"AW":7059,"()->":7060,"compile":7061,"ĠOPT":7062,"ĠUTF":7063,"imate":7064,"dPostiats":7065,"ĠAN":7066,"\\\",\\\"":7067,"ParseTuple":7068,"Ġmachine":7069,"Ġrsi":7070,"tim":7071,"Ġstored":7072,"jp":7073,"aligned":7074,"ĠpC":7075,"DM":7076,"more":7077,"lambda":7078,"respon":7079,"thr":7080,"Ġwrap":7081,"Ġ~(":7082,"Dim":7083,"ier":7084,"ĠPyArray":7085,"pred":7086,"ACCESS":7087,"()))":7088,"\",&":7089,"Ġcx":7090,"til":7091,"Work":7092,"><":7093,"white":7094,"streams":7095,"ĠPL":7096,"REQUEST":7097,"mesa":7098,"Xen":7099,"Ġrot":7100,"Ġgetenv":7101,"BIN":7102,"parms":7103,"Ġebx":7104,"rectangle":7105,"Ġvolume":7106,"109":7107,"Domain":7108,"AY":7109,"entials":7110,"sscanf":7111,"LAST":7112,"Limit":7113,"Ġpub":7114,"Bar":7115,"wave":7116,"Ġprivate":7117,"ĠEOF":7118,"ISTER":7119,"ĠHE":7120,"ible":7121,"rab":7122,"Ab":7123,"ANY":7124,"PARSE":7125,"Ġfatal":7126,"grab":7127,"Opt":7128,"ava":7129,"ĠFLA":7130,"hand":7131,"Ġcreated":7132,"Player":7133,"ured":7134,"schedule":7135,"inate":7136,"Ġselection":7137,"ĠSuccess":7138,"ĠCPU":7139,"Ġ52":7140,"pci":7141,"359":7142,"SRC":7143,"legal":7144,"Impl":7145,"Poco":7146,"Off":7147,"ilities":7148,"Ġmag":7149,"Ġjump":7150,"concat":7151,"ĠLog":7152,"ISC":7153,"scalar":7154,"ĠĉĉĉĉĉĠĠĠĠĠĠ":7155,"Edit":7156,"Ġdisk":7157,"undo":7158,"received":7159,"ĠTran":7160,"NodePtr":7161,"dated":7162,"Ġxcb":7163,"opa":7164,"correct":7165,"cycle":7166,"ĠBIO":7167,"summary":7168,"Ġhe":7169,"Ġsem":7170,"Ġlonger":7171,"RR":7172,"Ġ**)&":7173,"Ġtimeval":7174,"Ġ240":7175,"inet":7176,"Ġbb":7177,"Grid":7178,"Ġ192":7179,"BOSE":7180,"ĠUSER":7181,"fit":7182,"Ġcos":7183,"250":7184,"txn":7185,"degree":7186,"'%":7187,"Ġls":7188,"RIP":7189,"Ġotherwise":7190,"sampler":7191,"Ġ*)(*":7192,"trieve":7193,"ĠSVN":7194,"Includes":7195,"ARM":7196,"Ġix":7197,"Ġpassword":7198,"udo":7199,"EXPR":7200,"_.":7201,"cannot":7202,"\"\"'\");":7203,"Ġdefine":7204,"quare":7205,"reverse":7206,"Ġoperand":7207,"Ġ())":7208,"Ġ\"',":7209,"ĠPointer":7210,"susp":7211,"CHED":7212,"Ġwithin":7213,"uma":7214,"Ġ37":7215,"escape":7216,"ĠĉĉĉĉĉĉĠ":7217,"semb":7218,"Ġabuf":7219,"TIFF":7220,"pipeline":7221,"Move":7222,"mailbox":7223,"Ġbitmap":7224,"GD":7225,"ler":7226,"ĠCOL":7227,"WITH":7228,"Ġmbedtls":7229,"ratio":7230,"DataType":7231,"shutdown":7232,"Ġexisting":7233,"Ġsuch":7234,"Ġpw":7235,"ĠWindow":7236,"Ġcore":7237,"rgba":7238,"115":7239,"coff":7240,"Reset":7241,"EACH":7242,"Ġnd":7243,"ah":7244,"CLOSE":7245,"Ġappro":7246,"bed":7247,"PyInt":7248,"php":7249,"@@++]":7250,"clicked":7251,"hard":7252,"ĠPyBUF":7253,"CREATE":7254,"Over":7255,"(\"[":7256,"phi":7257,"CTL":7258,"FATAL":7259,"nat":7260,"secs":7261,"ensure":7262,"Ġalg":7263,"Ġ(;;)":7264,"ĠINTEGER":7265,"103":7266,"margin":7267,"NEXT":7268,"rval":7269,"Bound":7270,"288":7271,"@@=%":7272,"Cython":7273,"ĠDon":7274,"Push":7275,"Ġoptarg":7276,"strm":7277,"RESPONSE":7278,"depend":7279,"scipy":7280,"inates":7281,"Ġscript":7282,"Bt":7283,"errcode":7284,"ĠBGRA":7285,"Ġserial":7286,"category":7287,"Ġsip":7288,"kill":7289,"OUTPUT":7290,"bot":7291,"188":7292,"/__":7293,"ĠOB":7294,"egl":7295,"suite":7296,"Case":7297,"Ġnv":7298,"Fail":7299,"Ġevas":7300,"EPSG":7301,"ctionary":7302,"apped":7303,"strncpy":7304,"Ġprotocol":7305,"Ġroutine":7306,"writ":7307,"circ":7308,"constraint":7309,"uous":7310,"Extension":7311,"ĠIndex":7312,"xffffff":7313,"agg":7314,"ĠMVM":7315,"186":7316,"Ġdie":7317,"chip":7318,"posix":7319,"Ġseconds":7320,"NON":7321,"mapped":7322,"calculate":7323,"scheme":7324,"tables":7325,"Ġproxy":7326,"two":7327,"Ġbrw":7328,"yyval":7329,"ĠARRAY":7330,"ĠFF":7331,"Ġrate":7332,"Ġprofile":7333,"Ġverbose":7334,"Ġenabled":7335,"tz":7336,"BAR":7337,"frag":7338,"vfs":7339,"ivot":7340,"Ġimport":7341,"cst":7342,"Bad":7343,"ICON":7344,"),*(":7345,"IE":7346,"Directory":7347,"curl":7348,"flat":7349,"Ġsql":7350,"Attributes":7351,"ĠCONF":7352,"QUERY":7353,"Ġexpand":7354,"ĠComm":7355,"dia":7356,"ecode":7357,"HS":7358,"person":7359,"Cr":7360,"Ġzone":7361,"Ġfunctions":7362,"lasses":7363,"Ġ`%":7364,"pvVar":7365,"Ġfabs":7366,"Ġrank":7367,"gobject":7368,"ĠBN":7369,"SESSION":7370,"Ġ90":7371,"drive":7372,"Ġconfiguration":7373,"resolve":7374,"Has":7375,"124":7376,"strstr":7377,"zoom":7378,"HAS":7379,"Ġesc":7380,"TEMP":7381,"PFNGL":7382,"230":7383,"SYSTEM":7384,"ĠSIZE":7385,"DURE":7386,"Ġinf":7387,"Ġremaining":7388,"Ġinterp":7389,"CTRL":7390,"andidate":7391,"seudo":7392,"STAR":7393,"Ġdn":7394,"want":7395,"_[":7396,"xpansinton":7397,"ENCE":7398,"Location":7399,"ĠSE":7400,"userdata":7401,"ĠREAD":7402,"Ġcommon":7403,"Ġreason":7404,"lish":7405,"grub":7406,"ĠHD":7407,"Ġul":7408,"OLEAN":7409,"Ġ152":7410,"Ġclip":7411,"Ġgx":7412,"Ġclean":7413,"Stmt":7414,"codepage":7415,"Ġanother":7416,"JECT":7417,"paths":7418,"Ġchanges":7419,"152":7420,"ĠThere":7421,"Ġwriting":7422,"ets":7423,"Socket":7424,"erts":7425,"ygel":7426,"ifiers":7427,"spaces":7428,"sired":7429,"perl":7430,"Media":7431,"unlink":7432,"quote":7433,"Ġeffect":7434,"ĠĠĠĠĠĠĠĠĠĠĠĠĠĠĠĠĠĠĠĠĠĠĠĠĠĠĠĠĠĠĠĠĠĠĠĠĠĠĠĠĠĠĠĠĠĠĠĠĠĠĠ":7435,"sensor":7436,"beta":7437,"167":7438,"Ġcf":7439,"=\"":7440,"Ġ::":7441,"gain":7442,"ipmi":7443,"database":7444,"PROCEDURE":7445,"ogram":7446,"stub":7447,"MONO":7448,"Ġ*)\"":7449,"counters":7450,"ĠSee":7451,"####":7452,"Total":7453,"remaining":7454,"Ġsync":7455,"*,":7456,"198":7457,"ARGUMENTS":7458,"devinfo":7459,"callbacks":7460,"ĠFLD":7461,"RANGE":7462,"ighbors":7463,"mes":7464,"ĠEXT":7465,"loader":7466,"232":7467,"ĠStart":7468,"Ġcause":7469,"handlers":7470,"idi":7471,"adjustment":7472,"Ġvm":7473,"Met":7474,"cVar":7475,"Ġring":7476,"ĠxmlChar":7477,"Ġ(**(":7478,"precision":7479,"Ġleave":7480,"Ġssh":7481,"Attach":7482,"eve":7483,"als":7484,"Dist":7485,"yp":7486,"Ġscratch":7487,"scaled":7488,"DIRECT":7489,"ĠKey":7490,"ĠSkip":7491,"WORK":7492,"rypto":7493,"TECT":7494,"plist":7495,"INSTANCE":7496,"ĠFailed":7497,"opaque":7498,"119":7499,"gdbarch":7500,"ĠFL":7501,"Ġindent":7502,"hour":7503,"HR":7504,"ĠEnd":7505,"Layer":7506,"Ġstatement":7507,"EOF":7508,"xyz":7509,"NER":7510,"Ġcontents":7511,"orient":7512,"Ġvt":7513,"Ġ42":7514,"Ġ(\"\\":7515,"peak":7516,"Ġapply":7517,"vg":7518,"Ġaxis":7519,"UNLOCK":7520,"Insert":7521,"clean":7522,"Ġdetermine":7523,"SG":7524,"))),":7525,"ĠCONST":7526,"ĠLe":7527,"beg":7528,"Ġindices":7529,"212":7530,"Ġconversion":7531,"ĠPLAY":7532,"layers":7533,"Ġri":7534,"Schema":7535,"Ġchan":7536,"VARI":7537,"ĠGt":7538,"ITER":7539,"sistent":7540,"imeaddr":7541,"Pragma":7542,"role":7543,"identity":7544,"10000":7545,">>::":7546,"Settings":7547,"original":7548,"LOT":7549,"CG":7550,"restore":7551,"mean":7552,"ĠNUM":7553,"nom":7554,"ĠCALL":7555,"bank":7556,"ĠCall":7557,"clo":7558,"Ġalignment":7559,"ĠSystem":7560,"Pass":7561,"canon":7562,"ĠSun":7563,"HDR":7564,"(\"@@":7565,"selector":7566,"utable":7567,"LU":7568,">&":7569,"Ġprecision":7570,"Ġcomplete":7571,"Ġduring":7572,"ones":7573,"+@@":7574,"fflush":7575,"primary":7576,"154":7577,"Ġmatches":7578,"nod":7579,"star":7580,"exc":7581,"Lookup":7582,"lxml":7583,"front":7584,"ĠSY":7585,"aped":7586,"ĠcVar":7587,"ĠNATIVE":7588,"139":7589,"488":7590,"Ġ*++":7591,"ĠPre":7592,"Ġgpg":7593,"Ġshared":7594,"virtual":7595,"nsec":7596,"ĠVal":7597,"AUTHORITY":7598,"Ġstrto":7599,"Ident":7600,"times":7601,"Ġ((_":7602,"fits":7603,"camera":7604,"234":7605,"PLY":7606,"388":7607,"Ġrunning":7608,"ĠGia":7609,"CHANNEL":7610,"Depth":7611,"rdata":7612,"routine":7613,"Meta":7614,"Ġdisks":7615,"Ġlin":7616,"ĠSANE":7617,"SHORT":7618,"rsb":7619,"Cap":7620,"My":7621,"Ġlibrary":7622,"refcount":7623,"Ġconv":7624,"Ġmesh":7625,"prepare":7626,"Ġdecimal":7627,"brid":7628,"Ġgettext":7629,"cmdline":7630,"wsgi":7631,"fifo":7632,"-----":7633,"ĠVA":7634,"Ġsched":7635,"laim":7636,"TypeError":7637,"194":7638,">\");":7639,"Ġoct":7640,"Non":7641,"117":7642,"Ġll":7643,"Ġfread":7644,"spac":7645,"Ġsimple":7646,"ValadocApi":7647,"Selection":7648,"PLUGIN":7649,"Writer":7650,"dynamic":7651,"ĠJNI":7652,"Ġcomponent":7653,"icle":7654,"VS":7655,"ĠMax":7656,"arena":7657,"CAT":7658,"abilities":7659,"ĠSend":7660,"ĠLDAP":7661,"restrict":7662,"ĠGLint":7663,"datatype":7664,"Ma":7665,"TERN":7666,"reo":7667,"anguage":7668,"xer":7669,"dg":7670,"Ġpower":7671,"aq":7672,"Ġdh":7673,"ELL":7674,"Ġfar":7675,"Ġdot":7676,"equ":7677,"OVER":7678,"Ġgui":7679,"Ġactually":7680,"\"(":7681,"Ne":7682,"entication":7683,"Ġut":7684,"Ġhid":7685,"ĠWR":7686,"npy":7687,"ĠSub":7688,"Ġtemporary":7689,"Container":7690,"amgi":7691,"Ġparallel":7692,"Ġinode":7693,"CPL":7694,"trap":7695,"optr":7696,"ĉĉĉĉĉ":7697,"@@@@":7698,"ERIC":7699,"ulation":7700,"Task":7701,"iver":7702,"Ġiss":7703,"uffix":7704,"bss":7705,"ocus":7706,"177":7707,"connected":7708,"icient":7709,"aaaa":7710,"yt":7711,"rk":7712,"FAST":7713,"cython":7714,"ĠNlm":7715,"Ġea":7716,"orth":7717,"ĠFUNC":7718,"COMMAND":7719,"grad":7720,"Ġperform":7721,"quality":7722,"Ġstrings":7723,"++);":7724,"Pa":7725,"XS":7726,"trunc":7727,"dirs":7728,"Ġlda":7729,"Zero":7730,"Ġroute":7731,"Ġquot":7732,"compression":7733,"expi":7734,"FIRST":7735,"GA":7736,"418":7737,"VT":7738,"needed":7739,"Ġexternal":7740,"cntl":7741,"arguments":7742,"quiet":7743,"Pop":7744,"mq":7745,"Ġklass":7746,"vio":7747,"glewGetProcAddress":7748,"mbuf":7749,"Ġpow":7750,"@@,&@@":7751,"generate":7752,"backtrace":7753,"Ġsomething":7754,"Ġcrc":7755,"ENC":7756,"pick":7757,"ĠWM":7758,"Head":7759,"Ġisc":7760,"Exec":7761,"Ġur":7762,"IPV":7763,"Ġmean":7764,"PyDict":7765,"kit":7766,":\");":7767,"Ġcases":7768,"ĠVer":7769,"BLE":7770,"spose":7771,"labels":7772,"ĠNM":7773,"EEK":7774,"Ġstorage":7775,"\"%":7776,"running":7777,"iph":7778,"ĠOther":7779,"Ġrblapack":7780,"Ġtim":7781,"ĠAST":7782,"/(":7783,"Ġ((!":7784,"vendor":7785,"ĠOPEN":7786,"what":7787,"structor":7788,"Ġ46":7789,"Blob":7790,"Ġ*);":7791,"ĠChar":7792,"Ġcollect":7793,"UNI":7794,"Ġmdio":7795,"actions":7796,"ĠSA":7797,"mediate":7798,"added":7799,"ince":7800,"Parameters":7801,"outbuf":7802,"Remove":7803,"@@)));":7804,"Generic":7805,"ĠEND":7806,"etype":7807,"ĠGValue":7808,"TOG":7809,"Ġmount":7810,"Ġtimestamp":7811,"ied":7812,"Ġless":7813,"terminal":7814,"visual":7815,"Ġinterval":7816,"ĠTry":7817,"965":7818,"ka":7819,"]\");":7820,"ibility":7821,"limb":7822,"actual":7823,"ĠMagick":7824,"Points":7825,"Ġcoeff":7826,"Ġsen":7827,"Counter":7828,"Ġden":7829,"extents":7830,"ider":7831,"COLUMN":7832,"Ġisn":7833,"228":7834,"Ġdiv":7835,"exact":7836,"plat":7837,"Ġmemcmp":7838,"ĠLAPACKE":7839,"Ġangle":7840,"reground":7841,"fft":7842,"cells":7843,"prior":7844,"Ġlayout":7845,"Ġfts":7846,"UTE":7847,"Layout":7848,"Ġstrncmp":7849,"Ġrdi":7850,"=\\\"%":7851,"bio":7852,"HashTable":7853,"ĠParse":7854,"218":7855,"Ġxx":7856,"HERE":7857,"Ġnegative":7858,"=((":7859,"Ġslice":7860,"Ġmet":7861,"datum":7862,"sparql":7863,"reduce":7864,"Ġvs":7865,"percent":7866,"Ġ'/')":7867,"129":7868,"xC":7869,"ĠPJ":7870,"bmp":7871,"Pref":7872,"partial":7873,"elper":7874,"Ġgap":7875,"DIG":7876,"Xml":7877,"TRANS":7878,"RTE":7879,"dif":7880,"rsa":7881,"Ġnetwork":7882,"math":7883,"OLD":7884,"definition":7885,"Pixmap":7886,"Ġcarry":7887,"psf":7888,"linux":7889,"Ġhalf":7890,"Driver":7891,"Ġ\"\\\"":7892,"support":7893,"PyArray":7894,"Com":7895,"pdata":7896,"QUE":7897,"EMPTY":7898,"Traceback":7899,"Ġ((((":7900,"Ġbar":7901,"Ġchannels":7902,"Io":7903,"CTED":7904,"Entity":7905,"COD":7906,"Ġprim":7907,"Ġaccount":7908,"ALPHA":7909,"abc":7910,"cho":7911,"sat":7912,"Ġinstall":7913,"ĠSF":7914,"SPECIAL":7915,">\"":7916,"ĠSLJIT":7917,"GDK":7918,"ETA":7919,"Eval":7920,"Ġonce":7921,"ories":7922,"Constant":7923,"Ġpages":7924,"25197":7925,"ding":7926,"Ġreferenced":7927,"ĠpObj":7928,"ĉĠĠ":7929,"rement":7930,"SYNC":7931,"Ġwp":7932,"ately":7933,"elif":7934,"337":7935,"sockopt":7936,"EXEC":7937,"870668":7938,"(&_":7939,"IME":7940,"ptrs":7941,"ĠPA":7942,"sorted":7943,"Ġgit":7944,"plVar":7945,"GP":7946,"Fill":7947,"Ġmost":7948,"175":7949,"erance":7950,"Ġ214748364":7951,"Ġflow":7952,"Connect":7953,"SOCKET":7954,"TOGGLE":7955,"Ġseed":7956,"Ġ<<=":7957,"cores":7958,"sta":7959,"Profile":7960,"ĠPT":7961,"Ġdescription":7962,"disc":7963,"Ġtuple":7964,"scall":7965,"stick":7966,"cw":7967,"Ġcontainer":7968,"Dig":7969,"ICE":7970,"Ġexact":7971,"CAN":7972,"Ġmarker":7973,"RIPT":7974,"Ġprogress":7975,">%":7976,"specific":7977,"Component":7978,"functions":7979,"imation":7980,"Ġide":7981,"ĠPetscErrorCode":7982,"Fan":7983,"Vi":7984,"ĠRT":7985,"+(":7986,"inder":7987,"DISPLAY":7988,"ĠHandle":7989,"VARREF":7990,"ftnlen":7991,"Ġwc":7992,"dirbuf":7993,"Ġglyph":7994,"Ġday":7995,"tempt":7996,"Stride":7997,"signals":7998,"Ġhtons":7999,"DEP":8000,"WANT":8001,"ĠĉĠĠĠĠĠĠĠĠĠ":8002,"Pool":8003,"AddTraceback":8004,"174":8005,"RIX":8006,"REGISTER":8007,"~~~~":8008,"Ġbc":8009,"hop":8010,"ngine":8011,"Argus":8012,"RS":8013,"ĠGener":8014,"CASE":8015,"Ġwhite":8016,"Ġ*>":8017,"Occurred":8018,"VERBOSE":8019,"ĠRemove":8020,"mnt":8021,"isual":8022,"strchr":8023,"ĠThank":8024,"Ġrand":8025,"Ġeina":8026,"Ġcalculate":8027,"restart":8028,"prepend":8029,"Old":8030,"Ġrtx":8031,"lr":8032,"ĠĠĠĠĠĠĠĠĠĠĠĠĠĠĠĠĠĠĠĠĠĠĠĠĠĠĠĠĠĠĠĠĠĠĠĠĠĠĠĠĠĠĠĠĠĠĠĠĠĠĠĠĠĠĠ":8033,"PIPE":8034,"Ġturn":8035,"LOBUS":8036,"sical":8037,"far":8038,"Ġecode":8039,"Ġmulti":8040,"VertexAttrib":8041,"lamp":8042,"Ġunexpected":8043,"ĠTIFF":8044,"Ġmc":8045,"@*/":8046,"GetAttrStr":8047,"Ġmi":8048,"126":8049,"169":8050,"Ġ4294967295":8051,"Ġfragment":8052,"shake":8053,"could":8054,"ULONG":8055,"Ġobjects":8056,"AXIS":8057,"INED":8058,"glGet":8059,"matic":8060,"'.":8061,"ĠNode":8062,"mtime":8063,"inity":8064,"113":8065,"213":8066,"Ctrl":8067,"Ġtex":8068,"320":8069,"once":8070,"toplevel":8071,"166":8072,"ever":8073,"DSP":8074,"lya":8075,"Response":8076,"Ġcycles":8077,"BI":8078,"anz":8079,"Ġdbg":8080,"Ġgnutls":8081,"packed":8082,"yes":8083,"ĠDX":8084,"ĠScm":8085,"238":8086,"Sym":8087,"fdata":8088,"unmap":8089,"Ġ\"*":8090,"UPDATE":8091,"hwnd":8092,"245":8093,"mpeg":8094,"URI":8095,".((":8096,"=-":8097,"icture":8098,"Ġrecur":8099,"cstr":8100,"AUTO":8101,"Ġrender":8102,"slen":8103,"Active":8104,"vma":8105,"ĠXmN":8106,")))_((":8107,"gu":8108,"unused":8109,"IGH":8110,"278":8111,"gettext":8112,"BOOLEAN":8113,"marshal":8114,"each":8115,"delim":8116,"FN":8117,"Ġexception":8118,"SHAD":8119,"PIXEL":8120,"ĠClose":8121,"completion":8122,"Ġsyslog":8123,"RV":8124,"Wait":8125,"Ġam":8126,"ĠCompute":8127,"Form":8128,"Empty":8129,"apping":8130,"trigger":8131,"Priv":8132,"angles":8133,"***":8134,"Ġti":8135,"hold":8136,"Ġfetch":8137,"interpret":8138,"ĠĉĉĉĊ":8139,"270":8140,"Ġ65536":8141,"Ġloaded":8142,"Ġ35":8143,"soft":8144,"Ġ108":8145,"589":8146,"pdu":8147,"SOL":8148,"ĠSHA":8149,"INSERT":8150,"ĠTREE":8151,"chat":8152,"erpc":8153,"80000000":8154,"Ġsel":8155,"ROLL":8156,"NELS":8157,"Ġbasic":8158,"Ġ(*(_":8159,"Ġgive":8160,"ĠDraw":8161,"sdp":8162,"ĠAPR":8163,"SEQ":8164,"jmp":8165,"ĠĉĉĉĉĉĉĠĠ":8166,"Ġmerge":8167,"uate":8168,"pj":8169,"420":8170,"Ġpointers":8171,"lw":8172,"GOTO":8173,"Ġcaller":8174,"ags":8175,"Ġnorm":8176,"157":8177,"ĠAr":8178,"coun":8179,"irc":8180,"fabs":8181,"Ġpartition":8182,"stdin":8183,"Ġdynamic":8184,"////////////////":8185,"cpntr":8186,"errstr":8187,"]=(":8188,"Ġtcg":8189,"Ġĉĉĉĉĉĉĉĉĉĉĉĉĉĉ":8190,"sdl":8191,"Ġmix":8192,"ĠNA":8193,"login":8194,"offsetof":8195,"Ġdataa":8196,"Ġstrtol":8197,"Validate":8198,"midi":8199,"789":8200,"Wh":8201,"Scan":8202,"slt":8203,"Ġbounds":8204,"Ġpayload":8205,"Ġblob":8206,"\"},":8207,"Ġvisible":8208,"wchar":8209,"Ġiv":8210,"122":8211,"Ġbottom":8212,"FOUND":8213,"Ġ///":8214,"ĠPoint":8215,"Ġ97":8216,"starpu":8217,"aving":8218,"egs":8219,"hdl":8220,"revision":8221,"LANG":8222,"Ġlarg":8223,"ĠOnly":8224,"cpus":8225,"je":8226,")->(":8227,"STEP":8228,"PREFIX":8229,"cing":8230,"parallel":8231,"rib":8232,"Ġcurrently":8233,"++@@":8234,"Ġwell":8235,"levels":8236,"ĠPRE":8237,"ĠxmlSec":8238,"Put":8239,"376":8240,"Ġcut":8241,"rase":8242,"Fo":8243,"Ġstrtok":8244,"Ġincrement":8245,"security":8246,",__":8247,"udd":8248,"Ġlives":8249,"Ġedx":8250,"Ġ1000000":8251,"ULE":8252,"135":8253,"Mutex":8254,"asl":8255,"Encoding":8256,"Ġhit":8257,"Ġ68":8258,"spectrum":8259,"Ġsep":8260,"Ġ(),":8261,"umb":8262,"ĠPa":8263,"Face":8264,"aged":8265,"Ġmemmove":8266,"loaded":8267,"Sound":8268,"Document":8269,");\\":8270,"ĠCS":8271,"ENV":8272,"INTR":8273,"ceiver":8274,"modes":8275,"ĠCont":8276,"same":8277,"Ġhi":8278,"aper":8279,"gpu":8280,"ĀĀĀĀ":8281,"anchor":8282,"Ġedit":8283,"DV":8284,"override":8285,"sse":8286,"flate":8287,"dbl":8288,"acb":8289,"ĠGS":8290,"take":8291,"Va":8292,"Ġioctl":8293,"Ġproblem":8294,"gy":8295,"Ġcompiler":8296,"Ġmt":8297,"FB":8298,"380":8299,"Ġtol":8300,"phys":8301,"dead":8302,"Ġsscanf":8303,"atio":8304,"Ġesl":8305,"Ġspeed":8306,"Rule":8307,"ĠSize":8308,"avp":8309,"Rate":8310,"TING":8311,"roma":8312,"Prop":8313,"Ġcg":8314,"Ġ/*@":8315,"ĠRO":8316,"Ġfact":8317,"TERM":8318,"Ġsim":8319,"ĠĠĠĠĠĠĠĠĠĠĠĠĠĠĠĠĠĠĠĠĠĠĠĠĠĠĠĠĠĠĠĠĠĠĠĠĠĠĠĠĠĠĠĠĠĠĠĠĠĠ":8320,"Ġvaladoc":8321,"Ġsuccessful":8322,"PETSc":8323,"required":8324,"TALLOC":8325,"Ġproperties":8326,"ably":8327,"irr":8328,"EG":8329,"ongoc":8330,"Ġmaster":8331,"nsur":8332,"formed":8333,"Decode":8334,"179":8335,"Ġproto":8336,"Enable":8337,"XmN":8338,"*)&":8339,"uler":8340,"minus":8341,"rename":8342,"voice":8343,"parsed":8344,"sibility":8345,"Stop":8346,"tlv":8347,"Ġreader":8348,"225":8349,"Ġ(!((":8350,"XGIVEREF":8351,"oll":8352,"Account":8353,"ĠBoolean":8354,"ĠGrB":8355,"orizont":8356,"Bitmap":8357,"EDIT":8358,"MALL":8359,"ĠSince":8360,"260":8361,"HD":8362,"Ġest":8363,"xA":8364,"ĠTA":8365,"steps":8366,"rchr":8367,"Interval":8368,"ration":8369,"Ġperm":8370,"ptype":8371,"ADDRESS":8372,"isspace":8373,"559":8374,"contig":8375,"ĠpP":8376,"workspace":8377,"Collection":8378,"overflow":8379,"(\"(%":8380,"voke":8381,"Engine":8382,"Ġrequires":8383,"multip":8384,"((((":8385,"@@!=":8386,"RAW":8387,"repeat":8388,"THIS":8389,"SEEK":8390,"compose":8391,"Ġforward":8392,"ĠLoad":8393,"\\\"]],":8394,"]];":8395,"Full":8396,"SLJIT":8397,"Safe":8398,"Ġ('":8399,"Ġdigits":8400,"0019":8401,"ĠConvert":8402,"Ġdestory":8403,"mmu":8404,"GRAM":8405,"Feature":8406,"nbytes":8407,"ĠTo":8408,"2056":8409,"NN":8410,"divid":8411,"Ġbi":8412,"TexCoord":8413,"rolled":8414,"hu":8415,"LOOP":8416,"listener":8417,"processor":8418,"Ġnn":8419,"Ġreco":8420,"libc":8421,"Ġanything":8422,"lnum":8423,"Ġrw":8424,"Shader":8425,"Ġdm":8426,"Ġclutter":8427,"DIT":8428,"ValaCode":8429,"ĠMe":8430,"ĠĠĠĠĠĠĠĠĠĠĠĠĠĠĠĠĠĠĠĠĠĠĠĠĠĠĠĠĠĠĠĠĠĠĠĠĠĠĠĠĠĠĠĠĠĠĠĠĠĠĠĠĠ":8431,"/**":8432,"WAIT":8433,".__":8434,"ĠDIS":8435,"Ġband":8436,"Ġai":8437,"RAN":8438,"LAPI":8439,"backup":8440,"ĠUInt":8441,"but":8442,"Ġtoka":8443,"sam":8444,"Ġstarting":8445,"sVar":8446,"Ġbeta":8447,"basename":8448,"mmap":8449,"DW":8450,"'ll":8451,"pam":8452,"dataset":8453,"MAG":8454,"386":8455,"ĠSer":8456,"ĠSTAT":8457,"ecx":8458,"fork":8459,"crn":8460,"changes":8461,"Ġ176":8462,"ĠGType":8463,"endar":8464,"Ġrval":8465,"Sol":8466,"Ġmanager":8467,"SERVICE":8468,"LV":8469,"Ġunlink":8470,"ĠluaL":8471,"instruction":8472,"raster":8473,"DBL":8474,"FONT":8475,"Ġsignature":8476,"qr":8477,"Ġfb":8478,"Ġmutex":8479,"Play":8480,"imize":8481,"Dispatch":8482,"zu":8483,"Ġlittle":8484,"methods":8485,"Ġvia":8486,"254":8487,"ĠOR":8488,"rules":8489,"Ġ168":8490,"480":8491,"Ġunicode":8492,"TARGET":8493,"Storage":8494,"DELETE":8495,"Ġlat":8496,"Ġgnc":8497,"184":8498,"omp":8499,"Sp":8500,"Ġcred":8501,"gdouble":8502,"oef":8503,"Dst":8504,"modify":8505,"standard":8506,"Ġ%-":8507,"214":8508,"RM":8509,"cmap":8510,"Ġfit":8511,"glob":8512,"tdb":8513,"Be":8514,"filtered":8515,"Ġkind":8516,"trust":8517,"lptr":8518,"GUI":8519,"intr":8520,"Ġ'+":8521,"Ġmapping":8522,"Ġstandard":8523,"lier":8524,"browser":8525,"NATIVE":8526,"Vtbl":8527,"Ġrestore":8528,"Ġtot":8529,"()\");":8530,"dered":8531,"pData":8532,"syslog":8533,"])->":8534,"oefs":8535,"Pe":8536,"ĠStat":8537,"bufsize":8538,"bridge":8539,"Ġslapi":8540,"Ġrl":8541,"buttons":8542,"ifp":8543,"ĠMM":8544,"race":8545,"scene":8546,"console":8547,"CURRENT":8548,"sence":8549,"003":8550,"netwib":8551,"Tmp":8552,"Identifier":8553,"Ġ99":8554,"Rectangle":8555,"lies":8556,"ĠSEXP":8557,"Ġrm":8558,"Ġpf":8559,"Volume":8560,"resid":8561,"156":8562,"ĠSEEK":8563,"Vars":8564,"Ġdetail":8565,"Ġpatch":8566,"wcs":8567,"flg":8568,"Ġcat":8569,"ĠVector":8570,"3456":8571,"facet":8572,"modified":8573,"ĠLoc":8574,"PD":8575,"lda":8576,"MY":8577,"clk":8578,"ĠCG":8579,"PAD":8580,"Ġseek":8581,"ĠXS":8582,"ENOENT":8583,"wa":8584,"ship":8585,"ested":8586,"Ġlikely":8587,"igraph":8588,"ĠĠĠĠĠĠĠĠĉ":8589,"paint":8590,"igen":8591,"dll":8592,"sqrt":8593,"assoc":8594,"pctxt":8595,"485":8596,"indx":8597,"Ġfoo":8598,"lade":8599,"Ġarr":8600,"Ġconstraint":8601,"prod":8602,"ĠQu":8603,"Ġfreq":8604,"304":8605,"Ġphy":8606,"vtab":8607,"Ġcard":8608,"Ġce":8609,"Ġ(*)(":8610,"\".":8611,"BYTES":8612,"outer":8613,"EPOSIT":8614,"ling":8615,"ĠNET":8616,"learn":8617,"247":8618,"nth":8619,"Ġpcb":8620,"globals":8621,"SELF":8622,"Mgr":8623,"imgdata":8624,"Ġ(!(@@":8625,"Ġremoved":8626,"ĠCHAR":8627,"Ġwx":8628,"preview":8629,"ĠGB":8630,"messages":8631,"ĠTEMP":8632,"GList":8633,"Ġ32768":8634,"topology":8635,"mtp":8636,"SED":8637,"'ve":8638,"ĠObject":8639,"slation":8640,"ĠSuccessful":8641,"Ġdecl":8642,"allowed":8643,"ĠPyDict":8644,"Ġcomb":8645,"Ġ500":8646,"lam":8647,"ulse":8648,"llegal":8649,"OURCE":8650,"sender":8651,"ĠBool":8652,"ism":8653,"duk":8654,"Tool":8655,"offs":8656,"ranges":8657,"strib":8658,"Ġarch":8659,"ĠUint":8660,"ĠFREE":8661,"SetError":8662,"*((":8663,"ĠParrot":8664,"INTERFACE":8665,"numeric":8666,"sts":8667,"SPEC":8668,"Ġtb":8669,"328":8670,"WORLD":8671,"Ġpending":8672,"Ġinitialized":8673,"YPTO":8674,"ĠCurrent":8675,"Protocol":8676,"ĠEXIT":8677,"Shape":8678,"rintf":8679,"Ġtimes":8680,"ĠAsn":8681,"ĠCOMP":8682,"Ġhd":8683,"ĠCF":8684,"entr":8685,"ConvertPtr":8686,"pbuf":8687,"addrs":8688,"Ġtransform":8689,"Ġwarn":8690,"Ġinclude":8691,"Ġgood":8692,"Ġshader":8693,"();}":8694,"Ġuses":8695,"ceeded":8696,"ĠĉĉĉĉĉĉĠĠĠ":8697,"coming":8698,"throw":8699,"namespace":8700,"BT":8701,"ĠPyMethod":8702,"extended":8703,"nic":8704,"datalen":8705,"6666":8706,"spath":8707,"ĠMD":8708,"ĠRC":8709,"ĠMY":8710,"jpeg":8711,"RW":8712,"lhs":8713,"Short":8714,"CANCE":8715,"asure":8716,"ĠSUB":8717,"baton":8718,"WT":8719,"orr":8720,"icro":8721,"UAL":8722,"(*(*(":8723,"propertylist":8724,"INA":8725,"SUPPORT":8726,"except":8727,"dword":8728,"coll":8729,"Ġlf":8730,"unable":8731,"268":8732,"Ġresultobj":8733,"Argument":8734,"Ġmonitor":8735,"BN":8736,"utation":8737,"ĠAd":8738,"visit":8739,"ences":8740,"Ġja":8741,"argvi":8742,"icator":8743,"ĠADD":8744,"ĠApp":8745,"VC":8746,"DOM":8747,"CONTENT":8748,"Ġspecific":8749,"lide":8750,"ĠEINVAL":8751,"999":8752,"ĠPetscInt":8753,"Down":8754,"Ġ\"=":8755,"incx":8756,"slash":8757,"ĠSa":8758,"Pair":8759,"commands":8760,"ĠET":8761,"BIND":8762,"Ġbuffers":8763,"Ġbaz":8764,"ĠValueError":8765,"Ġborder":8766,"using":8767,"Ġ'-')":8768,"{\"":8769,"1416":8770,"Mac":8771,"iy":8772,"ĠĠĠĠĠĠĠĠĠĠĠĠĠĠĠĠĠĠĠĠĠĠĠĠĠĠĠĠĠĠĠĠĠĠĠĠĠĠĠĠĠĠĠĠĠĠĠĠĠĠĠĠ":8773,"duce":8774,"Ġfun":8775,"iglit":8776,"orizontal":8777,"TAIL":8778,"Shell":8779,"OUS":8780,"FLT":8781,"argtuple":8782,"Ġshell":8783,"ACTIVE":8784,"Ġdaa":8785,"640":8786,"pull":8787,"ĠGSL":8788,"slab":8789,"strncasecmp":8790,"bindx":8791,"ogl":8792,"named":8793,"encoded":8794,"inherit":8795,"ĠLine":8796,"ĠpS":8797,"ĠCONFIG":8798,"196":8799,"Ġvnp":8800,"ĠDefault":8801,"Initial":8802,"Ġerrmsg":8803,"wrong":8804,"xfer":8805,"Ġtool":8806,"isdigit":8807,"Ġfac":8808,"adr":8809,"Ġtrunc":8810,"Req":8811,"Ġleading":8812,"4000":8813,"ĠTime":8814,"passwd":8815,"600":8816,"wire":8817,"Ġ(!_":8818,"Auto":8819,"Ġ58":8820,"nh":8821,"Ġchars":8822,"277":8823,"alert":8824,"renpy":8825,"Ġgu":8826,"EDED":8827,"critical":8828,"\")==":8829,"Ġgre":8830,"images":8831,"Ġ224":8832,"775":8833,"Mesh":8834,"NOTE":8835,"Ġdue":8836,"Ġ*(@@":8837,"collect":8838,"incip":8839,"131":8840,"creds":8841,"*\\":8842,"ĠOtherwise":8843,"algo":8844,"Exit":8845,"dirname":8846,"Ġfil":8847,"Ġdocument":8848,"Ġacpi":8849,"SAFE":8850,"Ġhad":8851,"Ġretrieve":8852,"Description":8853,"viewer":8854,"Ġder":8855,"Ġpin":8856,"lpVtbl":8857,"ĠDBUS":8858,"ĠRegister":8859,"...\\":8860,"rpntr":8861,"unce":8862,"dispose":8863,"Ġsnap":8864,"Ġrepresent":8865,"Ġfc":8866,"pls":8867,"erences":8868,"FOREACH":8869,"Ġcenter":8870,"vr":8871,"encil":8872,"most":8873,"Ba":8874,"allback":8875,"Ġstrip":8876,"ĠĠĠĠĠĠĠĠĠĠĠĠĊ":8877,"ĠHT":8878,"Ġbased":8879,"149":8880,"por":8881,"737":8882,"(\"#":8883,"surf":8884,"ĠPLAYBACK":8885,"Ġtls":8886,"RESOURCE":8887,"INITIAL":8888,"Ġetc":8889,"ParamSpec":8890,"black":8891,"hidden":8892,"Te":8893,"ĠWITH":8894,"Ġproper":8895,"XPath":8896,"CONNECTION":8897,"Ġes":8898,"feed":8899,"COR":8900,"Extra":8901,"Ġfast":8902,"VERIFY":8903,"conversion":8904,"ĠNE":8905,"bpp":8906,"Ġzend":8907,"Nodes":8908,"Ġgenerated":8909,"solve":8910,"FEATURE":8911,"Ġiterator":8912,"realm":8913,"258":8914,"Clip":8915,"clist":8916,"ĠDI":8917,"PED":8918,"Ġctrl":8919,"PATCH":8920,"ĠPAR":8921,"trees":8922,"Title":8923,"DEN":8924,"LON":8925,"gel":8926,"irect":8927,"LET":8928,"ValaDataType":8929,"Lenum":8930,"mach":8931,"pagate":8932,"Ġnbytes":8933,"Ġdepend":8934,"00104":8935,"imap":8936,"Ġinet":8937,"sigma":8938,"Dec":8939,"Ġaj":8940,"ĠLen":8941,"LIMIT":8942,"pTab":8943,"Ġexplicit":8944,"Ġ*));":8945,"\\'":8946,"Ġsuc":8947,"unset":8948,"Dump":8949,"ĠFD":8950,"++];":8951,"LOO":8952,"defaults":8953,"uting":8954,"prime":8955,"ĠSele":8956,"registry":8957,"Encode":8958,"ushort":8959,"Ġknown":8960,"Major":8961,"Ġgamgi":8962,"Ġgeneric":8963,"btn":8964,"Ġacb":8965,"Ġmultip":8966,"Ġroom":8967,"ĠSave":8968,"cpufreq":8969,"ĉĠ":8970,"Sys":8971,"extend":8972,"WO":8973,"215":8974,"Ġplane":8975,"SYN":8976,"tour":8977,"blank":8978,"Ġ180":8979,"ĠCan":8980,"Ġte":8981,"165":8982,"PyErr":8983,"Segment":8984,"Python":8985,"BIG":8986,"bufs":8987,"Ġnumbers":8988,"components":8989,"pvt":8990,"Ġgfc":8991,"Ġadv":8992,"></":8993,"gre":8994,"Ax":8995,"Ren":8996,"Ġusb":8997,"Ġsector":8998,"ases":8999,"Ġresp":9000,"capture":9001,"ĠArgus":9002,"ĠpNew":9003,"ERAL":9004,"Dev":9005,"Ġrr":9006,"Vert":9007,"ĠDisplay":9008,"Complex":9009,"Ġuc":9010,"Ġcorrespon":9011,"nop":9012,"nomial":9013,"Ġnotify":9014,"ade":9015,"ĠRETURN":9016,"Ġdu":9017,"istered":9018,"mooth":9019,"Ġdcerpc":9020,"Used":9021,"ATOM":9022,"alph":9023,"Ġunion":9024,"Ġradius":9025,"osen":9026,"nih":9027,"activ":9028,"Ġdlg":9029,"(\"-":9030,"Ġpadding":9031,"STY":9032,"Ph":9033,"Chars":9034,"Period":9035,"uation":9036,"ĠDele":9037,"ropy":9038,"Ġtw":9039,"2048":9040,"records":9041,"Ġcrypto":9042,"STOP":9043,"Condition":9044,"ĠImage":9045,"intel":9046,"ĠBuffer":9047,"(**":9048,"mlink":9049,"DTLS":9050,"toolbar":9051,"RGBA":9052,"GError":9053,"controls":9054,"pathname":9055,"ĠGLfloat":9056,"logical":9057,"Pattern":9058,"markup":9059,"dividual":9060,"msgs":9061,"Ġkeyword":9062,"obs":9063,"1088":9064,"packetbuf":9065,"anity":9066,"Ġgcc":9067,"asprintf":9068,"PID":9069,"sleep":9070,"mh":9071,"ppuVar":9072,"265":9073,"239":9074,"Ġir":9075,"ĠGLenum":9076,"defs":9077,"packets":9078,"1828":9079,"Ġchildren":9080,"HY":9081,"Ġlim":9082,"blend":9083,"ĠSW":9084,"ĠVER":9085,"Ġ**(_":9086,"ĠPKIX":9087,"RECORD":9088,"clause":9089,"memb":9090,"fz":9091,"Ġdom":9092,"ofp":9093,"Found":9094,"MAKE":9095,"cts":9096,"ĠGetLastError":9097,"isp":9098,"ĠTable":9099,"!<":9100,"Functions":9101,"Ġcop":9102,"145":9103,"crt":9104,"midref":9105,"Ġignored":9106,"Show":9107,"lain":9108,"Chunk":9109,"767":9110,"AddOp":9111,"Ġcast":9112,"ĠMo":9113,"Monitor":9114,"locks":9115,"Step":9116,"COMPLEX":9117,"ĠPORT":9118,"relative":9119,"une":9120,"),\"":9121,"Ġgeneral":9122,"resolution":9123,"retry":9124,"OPERATION":9125,"BY":9126,"360":9127,"199":9128,"uess":9129,"svc":9130,"Cancel":9131,"uture":9132,"MIX":9133,"ĠOPENSSL":9134,"Sum":9135,"@@'":9136,"@@~":9137,"modem":9138,"ĠAP":9139,"IPHER":9140,"REQUI":9141,"Ġ*/_":9142,"SEND":9143,"modules":9144,"Template":9145,"Ġ///<":9146,"FLAC":9147,"filters":9148,"Ġinside":9149,"fu":9150,"olute":9151,"salt":9152,"Ġmov":9153,"mixer":9154,"fold":9155,"Ġdims":9156,"CAR":9157,"UMP":9158,"ĠGLOBUS":9159,"ĠMT":9160,"Simple":9161,"Ġins":9162,"slave":9163,"Ġcompression":9164,"Vir":9165,"kl":9166,"Pri":9167,"tached":9168,"LOOPING":9169,"ĠDW":9170,"------------------------":9171,"vor":9172,"dma":9173,"ails":9174,"_@@);":9175,"lcpy":9176,"bbox":9177,"ker":9178,"GLenum":9179,"lists":9180,"Ġorc":9181,"ĠInter":9182,"ĠTESTINST":9183,"Only":9184,"Prog":9185,"Ġdigest":9186,"Ġslen":9187,"Ġtheir":9188,"Ġ*&":9189,"VdbeAddOp":9190,"Ġ(--":9191,"MER":9192,"308":9193,"who":9194,"stroke":9195,"utt":9196,"ĠHTT":9197,"eep":9198,"Ġwords":9199,"KERNELS":9200,"FULL":9201,"Operation":9202,"Raw":9203,"ffffffff":9204,"ĠGLE":9205,"IPS":9206,"credentials":9207,"contains":9208,"Policy":9209,"Ġswig":9210,"receive":9211,"ĠPG":9212,"ĠIF":9213,"elm":9214,"ali":9215,"ALLOW":9216,"Ġowner":9217,"Ġexplain":9218,"drawable":9219,"roken":9220,"Ġunused":9221,"SYM":9222,"DN":9223,"AML":9224,"JOB":9225,"Ġhp":9226,"ĠDis":9227,"ĠSc":9228,"ĠRTE":9229,"Ġhwloc":9230,"slots":9231,"ĠOutput":9232,"Dlg":9233,"zs":9234,"249":9235,"Ġ57":9236,"ĠTCL":9237,"Ġdr":9238,"Ġmatching":9239,"CELL":9240,"room":9241,"Ġvolatile":9242,"incipal":9243,"155":9244,"ĠPC":9245,"km":9246,"Ġops":9247,"Enabled":9248,"MEDIA":9249,"........":9250,"must":9251,"easy":9252,"ĠAll":9253,"SIX":9254,"segments":9255,"207":9256,"Ġelm":9257,"emy":9258,"UTLS":9259,").\\":9260,"Ġsuffix":9261,"execute":9262,"apture":9263,"Ġretstr":9264,"endpoint":9265,"XYZ":9266,"strbuf":9267,"Tcl":9268,"Ġfamily":9269,"ensor":9270,"Ġdatatype":9271,"ĠProcess":9272,"ench":9273,"colour":9274,"weights":9275,"Ġrelative":9276,"STYLE":9277,"Shift":9278,"ARE":9279,"].@@":9280,"did":9281,"sizei":9282,"scrolled":9283,"Ġstrrchr":9284,"MATRIX":9285,"smp":9286,"(\"__":9287,"Ġ102":9288,"Ġfm":9289,"transition":9290,"ĠGRN":9291,"analy":9292,"PyTupleObject":9293,"133":9294,"GH":9295,"Ġ92":9296,"gss":9297,"lop":9298,"Ġdrop":9299,"pkey":9300,"Ind":9301,"00105":9302,"ij":9303,"pyFAI":9304,"@@(":9305,"SETTING":9306,"symtab":9307,"Ġfork":9308,"umul":9309,"vided":9310,"cesses":9311,"Ġtransfer":9312,"bsp":9313,"143":9314,"queued":9315,"Ġbug":9316,"ĠYP":9317,"Signal":9318,"ĠOSP":9319,"Ġsollya":9320,"Ġregisters":9321,"Ġ95":9322,"EXIST":9323,"Ġhand":9324,"CRYPT":9325,"GSL":9326,"Got":9327,"atedeprec":9328,"0001":9329,"))_":9330,"memoryview":9331,"inbuf":9332,"187":9333,"sklearn":9334,"vv":9335,"pairs":9336,"Ġ208":9337,"kele":9338,"121":9339,"infos":9340,"ĠGLuint":9341,"Wrap":9342,"Ġalias":9343,">>>::":9344,"overlay":9345,"lz":9346,"Ġcond":9347,"Ġseen":9348,"pie":9349,"Ġ39":9350,"inal":9351,"Ġsx":9352,"ptrvalue":9353,"Game":9354,"library":9355,"increment":9356,"Ġ\"__":9357,"ĠATTR":9358,"LATE":9359,"Report":9360,"\\\":":9361,"ĠARM":9362,"Ġtid":9363,"Ġslurm":9364,"Ġclause":9365,"lut":9366,"hashtable":9367,"Ġ{-":9368,"ĠLL":9369,"ions":9370,"GetString":9371,"cessible":9372,"verts":9373,"THREADS":9374,"Ġsat":9375,"Ġ());":9376,"Ġcompat":9377,"WRAP":9378,"ĠIde":9379,"riend":9380,"Ġuip":9381,"Ġcluster":9382,"Ġ10000":9383,"Ġstra":9384,"bling":9385,"was":9386,"SAVE":9387,"trfs":9388,"TRA":9389,"unded":9390,"Ġhandled":9391,"Ġ---------------------------------":9392,"Ġadditional":9393,"Ġxmalloc":9394,"Ġarb":9395,"Ns":9396,"SUCCE":9397,"Ġcalls":9398,"DIAN":9399,"ACCE":9400,"*>":9401,"uintptr":9402,"Ġsound":9403,",\\":9404,"290":9405,"173":9406,"Ġ\"+":9407,"DONE":9408,"controller":9409,"Ġchecksum":9410,"Entries":9411,"Ġcalling":9412,"pwd":9413,"cptr":9414,"ISO":9415,"ĠMAT":9416,"sections":9417,"1111":9418,"Ġbucket":9419,"binop":9420,"Ġjni":9421,"ĠDM":9422,"Ġ59":9423,"sockaddr":9424,"email":9425,"Ġsuper":9426,"UNSUPPORTED":9427,"lias":9428,"symbols":9429,"Ġscroll":9430,"Ġscope":9431,"276":9432,"translate":9433,"ĠLP":9434,"Rb":9435,"Ġparsing":9436,"Dup":9437,"ifr":9438,"may":9439,"gv":9440,"alp":9441,"Script":9442,"retl":9443,"Ġ'=":9444,"hmm":9445,"Ġ-----------------------------------------------------------------":9446,"PROTOCOL":9447,"dfa":9448,"weak":9449,"Ġtrailing":9450,"TOOL":9451,"kk":9452,"Ġpic":9453,"327":9454,"ISH":9455,"uer":9456,"iop":9457,"ucs":9458,"Ġinner":9459,">>,":9460,"VOL":9461,"ĠCMD":9462,"Ġ84":9463,"216":9464,"envp":9465,"PLAYBACK":9466,"certificate":9467,"Ġ/*********************************":9468,"Restore":9469,"ĠWRITE":9470,"Ġcurve":9471,"370":9472,"SIGNED":9473,"LDAP":9474,"-(":9475,"Ġdisable":9476,"SCALE":9477,"Ġcommit":9478,"TACH":9479,"Ġ(&_":9480,"Ġyour":9481,"Ġpci":9482,"*)__":9483,"2653":9484,"intptr":9485,"ĠNe":9486,"Help":9487,"vdev":9488,"fq":9489,"Ġthreads":9490,"ROUND":9491,"Ġdtype":9492,"ĠAS":9493,"rng":9494,"apon":9495,"mpp":9496,"Ġminimum":9497,"CODING":9498,"bpntr":9499,"Ġmetadata":9500,"Ġfails":9501,"DestroyNotify":9502,"257":9503,"ĠMODE":9504,"mpling":9505,"Ġ'*":9506,"Hdr":9507,"nbr":9508,"mainder":9509,"Ġldap":9510,"Ġbackground":9511,"tbuf":9512,"Ġproduct":9513,"subtype":9514,"PERL":9515,"Ġboundary":9516,"SWAP":9517,"alculate":9518,"fff":9519,"244":9520,"Ġsepar":9521,"lsa":9522,"]].":9523,"motion":9524,"sequ":9525,"rwlock":9526,"Ġalgorithm":9527,"High":9528,"ĠWCHAR":9529,"ĠGParamSpec":9530,"ITS":9531,"Ġstmt":9532,"Ġln":9533,")!=":9534,"Ġcurl":9535,"Ġhtonl":9536,"some":9537,"ĠDelete":9538,"raid":9539,"219":9540,"14159":9541,"zer":9542,"Ġopa":9543,"DISABLE":9544,"ĠAs":9545,"329":9546,"ribe":9547,"capacity":9548,"DNS":9549,"Ġsg":9550,"chron":9551,"ĠGE":9552,"ĠGLEW":9553,"nor":9554,"ens":9555,"@@++,":9556,"Ġwhole":9557,"Ġ400":9558,"procs":9559,"ROL":9560,"RND":9561,"kd":9562,"pkg":9563,"Ġtypea":9564,"recs":9565,"Ang":9566,"Dy":9567,"aat":9568,"Fact":9569,"petsc":9570,"Ġren":9571,"Ġcolors":9572,"Ġsoft":9573,"ission":9574,"Ġtdesc":9575,"REL":9576,"185":9577,"OTHER":9578,"frac":9579,"Ġxstrdup":9580,"ĠMESSAGE":9581,"lena":9582,"Renderer":9583,"ĠAND":9584,"ĠpParse":9585,"IDX":9586,"fgets":9587,"PLACE":9588,"PetscObject":9589,"Ġretry":9590,"handles":9591,"Clock":9592,"avl":9593,"FLG":9594,"Ġau":9595,"lxc":9596,"mbox":9597,"logger":9598,"CEPT":9599,"Ġgz":9600,"MAJ":9601,"ĠObj":9602,"Member":9603,"ogg":9604,"reads":9605,"cluded":9606,"Ġerra":9607,"repos":9608,"EXTEN":9609,"applet":9610,"indptr":9611,"SIZ":9612,"ĠBAD":9613,"addresses":9614,"Ġ70":9615,"Swap":9616,"hc":9617,"Import":9618,"Ġ(?":9619,"Ġstp":9620,"croak":9621,"Ġear":9622,"Ġhardware":9623,"ndarray":9624,"Ġweb":9625,"WIB":9626,"uper":9627,"Ġsupp":9628,"Ġsusp":9629,"ĠWid":9630,"ĠHTTP":9631,"687":9632,"Ġwalk":9633,"GLX":9634,"havi":9635,"holder":9636,"REEN":9637,"Ġ*)(__":9638,"ĠPyList":9639,"lent":9640,"uby":9641,"ike":9642,"reclaim":9643,"ĠOp":9644,"PUB":9645,"Ġleaf":9646,"ĠCLA":9647,"378":9648,"deleted":9649,"PQ":9650,"@@[-":9651,"ĠFORCE":9652,"nu":9653,"ĠFix":9654,"tau":9655,")==(":9656,"gnore":9657,"((&":9658,"SING":9659,"ount":9660,"hosts":9661,"colormap":9662,"Ġwl":9663,"Bus":9664,"OPERAND":9665,"ird":9666,"Ġconflict":9667,"onts":9668,"GUID":9669,"pfn":9670,"Ġreceive":9671,"AE":9672,"Ġbetter":9673,"Prefix":9674,"kc":9675,"Ġavctx":9676,"Ġpanel":9677,"formats":9678,"Timer":9679,"alled":9680,"READWRITE":9681,"ĠSR":9682,"CU":9683,"ENDIAN":9684,")\";":9685,"fuse":9686,"Ġgcry":9687,"aptor":9688,"ĠVG":9689,"Ġntohl":9690,"ĠWhen":9691,"broadcast":9692,"BS":9693,"ĠSQR":9694,"Ġnx":9695,"Ġxfree":9696,"Ġhig":9697,"uu":9698,"RDONLY":9699,"Unexpected":9700,"Ġapplication":9701,"scii":9702,"ofday":9703,"CIPHER":9704,"BEDTLS":9705,"relation":9706,"ached":9707,"ili":9708,"tn":9709,"ĠCU":9710,"vtable":9711,"Ġtl":9712,"stk":9713,"erase":9714,"Ġexponent":9715,"css":9716,"slurm":9717,"Ġchecking":9718,"wav":9719,"!\",":9720,"Ġsizea":9721,"ĠHP":9722,"ym":9723,"246":9724,"xfree":9725,"echat":9726,"Ġ-(":9727,"gm":9728,"WH":9729,"runtime":9730,"RSA":9731,"rotate":9732,"jack":9733,"PART":9734,"Ġcompar":9735,"configure":9736,"land":9737,"ĠReset":9738,"204":9739,"+-":9740,"arrayo":9741,"synth":9742,"ĠOS":9743,"finished":9744,"near":9745,"DH":9746,"ĠPRINT":9747,"Ġntohs":9748,"Ġeverything":9749,"153":9750,")))(":9751,"Ġ{\\":9752,"umed":9753,"ĠSOCK":9754,"Ġ184":9755,"298":9756,"Ġextent":9757,"infile":9758,"positions":9759,"adget":9760,"joy":9761,"Ġpspec":9762,"urner":9763,"Network":9764,"Util":9765,"Own":9766,"ĠFROM":9767,"ĠPerl":9768,"Ġ++*(_":9769,"good":9770,"Ġclo":9771,"LEASE":9772,"Fmt":9773,"glyphs":9774,"fts":9775,"ATED":9776,"cross":9777,"keyboard":9778,"Ġcoun":9779,"284":9780,"Ht":9781,"ĠWS":9782,"endptr":9783,"Eina":9784,"163":9785,"DUK":9786,"ociated":9787,"IZED":9788,"Ġoffsetof":9789,"ĠpTab":9790,"ĠClear":9791,"SEARCH":9792,"Ġcare":9793,"ĠBLA":9794,"Score":9795,"plt":9796,"Ġrestart":9797,"REMOVE":9798,"Ġrg":9799,"Asn":9800,"Ġ-*":9801,"timeofday":9802,"Comment":9803,"ĠSOAP":9804,"subsc":9805,"zl":9806,"unpacking":9807,"ĠĠĠĠĠĊ":9808,"ĠLONG":9809,"JSON":9810,"ValaCCodeFunction":9811,"RAD":9812,"ĠIPMI":9813,"theta":9814,"Ġdisabled":9815,"MAJOR":9816,"boost":9817,"ĠMemory":9818,"syms":9819,"TypeInfo":9820,"Ġflat":9821,"8000":9822,"SZ":9823,"lude":9824,"Ġdataset":9825,"flt":9826,"INV":9827,"bufp":9828,"autoptr":9829,"atoms":9830,"ĠGObject":9831,"apsed":9832,"zName":9833,"sense":9834,"Ġtables":9835,");}}":9836,"priorities":9837,"extensions":9838,"236":9839,"ĠIGRAPH":9840,"uit":9841,"opc":9842,"Ġdeleted":9843,"VERT":9844,"sbuf":9845,"Ġtrigger":9846,"Ġ*\"\"'\");":9847,"mptr":9848,"PUSH":9849,"Ġmuch":9850,"journal":9851,"cdecl":9852,"Ġ___":9853,"ĠLocal":9854,"PECT":9855,"Ġsyntax":9856,".\"":9857,"209":9858,"ygon":9859,"Builder":9860,"crease":9861,"tection":9862,"Chain":9863,"mech":9864,"ĠEC":9865,"song":9866,"TRACT":9867,"Ġmagic":9868,"AAAA":9869,"ĠTRAN":9870,"GLuint":9871,"hest":9872,"Ġthreshold":9873,"llx":9874,"large":9875,"Ġbeginning":9876,"ĠCl":9877,"Filename":9878,"gnized":9879,"CY":9880,"BUR":9881,"resources":9882,"Ġaround":9883,"Ġperiod":9884,"JO":9885,"Lin":9886,"nabl":9887,"sprite":9888,"=(*":9889,"Unlock":9890,"PACKET":9891,"UTTER":9892,"osc":9893,"ccall":9894,"primitive":9895,"UA":9896,"ĠHI":9897,"limits":9898,"spre":9899,"voidvoid":9900,"matched":9901,"Ġanswer":9902,"Ġkbuf":9903,"HOOK":9904,"ngx":9905,"dhcp":9906,"Ġlt":9907,"Ġcaml":9908,"Ġcons":9909,"NDER":9910,"flip":9911,"COMBO":9912,"ural":9913,"progname":9914,"Ġpn":9915,"Ġcirc":9916,"rh":9917,"aj":9918,"abstract":9919,"FRA":9920,"65535":9921,"TMP":9922,"Ġreverse":9923,"ahead":9924,"blocking":9925,"uip":9926,"STER":9927,"ipp":9928,"Ġarc":9929,"Ġist":9930,"SQ":9931,"ĠWAR":9932,"spacing":9933,"Reply":9934,"caselptr":9935,"(\",":9936,"Ġhres":9937,"Ġ\"\\\\":9938,"sero":9939,"Ġpast":9940,"CERT":9941,"Ġentity":9942,"Properties":9943,"chunks":9944,"purple":9945,"links":9946,"fopen":9947,"Ġical":9948,"Ġgoing":9949,"ICAL":9950,"mods":9951,";},":9952,"Ġupdated":9953,"Common":9954,"],\"":9955,"USAGE":9956,"ĠFrame":9957,"SCAN":9958,"POP":9959,"]!=":9960,"caselptrlab":9961,"Alpha":9962,"Ġdidn":9963,"Ġfloor":9964,"INTERN":9965,"Ġwchar":9966,"269":9967,"EVP":9968,"bk":9969,"Ġlogical":9970,"Ġpx":9971,"Ġ\"../../../../":9972,"Conf":9973,"apd":9974,"Ġoffsets":9975,"00103":9976,"Ġbackend":9977,"ONENT":9978,"VARIANT":9979,"live":9980,"SCREEN":9981,"Caps":9982,"@@|":9983,"Ġ'#":9984,"Elements":9985,"259":9986,"ASK":9987,"Ġushort":9988,"ĠMUL":9989,"Ġjint":9990,"incy":9991,"100000000":9992,"Ġquad":9993,"para":9994,"Ġencoder":9995,"sky":9996,"netdev":9997,"Ġamd":9998,"Ġfinished":9999,"ĠESL":10000,"ĠPET":10001,"erate":10002,"Ġ49":10003,"SOR":10004,"fwd":10005,"Ġhdrl":10006,"Ygl":10007,"PARM":10008,"metrics":10009,"etree":10010,"spl":10011,"Stats":10012,"Ġstage":10013,"ini":10014,"bgp":10015,"Ġclosed":10016,"playlist":10017,"ValaCCodeExpression":10018,"Su":10019,"Ġcommands":10020,"AGAIN":10021,"PETSC":10022,"gmt":10023,"invert":10024,"Ġvery":10025,"pkcs":10026,"189":10027,"invocation":10028,"ASCII":10029,"ĠNAME":10030,"ĠglVertex":10031,"optional":10032,"removed":10033,"Ġ8192":10034,"ainst":10035,"MX":10036,"ĠpOp":10037,"ValaSymbol":10038,"Ġjj":10039,"Ġpcre":10040,"ĠTP":10041,"JA":10042,"Ġkill":10043,"Skip":10044,"Acc":10045,"ially":10046,"Tri":10047,"GRID":10048,"Ġgid":10049,"Ġbson":10050,"195":10051,"Ġchecks":10052,"ĠGAM":10053,"ĠIR":10054,"CHILD":10055,"Ġsha":10056,"ĉĉĉĉĉĉ":10057,"cil":10058,"cer":10059,"dlist":10060,"Ġ{@@":10061,"fake":10062,"Ġlc":10063,"Critical":10064,"354":10065,"ĠMatrix":10066,"Ġappropri":10067,"Ġ'@@":10068,"IDI":10069,"ĠEINA":10070,"Ġ66":10071,"ĠDATA":10072,"ĠLW":10073,"OpenGL":10074,"ĠConfig":10075,"Crypt":10076,"Ġgsize":10077,"manage":10078,"NR":10079,"ĠBE":10080,"ients":10081,"Ġcro":10082,"ĠBT":10083,"Ġrerr":10084,"Ġcaps":10085,"retty":10086,"allen":10087,"Ġstdin":10088,"ĠPRIu":10089,"SMALL":10090,"tracks":10091,"Ġmv":10092,"ĠAQ":10093,"under":10094,"SCROLL":10095,"variables":10096,"Enter":10097,"Ġwon":10098,"aries":10099,"Ġrem":10100,"sych":10101,"notification":10102,"MR":10103,"ĠSelect":10104,"ttl":10105,"linalg":10106,"oh":10107,"gray":10108,"ĠALL":10109,"Ġ00":10110,"Ġlapack":10111,"alsa":10112,"Ġunique":10113,"precated":10114,"Ġamount":10115,"decrypt":10116,"Ġ'_":10117,"************":10118,"MOV":10119,"Ġdk":10120,"Ġbra":10121,"bum":10122,"PAN":10123,"172":10124,"Ġretn":10125,"Folder":10126,"ĠTK":10127,"deg":10128,"323":10129,"neighbors":10130,"Ġ\"{":10131,"ymm":10132,"Ġoccur":10133,"ĠSQRADD":10134,"how":10135,"OCK":10136,"borg":10137,"Ġ*)&@@":10138,"CODER":10139,"inger":10140,"Ġthrow":10141,"illi":10142,"submit":10143,"platform":10144,")))){":10145,"Ġndim":10146,"Ġunsupported":10147,"Ġws":10148,"geo":10149,"tasks":10150,"Ġhook":10151,"iq":10152,"Ġscalar":10153,"(!(":10154,"Ġjs":10155,"umbn":10156,"235":10157,"NK":10158,"ELT":10159,"Ġnir":10160,"Ġworking":10161,"Ġquant":10162,"trim":10163,"Ġatspre":10164,"Ġ(~":10165,"ipc":10166,"Ġitself":10167,"flash":10168,"SUCCEEDED":10169,"BOT":10170,"608":10171,"Ġrev":10172,"aes":10173,"00108":10174,"pdev":10175,"zd":10176,"Ġprintk":10177,"preferences":10178,"ctp":10179,"ĠMPFR":10180,"emonic":10181,"00106":10182,"ERRNO":10183,"Random":10184,"Ġcompile":10185,"ĠVS":10186,"wand":10187,"ei":10188,"Hist":10189,"tevent":10190,"SEG":10191,"hb":10192,"prof":10193,"aud":10194,"ĠVK":10195,"nxt":10196,"Rep":10197,"RX":10198,"Ġpango":10199,"ĠPetscFunction":10200,"btree":10201,"Binary":10202,"prot":10203,"Ġ360":10204,"reached":10205,"kv":10206,"Ġshm":10207,"pnt":10208,"Ġcols":10209,"eds":10210,"ĠDetect":10211,"uts":10212,"gpg":10213,"csound":10214,"Slice":10215,"amera":10216,"Fu":10217,"Ġpartial":10218,"ĠFN":10219,"Ġidentifier":10220,"ĠFc":10221,"compar":10222,"206":10223,"IID":10224,"CATE":10225,"Database":10226,"ational":10227,"BIO":10228,"lexer":10229,"stit":10230,"aip":10231,"Ġthose":10232,"------":10233,")(*":10234,"Low":10235,"GG":10236,"phrase":10237,"ĠĉĉĉĉĉĉĠĠĠĠĠ":10238,"40000000":10239,"rav":10240,"ĠLength":10241,"AH":10242,"Ġdptr":10243,"Ġdesired":10244,"Ġ76":10245,"**)":10246,"ache":10247,"ĠGT":10248,"alive":10249,"declar":10250,"PROFILE":10251,"LICY":10252,"Geometry":10253,"mctx":10254,"_(*":10255,"Ġsymbols":10256,"pExpr":10257,"Ġready":10258,"Bl":10259,"ox":10260,"lvl":10261,"))(*(_":10262,"Ġspan":10263,"]).":10264,"closed":10265,"ised":10266,"configuration":10267,"ĠEina":10268,"dq":10269,"tools":10270,"Transaction":10271,"ĠAn":10272,"ĠBit":10273,"brush":10274,"Ġgetopt":10275,"realref":10276,"32768":10277,"uced":10278,"Ġbf":10279,"uffle":10280,"ators":10281,"Ġheaders":10282,"clud":10283,"ategy":10284,"eap":10285,"redirect":10286,"162":10287,"Coll":10288,"_@@,":10289,"Ġ4294967294":10290,"Geom":10291,"uta":10292,"ATI":10293,"Ġreloc":10294,"Ġgg":10295,"Ġdoublereal":10296,"Ġ248":10297,"NP":10298,"Ġatomic":10299,"IRO":10300,"Ġpdf":10301,"Ġentire":10302,"-------":10303,"Ġprimary":10304,"Ġavio":10305,"ono":10306,"ands":10307,"ĠGAsync":10308,"keleton":10309,"Ġhy":10310,"ndo":10311,"MAIL":10312,"tos":10313,"orientation":10314,"admin":10315,"ĠIPv":10316,"sun":10317,"ĠTk":10318,"408":10319,"preter":10320,"aia":10321,"ĠExpr":10322,"IZ":10323,".\";":10324,"tup":10325,"ĠInput":10326,"ORIENT":10327,"Ġprobably":10328,"Ġctdb":10329,"('\\":10330,"Application":10331,"Ġ101":10332,"Ġbd":10333,"uplo":10334,"widgets":10335,"ĠĠĠĠĠĠĠĠĠĠĠĠĠĠĠĠĠĠĠĠĠĠĠĠĠĠĠĠĠĠĠĠĠĠĠĠĠĠĠĠĠĠĠĠĠĠĠĠĠĠĠĠĠĠĠĠĠĠĠĠĠĠĠĠ":10336,"ddy":10337,"Cnt":10338,"serialize":10339,"ĠAc":10340,"forms":10341,"Ġenvironment":10342,"Ġsets":10343,"FW":10344,"hh":10345,"cover":10346,"ĠON":10347,"707":10348,"allenge":10349,"SEL":10350,"stp":10351,"lices":10352,"Ġstrcasecmp":10353,"keymap":10354,"ĠPETSC":10355,"vlan":10356,"Ġmodified":10357,"Ġmismatch":10358,"Ġimplemented":10359,"ATTACH":10360,"DEPTH":10361,"gz":10362,"integ":10363,"193":10364,"Origin":10365,"Ġxa":10366,"extr":10367,"SKIP":10368,"Ġoptional":10369,"Buff":10370,"Backend":10371,"zbx":10372,"rig":10373,"__@@;":10374,"DIM":10375,"Ġmouse":10376,"dark":10377,"scsi":10378,"detach":10379,"ĠCURL":10380,"icate":10381,"wide":10382,"snapshot":10383,"205":10384,"duplicate":10385,"Ġsid":10386,"ifies":10387,"++++":10388,"viewport":10389,"Ġecore":10390,"Ġcodec":10391,"floor":10392,"fprint":10393,"decoded":10394,"ĠIB":10395,"ĠMod":10396,"Ġgee":10397,"Couldn":10398,"pz":10399,".\"));":10400,"pW":10401,"ĠLE":10402,"Ġfgets":10403,"ĠMAKE":10404,"ĠHW":10405,"bis":10406,"Editor":10407,"Ok":10408,"dataptr":10409,"ĠFORCEINLINE":10410,"touch":10411,"det":10412,"Ġoptim":10413,"xattr":10414,"Ġfilt":10415,"reachable":10416,"Fra":10417,"CARD":10418,"DRAW":10419,"targets":10420,"expan":10421,"ACC":10422,"Ġcoordinates":10423,"busy":10424,"ĠDT":10425,"ValaList":10426,"229":10427,"Ġans":10428,"Ġdetect":10429,"Ġagainst":10430,"Ġadj":10431,"Cre":10432,"ĠQnil":10433,"Ġduplicate":10434,"oggle":10435,"CAIRO":10436,"ĠBase":10437,"ĠMeta":10438,"IDWORD":10439,"lick":10440,"tooltip":10441,"Ġencoded":10442,"corner":10443,"227":10444,"evt":10445,"Ġ!!":10446,"Rot":10447,"ostream":10448,"ĠStore":10449,"tern":10450,"Ġsaf":10451,"Ġspecify":10452,"Ġtor":10453,"Ġsignals":10454,"Ġconstruct":10455,"rerr":10456,"enumerator":10457,"Ġterminal":10458,"Ġpositive":10459,"POST":10460,"Ġsense":10461,"editable":10462,"bla":10463,"stuff":10464,"cluding":10465,"faces":10466,"pal":10467,"Ġdevices":10468,"1396":10469,"ROOT":10470,"Ġstrtoul":10471,"Ġoc":10472,"VERTEX":10473,"Ġcil":10474,"Ġsay":10475,"ITION":10476,"stand":10477,"ValaCodeNode":10478,"urpose":10479,"aterial":10480,"Ġwindows":10481,"spawn":10482,"noise":10483,"ĠArray":10484,"Ġlex":10485,")++;":10486,"Eh":10487,"ĠCA":10488,"ĠTSS":10489,"Ġarrays":10490,"requested":10491,"Ġedges":10492,"ĠBut":10493,"Av":10494,"CLOCK":10495,"])))":10496,"nonce":10497,"Ġnk":10498,"Ġwd":10499,"Ġspin":10500,"915":10501,"Flow":10502,"PKEY":10503,"ĠAp":10504,"161":10505,"Decoder":10506,"blocksize":10507,"108864":10508,"MANA":10509,"Ġdoing":10510,"Ġprevent":10511,"142":10512,"PROCESS":10513,"Green":10514,"MED":10515,"Ġpname":10516,"ulated":10517,"ĠCould":10518,"buckets":10519,"iate":10520,"ĠBe":10521,"Ġxy":10522,"141":10523,"rices":10524,"dip":10525,"subreq":10526,"Ġodd":10527,"argus":10528,"=\",":10529,"Instr":10530,"Ġxp":10531,"objp":10532,"gfx":10533,"SCHE":10534,"legate":10535,"POOL":10536,"tap":10537,"xE":10538,"Ġ(++":10539,"Ġ<%":10540,"Units":10541,"pstate":10542,"ĠER":10543,"ĠWARN":10544,"Ġhistory":10545,"ĠRed":10546,"hmac":10547,"ĠLOBYTE":10548,"noreturn":10549,"Ġnear":10550,"217":10551,"Signature":10552,"itr":10553,"Ġsolution":10554,"poch":10555,"Ġpoll":10556,"ĠĉĉĉĉĉĉĠĠĠĠ":10557,"sitory":10558,"XMM":10559,"Helper":10560,"ĠNOTE":10561,"LEM":10562,"ĠDevice":10563,"324":10564,"NTSTATUS":10565,"cms":10566,"\\\"%":10567,"connections":10568,"Ġlisten":10569,"cdb":10570,"ĠĉĠĠĊ":10571,"ĠLoop":10572,"808":10573,"hv":10574,"Ġfseek":10575,"279":10576,"ĠĠĠĠĠĠĠĠĠĠĠĠĠĠĠĠĠĠĠĠĠĠĠĠĠĠĠĠĠĠĠĠĠĠĠĠĠĠĠĠĠĠĠĠĠĠĠĠĠĠĠĠĠĠ":10577,"Ġtestcase":10578,"Ġchk":10579,"idden":10580,"Ġhb":10581,"CEPTION":10582,"Ġarm":10583,"CTP":10584,"237":10585,"Viewer":10586,"tained":10587,"DICT":10588,"rink":10589,"TRACK":10590,"ternal":10591,"ĠFR":10592,"cwd":10593,"GNUC":10594,"download":10595,"ĠoptIn":10596,"Ġexport":10597,"Ġmetr":10598,"ĠĠĠĠĠĠĠĠĠĠĠĠĠĠĠĠĠĠĠĠĠĠĠĠĠĠĠĠĠĠĠĠĠĠĠĠĠĠĠĠĠĠĠĠĠĠĠĠĠĠĠĠĠĠĠĠ":10599,"bri":10600,"caller":10601,"ĠOF":10602,"Pub":10603,"sized":10604,"repl":10605,"Ġvc":10606,"busb":10607,"Ġ390":10608,"DIV":10609,"Ġ43":10610,"tslibs":10611,"fla":10612,"nav":10613,"MAGIC":10614,"sfmt":10615,"tor":10616,"PARENT":10617,"aN":10618,"servers":10619,"anim":10620,"Ġ**__":10621,"Ġtbl":10622,"dash":10623,"ĠĉĉĠĠĠĠĠĠĠĠĠ":10624,"Ġvalidate":10625,"interrupt":10626,"Wnd":10627,"Lat":10628,"pgm":10629,"angular":10630,"Ġrenderer":10631,"resolved":10632,"Mdim":10633,"sane":10634,"chanism":10635,"rtc":10636,"Setting":10637,"Ġcertificate":10638,"anced":10639,"Ġgss":10640,"CRIT":10641,"Ġrgb":10642,"decimal":10643,"stype":10644,"should":10645,"aspect":10646,"226":10647,"ĠDEF":10648,"Ġschema":10649,"wards":10650,"HPI":10651,"SetItem":10652,"incr":10653,"launch":10654,"141592653":10655,"pBt":10656,"redraw":10657,"Ġattrs":10658,"Single":10659,",'":10660,"AVP":10661,"grow":10662,"Ġoid":10663,"Ġnog":10664,"inq":10665,"cube":10666,"IDirect":10667,"Files":10668,"TM":10669,"Ġlinebuf":10670,"Lit":10671,"Ġdv":10672,"ĠPyInt":10673,"getenv":10674,"ENABLED":10675,"183":10676,"boundary":10677,"Sql":10678,"equals":10679,"ĠOption":10680,"Jo":10681,"itable":10682,"Sm":10683,"Ġatt":10684,"Ġdsp":10685,"Ġblue":10686,"/@@":10687,"xpr":10688,"FromLong":10689,"echo":10690,"Ġlab":10691,"highlight":10692,"Gt":10693,"35928":10694,"Sn":10695,"ĠWHERE":10696,"Ġmedia":10697,"CODEC":10698,"Ġdes":10699,"YL":10700,"POLICY":10701,"finite":10702,"ĠIT":10703,"Ġsizes":10704,"Ġresid":10705,"ĠFill":10706,"algorithm":10707,"Ġattach":10708,"Ġexecute":10709,"erated":10710,"zzzz":10711,"Card":10712,"persona":10713,"isk":10714,"375":10715,"Ġyear":10716,"Cat":10717,"Ġpsz":10718,"&(":10719,"Frames":10720,"MANAGER":10721,"326":10722,"disabled":10723,"Ġpackets":10724,"VP":10725,"Ġ(\"/":10726,"addrinfo":10727,"TIMEOUT":10728,"ĠStatus":10729,"rack":10730,"men":10731,"segs":10732,"Ġatp":10733,"Ġ300":10734,"Qual":10735,"Ġinstr":10736,"428":10737,"Ġuncomp":10738,"Fn":10739,"PROXY":10740,"Ġao":10741,"zfs":10742,"USR":10743,"Ġ55":10744,"isa":10745,"ĠVT":10746,"Ġacl":10747,"escaped":10748,"pak":10749,"][@@":10750,"Ġlocale":10751,"ĠSome":10752,"ĠULONG":10753,"eo":10754,"Shared":10755,"Ġdimensions":10756,"ĠMessage":10757,"meth":10758,"crit":10759,"ĠMETA":10760,"ĠCount":10761,"Ġreached":10762,"=='":10763,"eol":10764,"dirent":10765,"frm":10766,"xcb":10767,"abet":10768,"58979":10769,"ĠMode":10770,"ppv":10771,"Mapping":10772,"ĠUser":10773,"ila":10774,"CONTIG":10775,"ĠSTATE":10776,"Ġmailbox":10777,"gem":10778,"TRI":10779,"YI":10780,"ioseq":10781,"You":10782,"Ġprepare":10783,"Fixed":10784,"35928559":10785,"Ġctl":10786,"ReleaseBuffer":10787,"ority":10788,"bolic":10789,")<<":10790,"stems":10791,"barrier":10792,"Ġhostname":10793,"xdrs":10794,"Ġvl":10795,"errs":10796,"Ġwaiting":10797,"350":10798,"Ġcorr":10799,"14159265358979":10800,"Ġlw":10801,"cord":10802,"eh":10803,"erson":10804,"subs":10805,"ĠpbVar":10806,"IMM":10807,"Ġoh":10808,"Ġdetected":10809,"BX":10810,"Done":10811,"thresh":10812,"201":10813,"BOOK":10814,"Ġ#\"":10815,"checked":10816,"idata":10817,"Ġdetails":10818,"Ġexample":10819,"Progress":10820,"Panel":10821,"irm":10822,"antic":10823,"absol":10824,"@@\"":10825,"Ġ|\\":10826,"panic":10827,"Ġ62":10828,"COMPONENT":10829,"444":10830,"Ġ'.')":10831,"chroma":10832,"undle":10833,"Prev":10834,"ĠGLsizei":10835,"Ġ---":10836,"Delta":10837,"ĠHash":10838,"446":10839,"ĠTOK":10840,"Ġmul":10841,"Ġqemu":10842,"Ġ216":10843,")(*(_":10844,"encies":10845,"xdata":10846,"Factory":10847,"Fetch":10848,"dptr":10849,"\")));":10850,"ĠCOM":10851,"NB":10852,"itches":10853,"ral":10854,"overlap":10855,"UOUS":10856,"NIL":10857,"UX":10858,"Constraint":10859,"META":10860,"lfd":10861,"opsis":10862,"TOM":10863,"263":10864,"335":10865,"Ġdiagonal":10866,"users":10867,"atterns":10868,"pause":10869,"ĠZSTD":10870,"acquire":10871,"ridge":10872,"Ġinteg":10873,"ĠText":10874,"Ġxl":10875,"ĠWin":10876,"RAX":10877,"erms":10878,"called":10879,"mpq":10880,"Fts":10881,"Ġ114":10882,"()),":10883,"selptr":10884,"ELEMENTS":10885,"fputs":10886,"Ġfolder":10887,"unregister":10888,"cdf":10889,"Ġmmap":10890,"www":10891,"xFFFFFFFFFFFF":10892,"locity":10893,"namelen":10894,"Ġleg":10895,"KS":10896,"Ġ(!__":10897,"ida":10898,"Ġvf":10899,"dset":10900,"Ġseparator":10901,"linesize":10902,"ĠSTRING":10903,"aggreg":10904,"Types":10905,"ĠSTART":10906,"UNIX":10907,"ĠNext":10908,"drm":10909,"quoted":10910,"Ġ\"\"\"":10911,"juta":10912,"Ġcipher":10913,"RDWR":10914,"absolute":10915,"Ġdirectly":10916,"bh":10917,"bosity":10918,"nfs":10919,"Note":10920,"Ġsptr":10921,"Ġdecoder":10922,"Success":10923,"nrow":10924,"pObj":10925,"TASK":10926,"velope":10927,"masked":10928,"Ġpick":10929,"ĠMAP":10930,"Ġmajor":10931,"STMT":10932,"prio":10933,"ĠpExpr":10934,"ĠPHP":10935,"IGNORE":10936,"Ġargvi":10937,"COLL":10938,"Ready":10939,"DEL":10940,"Ġappropriate":10941,"ious":10942,"frequency":10943,"BOUND":10944,"ony":10945,"565":10946,"\",(":10947,"nw":10948,"truncate":10949,"ggled":10950,"Ġeff":10951,"Failure":10952,"Scm":10953,"tdata":10954,"Ġbroadcast":10955,"qs":10956,"ibuf":10957,"Virtual":10958,"JNI":10959,"mad":10960,"osite":10961,"tet":10962,"WRIT":10963,"inside":10964,"Ġdelim":10965,"Ġparm":10966,"ATH":10967,"Ġimm":10968,"vir":10969,"Ġflt":10970,"atable":10971,"corr":10972,"Ġiteration":10973,"}\\":10974,"Delay":10975,".\"),":10976,"Ġcontig":10977,"00107":10978,"classes":10979,"@@++){":10980,"ValaExpression":10981,"ĠHow":10982,"Ġtty":10983,"ĠField":10984,"recall":10985,"pas":10986,"gpr":10987,"propagate":10988,"sources":10989,"Ġplan":10990,"Ġmodify":10991,"))((":10992,"spell":10993,"XXXX":10994,"cratch":10995,"Ġfront":10996,"Argtuple":10997,"RaiseArgtuple":10998,"RaiseArgtupleInvalid":10999,"Ġcblas":11000,"Ġgel":11001,"like":11002,"Ġpalette":11003,"Ġprovided":11004,"Ġbail":11005,"Ġoverride":11006,"ĠPix":11007,"Ġcompressed":11008,"OPTIONS":11009,"notep":11010,"338":11011,"Pad":11012,"Conn":11013,"Ġplot":11014,"Rows":11015,"POL":11016,"constraints":11017,"exe":11018,"vie":11019,"algos":11020,"ĠByte":11021,"FET":11022,"candidate":11023,"Ġquote":11024,"eration":11025,"atoi":11026,"tmpl":11027,"UNDEF":11028,"Ġ\"%*":11029,"mdim":11030,"urst":11031,"Ġlinear":11032,"ASH":11033,"photo":11034,"Ġmw":11035,"ĠHeap":11036,"8859":11037,"Product":11038,"PRIu":11039,"LAN":11040,"ĠGtkTreeIter":11041,"namea":11042,"Ġrecords":11043,"Fanin":11044,"rss":11045,"additional":11046,"Ġwave":11047,"Ġndr":11048,"CFunction":11049,"ValueError":11050,"cbuf":11051,"tg":11052,"Rowid":11053,"see":11054,"SOUND":11055,"Ġadios":11056,"Ġask":11057,"ĠMult":11058,"umbnail":11059,"Pk":11060,"Ġnamespace":11061,"ĠtraceGL":11062,"151":11063,"Ġpublic":11064,"OPE":11065,"ĠCalculate":11066,"rash":11067,"@@*\\@@":11068,"ught":11069,"pubkey":11070,"erament":11071,"80808080":11072,"POW":11073,"inx":11074,"ĠWORD":11075,"Ġ{\"\",":11076,"Ġ132":11077,"}\",":11078,"ĠMAC":11079,"033":11080,"Poly":11081,"Ġ2056":11082,"Ġwriter":11083,"TAB":11084,"ecc":11085,"DYN":11086,"Ġchosen":11087,"pV":11088,"Ġpat":11089,"Ġharp":11090,"ĠXtSet":11091,"temperament":11092,"Ġtags":11093,"Ġreta":11094,"355":11095,"Ġ67":11096,"Ġhbox":11097,"Ġcookie":11098,"hf":11099,"qt":11100,"Light":11101,"Ġdbl":11102,"Ġthings":11103,"cryption":11104,"given":11105,"xFFFFFF":11106,"histogram":11107,"traceGL":11108,"coeffs":11109,"cname":11110,"nk":11111,",_":11112,"Ġunless":11113,"GPR":11114,"PW":11115,"SUR":11116,"Ġthing":11117,"vtx":11118,"logfile":11119,"clusive":11120,"grn":11121,"sembly":11122,"ĠTLS":11123,"mpfr":11124,"members":11125,"Ġsleep":11126,"MUTEX":11127,"Rad":11128,"Ġbm":11129,"eArgError":11130,"Ah":11131,"Ġrather":11132,"(\"(":11133,"GLONG":11134,"ĠDebug":11135,"LAYER":11136,"ftmp":11137,"modifier":11138,"ival":11139,"289":11140,"ĠRND":11141,"ĠCUR":11142,"ĠpNtk":11143,"deps":11144,"axes":11145,"too":11146,"ĠPetscFunctionReturn":11147,"startup":11148,"Ġnogil":11149,"ĠEd":11150,"ĠBFD":11151,"mnemonic":11152,"verb":11153,"GRESS":11154,"clients":11155,"come":11156,"dian":11157,"ickness":11158,"Cu":11159,"qi":11160,"slider":11161,"Ġdiscard":11162,"MISC":11163,"VIS":11164,"ĠFS":11165,"Ġrequire":11166,"SURE":11167,"plugins":11168,"LEND":11169,"ĠMap":11170,"Ġcounts":11171,"Ġgreater":11172,"ĠEXTER":11173,"exponent":11174,"__\",":11175,"cogl":11176,"fwrite":11177,"Ġescape":11178,"deinit":11179,"UGH":11180,"Split":11181,"RENDER":11182,"Ġenter":11183,"307":11184,");;":11185,"ĠPY":11186,"214748364":11187,"mapho":11188,"Body":11189,"Ġifdef":11190,"(\"\");":11191,"Ġresolve":11192,"Ġ\"'":11193,"ĠState":11194,"Information":11195,"ĠVdbe":11196,"Ġ*/\\":11197,"eto":11198,"Ġjoin":11199,"Ġsecret":11200,"entral":11201,"@@(@@":11202,"ĠMove":11203,"Ġlanguage":11204,"ĠGVariant":11205,"ording":11206,"ĠFunction":11207,"lh":11208,"Ġcorresponding":11209,"STARPU":11210,"composite":11211,"SPI":11212,"]++;":11213,"Named":11214,"Ġmongoc":11215,"marks":11216,"Ġ*********************************":11217,"ENU":11218,"fy":11219,"SHOW":11220,"Ġwpls":11221,"Ġinp":11222,"Uni":11223,"ANGLE":11224,"Dimension":11225,"Ġcached":11226,"streq":11227,"ĠTPM":11228,"pout":11229,"smart":11230,"urther":11231,"cups":11232,"zy":11233,"prag":11234,"firm":11235,"MenuItem":11236,"\",*(":11237,"rimeaddr":11238,"advance":11239,"dpi":11240,"fld":11241,"compatible":11242,"going":11243,"ĠColor":11244,"ĠpA":11245,"Ġwatch":11246,"hot":11247,"needs":11248,"Ġabsolute":11249,"SafeReleaseBuffer":11250,"ively":11251,"ĠTCP":11252,"GDestroyNotify":11253,"Ġcustom":11254,"@@=(":11255,"Ġnz":11256,"]=='":11257,"solver":11258,"REFER":11259,"__[":11260,"cvt":11261,"colon":11262,"Ġpercent":11263,"maximum":11264,"Initialize":11265,"191":11266,"mpd":11267,"mediately":11268,"GLH":11269,"Ġouter":11270,"Fc":11271,"Ġsorted":11272,"lengths":11273,"Ġengine":11274,"ĠFormat":11275,"USB":11276,"Ġxsh":11277,"Ġucs":11278,"ĠSP":11279,"ĠHGOTO":11280,")\"))":11281,"rapped":11282,"valadoc":11283,"created":11284,"rcv":11285,"CNT":11286,"Ġalt":11287,"Ġquick":11288,"__@@);":11289,"operands":11290,"Listener":11291,"recovery":11292,"Ġunits":11293,"ĠTAG":11294,"Ġgets":11295,"menuitem":11296,"Switch":11297,"Ġlv":11298,"fab":11299,"treeview":11300,"pq":11301,"Rygel":11302,"Ġ'@":11303,"Ġgv":11304,"Ġdf":11305,"344":11306,"PyLong":11307,"Ġelt":11308,"varid":11309,"istic":11310,"BINARY":11311,"Codec":11312,"assertion":11313,"iser":11314,"argname":11315,"toggled":11316,"VL":11317,"planes":11318,"Ġtranslate":11319,"ECC":11320,"jb":11321,"ticks":11322,"pbVar":11323,"ALT":11324,"moving":11325,"selptrset":11326,"SIC":11327,"discard":11328,"notepitches":11329,"Ġgi":11330,"when":11331,"Ġcost":11332,"amount":11333,"ĠDV":11334,"Ġly":11335,"WE":11336,"Ġvectors":11337,"Ġaligned":11338,"Ġconnected":11339,"balance":11340,"Ġhtml":11341,"Blocks":11342,"zed":11343,"__@@":11344,"ĠAD":11345,"HEIGHT":11346,"uG":11347,"POLL":11348,"endp":11349,"Cblas":11350,"Weight":11351,"xmlChar":11352,"Ġtrying":11353,"Ġparsed":11354,"notes":11355,"22337":11356,"Ġiov":11357,"SUM":11358,"ORIZ":11359,"pfd":11360,"Ġbufsize":11361,"Effect":11362,"VID":11363,"oS":11364,"IMPL":11365,"Flush":11366,"Ġ</":11367,"ĠSig":11368,"dof":11369,"===":11370,"decompress":11371,"+-+-":11372,"feat":11373,"ĠEL":11374,"PCM":11375,"Ġreserved":11376,"sectors":11377,"usted":11378,"Nr":11379,"revent":11380,"handled":11381,"CANCEL":11382,"Ġferr":11383,"Ġreads":11384,"Ġtick":11385,"PyArrayObject":11386,"67108864":11387,"GNUNET":11388,"](":11389,"Ġworld":11390,"@@)),":11391,"uses":11392,"FIER":11393,"iterate":11394,"gps":11395,"ncat":11396,"izing":11397,"fixnum":11398,"Ġcreating":11399,"idl":11400,"Tile":11401,"Ġtokens":11402,"Ġpred":11403,"Decl":11404,"Ġ'-'":11405,"Ġstar":11406,"anks":11407,"vx":11408,"Ġfits":11409,"Statement":11410,"Ġtcase":11411,"stri":11412,"coda":11413,"Details":11414,"mdb":11415,"general":11416,"2233720":11417,"Ġ110":11418,")__":11419,"reload":11420,"hyper":11421,"esPrint":11422,"mysql":11423,"fat":11424,"ĠWait":11425,"Ġunix":11426,"APPEND":11427,"Ġsupplied":11428,"RESOL":11429,"Des":11430,"STRINGS":11431,"OD":11432,"Primitive":11433,"MISS":11434,"Ġconstraints":11435,"ĉĉĉĉĉĉĉ":11436,"maxlen":11437,"ĠSM":11438,"CONTIGUOUS":11439,"EFEF":11440,"Ġlibuna":11441,"Ġsynopsis":11442,"ĠFLAC":11443,"ĠURL":11444,"jcr":11445,"ĠUni":11446,"cbf":11447,"ĠSD":11448,"rant":11449,"Missing":11450,"ĠINFO":11451,"Ġsequ":11452,")>>":11453,"PRIM":11454,"pPager":11455,"ĠAig":11456,"Ġ122":11457,"Ġiso":11458,"Factor":11459,"PKCS":11460,"bunch":11461,"principal":11462,"Ġgrp":11463,"accum":11464,"Ġcontaining":11465,"Ġfid":11466,"recent":11467,"Ġvirt":11468,"Ġaf":11469,"Ġgreen":11470,"Ġlibcdata":11471,"yymsp":11472,"Ġmiddle":11473,"theEnv":11474,"SANE":11475,"309":11476,"PNG":11477,"clipboard":11478,"Ġsane":11479,"ĠDNS":11480,"Ġduration":11481,"ues":11482,"pane":11483,"Ġchoice":11484,"cov":11485,"via":11486,"ĠHANDLE":11487,"Ġfloating":11488,"Hint":11489,"negative":11490,"310":11491,"Ġ'>":11492,"Owner":11493,"Ġminor":11494,"ĠNEW":11495,"perim":11496,"csr":11497,"irror":11498,"ĠthA":11499,"@@.\",":11500,"Cmp":11501,"3238":11502,"pNew":11503,"Ġ>::":11504,"Ġplus":11505,"345":11506,"ĠGSList":11507,"fread":11508,"Ġlight":11509,"Ġparallella":11510,"==(":11511,"cmds":11512,"OST":11513,"Ġ':')":11514,"Ġliteral":11515,"Ġ41":11516,"Ġ54":11517,"Ġcontact":11518,"rdp":11519,"SENT":11520,"Ġuuid":11521,"preproc":11522,"mesg":11523,"Ġtxn":11524,"cmpint":11525,"NPY":11526,"Ġinvoke":11527,"36854":11528,"Ġcms":11529,"sparent":11530,"RESET":11531,"cntr":11532,"uf":11533,"wall":11534,"_##":11535,"meter":11536,"Ġgroups":11537,"ĠAJ":11538,"DOUT":11539,"Ġimap":11540,"WY":11541,"GetLastError":11542,"errup":11543,"LZ":11544,".\\@@":11545,"ĠAddress":11546,"709":11547,"Ġlambda":11548,"223372036854":11549,"ĠClutter":11550,"gov":11551,"ĠIop":11552,"Buffers":11553,"Ġstarpu":11554,"Basic":11555,"dsc":11556,"semble":11557,"Ġnump":11558,"zval":11559,"Ġipv":11560,"Ġxc":11561,"ĠGNUTLS":11562,"Ato":11563,"elle":11564,"DECLA":11565,"InitFunc":11566,"finfo":11567,"xmin":11568,"Ġ!_":11569,"Ġnewa":11570,"Ġaddresses":11571,"CV":11572,"recognized":11573,"xform":11574,"toc":11575,"Ġproject":11576,"Ġlm":11577,"LK":11578,"Ġ)(":11579,"series":11580,"ĠCAML":11581,"305":11582,"fallback":11583,"tunnel":11584,"Channels":11585,"203":11586,"sms":11587,"@@>=":11588,"Ġaway":11589,"spot":11590,"gent":11591,"Ġblack":11592,"ello":11593,"hx":11594,"Ġ2147483648":11595,"'},":11596,"171":11597,"vy":11598,"Scheme":11599,"ildcard":11600,"Ġlon":11601,"Ġusername":11602,"spe":11603,"ndup":11604,"Ġshadow":11605,"Ġchecked":11606,"READY":11607,"ĠĉĉĉĉĉĉĉĠ":11608,"PyList":11609,"ropped":11610,"PKT":11611,"pfile":11612,"alarm":11613,"ĠSIZEOF":11614,"291":11615,"transmit":11616,"mtu":11617,"Ġ140":11618,"Ġ(((*":11619,"tst":11620,"UME":11621,"ĠBad":11622,"802":11623,"ĠBuild":11624,"Ġraid":11625,"Self":11626,"Ġeth":11627,"anop":11628,"Ġnone":11629,"clr":11630,"Ġdrv":11631,"00102":11632,"Ġ#%":11633,"Ġaccel":11634,"Ġzip":11635,"Export":11636,"oked":11637,"POSITION":11638,"283":11639,"Folks":11640,"CharPtr":11641,"Ġrepeat":11642,"resume":11643,"Ġmdb":11644,"Toggle":11645,"ĠCT":11646,"drawing":11647,"Ġsrv":11648,"pango":11649,"Finalize":11650,"Ġvertices":11651,"SIM":11652,"ess":11653,"ĠClient":11654,"367":11655,"JS":11656,"polyg":11657,"psi":11658,"Ġidesc":11659,"zeros":11660,"tiff":11661,"Ġ'/'":11662,"CONSTANT":11663,"xB":11664,"prom":11665,"Ġmutt":11666,"Ġarena":11667,"ĠSv":11668,"QUEUE":11669,"atedeprecatedeprec":11670,"Ġ16384":11671,"ASL":11672,"Ġ126":11673,"Ġste":11674,"*)(*((":11675,"foreground":11676,"ĠFFT":11677,"Ġmaybe":11678,"233":11679,"Ctxt":11680,"ĠMark":11681,"stor":11682,"ĠOffset":11683,"team":11684,"OOD":11685,"DUP":11686,"guest":11687,"ctime":11688,"ulus":11689,"pcap":11690,"sian":11691,"Ġeb":11692,"Fh":11693,"ATA":11694,"Ġlarger":11695,"resolver":11696,"mbs":11697,"caddr":11698,"\":\"":11699,"Ġassociated":11700,"intra":11701,"389":11702,"00109":11703,"Ġneighbor":11704,"started":11705,"calls":11706,"ĠCode":11707,"Ġ150":11708,"Ġjpeg":11709,"ilar":11710,"igure":11711,"SLOT":11712,"ĠBR":11713,"ĠMB":11714,"coded":11715,"Ġ39048":11716,"sasl":11717,"Angle":11718,"xmax":11719,"231":11720,"Glyph":11721,"pname":11722,"182":11723,"Ġadvance":11724,"ĠCogl":11725,"hdc":11726,"SSH":11727,"960":11728,"SPECIALBLOCK":11729,"unexpected":11730,"Items":11731,"ĠNORM":11732,"286":11733,"newline":11734,"Ġoverlap":11735,"YIELD":11736,"resultobj":11737,"freedesktop":11738,"PAIR":11739,"JUST":11740,"80211":11741,"Ġexceed":11742,"SIP":11743,"WAYS":11744,"Ġdatal":11745,"Ġml":11746,")=":11747,"]={":11748,"Ġfw":11749,"thunk":11750,"abb":11751,"ĠCD":11752,"ĠDIR":11753,"Ġworker":11754,"ĠCLI":11755,"Ġmonth":11756,"223":11757,"299":11758,"Ġ98":11759,"306":11760,"Nb":11761,"hz":11762,"ication":11763,"Ġanyway":11764,"ORIENTATION":11765,"Ġpam":11766,"NETWIB":11767,"Ġdaemon":11768,"202":11769,"Ġ105":11770,"Ġ*/->":11771,"maphore":11772,"nsure":11773,"Gui":11774,"comps":11775,"Ġvars":11776,"Ġmaxlen":11777,"Ġadding":11778,"utilities":11779,"ĠSYS":11780,"Ġspaces":11781,"periment":11782,"Ġsubject":11783,"GM":11784,"Ġgda":11785,"550":11786,"sav":11787,"293":11788,"lif":11789,"ĠId":11790,"lens":11791,"SSE":11792,"Ġ*)(&":11793,"dname":11794,"Diff":11795,"Ġnewline":11796,"Ġuserdata":11797,"()));":11798,"ĠLIST":11799,"181":11800,"chn":11801,"ĠMBEDTLS":11802,"GINE":11803,"steal":11804,"Ġdegree":11805,"ĠpFile":11806,"399":11807,"strconcat":11808,"777":11809,"embed":11810,"datetime":11811,"crop":11812,"dock":11813,"spool":11814,"ALG":11815,"Fd":11816,"gene":11817,"Ġequ":11818,"Ġoutside":11819,"MODI":11820,"multiple":11821,"Ġcanon":11822,"anning":11823,"Ġgdbarch":11824,"upd":11825,"Ġeps":11826,"catch":11827,"Ġjournal":11828,"Digest":11829,"mbed":11830,"sysfs":11831,"Ġeq":11832,"Exact":11833,"filt":11834,"ĠOper":11835,"STATS":11836,"ĠplVar":11837,"Ġfds":11838,"Ġcycle":11839,"Ġopaque":11840,"reject":11841,"SHADER":11842,"osition":11843,"ĠWidget":11844,"Ġunlock":11845,"397":11846,"variance":11847,"Ġpositions":11848,"sibling":11849,"DOC":11850,"@@)[":11851,"memviewslice":11852,"foot":11853,"ĠNL":11854,"Ġprompt":11855,"Ġ77":11856,"Ġboard":11857,"els":11858,"Ġcancellable":11859,"Provider":11860,"Timeout":11861,"terminate":11862,"['":11863,"ĠAcpi":11864,"handshake":11865,"vn":11866,"lval":11867,"lout":11868,"rotation":11869,"OpenGLFunctions":11870,"BM":11871,"Ġart":11872,"sider":11873,"Ġstates":11874,"ĠTS":11875,"astat":11876,"rcpt":11877,"ĠNet":11878,")%":11879,"latency":11880,"mw":11881,"Each":11882,"pdb":11883,"325":11884,"Ġimmediately":11885,"Datum":11886,"secure":11887,"Ġfaila":11888,"VR":11889,"LR":11890,"Scroll":11891,"ntfs":11892,"Ġregular":11893,"GetModule":11894,"Ġdispatch":11895,"RELEASE":11896,"Ġregex":11897,"XEXP":11898,"sembler":11899,"Ġdebugstr":11900,"ĠSER":11901,"383":11902,"Ġdeclar":11903,"Quant":11904,"days":11905,"Ġvtk":11906,"287":11907,"Ġphp":11908,"aystack":11909,"GSList":11910,"Ġstarted":11911,"bfio":11912,"Disable":11913,"EGRO":11914,"ABORT":11915,"Ġ\"</":11916,"ĠFC":11917,"ĠENABLE":11918,"solid":11919,"stalin":11920,"Ġoperations":11921,"Ġ::=":11922,"hib":11923,"Ġlz":11924,"303":11925,"ĠĉĉĠĠĠĠĠĠĠ":11926,"ĠSWIGINTERN":11927,"Ġargvector":11928,"ermine":11929,"etc":11930,"Ġ61":11931,"udev":11932,"Ġcounta":11933,"Ġlob":11934,"dimensions":11935,"Ġmkexpr":11936,"ĠQOpenGLFunctions":11937,"Ġopening":11938,"Ġny":11939,"trig":11940,"eax":11941,"Ġasm":11942,"Ġopened":11943,"regno":11944,"snmp":11945,"Ġgretl":11946,"Ġgamma":11947,"ĠOT":11948,"ĠIgnore":11949,"fsm":11950,"Ġmapped":11951,"fraction":11952,",((":11953,"Ġpackage":11954,"rela":11955,"ĠRGB":11956,"crtc":11957,"Ġatof":11958,"666":11959,"ĠGdkEvent":11960,"141592653589793238":11961,"MLS":11962,"560":11963,"pseudo":11964,"Ġospf":11965,"ĠDC":11966,"evas":11967,"Ġfrag":11968,"ĠSQRADDAC":11969,"Ġ53":11970,"Iop":11971,"Locale":11972,"ĠDECL":11973,"Pin":11974,"Ġqsort":11975,"relocs":11976,"CFG":11977,"ĠĠĠĠĉ":11978,"sexp":11979,"Library":11980,"exclude":11981,"ATT":11982,"NOR":11983,"ifname":11984,"Ġrpc":11985,"syscall":11986,"gradient":11987,"tgt":11988,"rend":11989,"ĠMENU":11990,":\"":11991,"NOP":11992,"Cal":11993,"Pi":11994,"Ġ(!*":11995,"Changed":11996,"Lines":11997,"Std":11998,"DUMP":11999,"ansinton":12000,"Ġstarts":12001,")))))":12002,"Ġstub":12003,"ĠRNA":12004,"protect":12005,"ĠEvent":12006,"metry":12007,"around":12008,"wx":12009,"Ġwined":12010,"ĠĠĠĠĠĠĠĠĠĠĠĠĠĠĠĠĠĠĠĠĠĠĠĠĠĠĠĠĠĠĠĠĠĠĠĠĠĠĠĠĠĠĠĠĠĠĠĠĠĠĠĠĠĠĠĠĠ":12011,"AMA":12012,"autil":12013,"zi":12014,"normalize":12015,"Ġsimp":12016,"Ġlocinfo":12017,"odd":12018,"isor":12019,"Strings":12020,"Ġtxt":12021,"DCT":12022,"Ġvardec":12023,"Ġks":12024,"ĠShould":12025,"Ġ78":12026,"cep":12027,"ĠHPDF":12028,"Ġasync":12029,"ĠNSS":12030,"SCRIPT":12031,"sfp":12032,"Keys":12033,"Ġfcntl":12034,"mmar":12035,"EIT":12036,"ĠSU":12037,"Ġbsp":12038,"357":12039,"ĠAZ":12040,"covery":12041,"imat":12042,"Ġlooking":12043,"itemsize":12044,"Ġomp":12045,"PARSER":12046,"ĠLook":12047,"Ġprocessed":12048,"Ġextended":12049,"%.":12050,"fps":12051,"ILITY":12052,"cycles":12053,"KIND":12054,"mmina":12055,"PARAMS":12056,"ĠMULTI":12057,"inptr":12058,"@@;@@":12059,"ĠxmlFree":12060,"references":12061,"gh":12062,"266":12063,"Ġrimeaddr":12064,"ĠWSA":12065,"Ġratio":12066,"MV":12067,"ĠSearch":12068,"FromString":12069,"Ġ');":12070,"unar":12071,"Ġsink":12072,"Ġ250":12073,"267":12074,"âĢ":12075,"Ġnf":12076,"14159265358979323846":12077,"Cor":12078,"PEND":12079,"9696":12080,"UK":12081,"require":12082,"Ġbufa":12083,"Ġtolower":12084,"Ġtransition":12085,"UD":12086,"ĠBlock":12087,"ĠINLINE":12088,"processing":12089,"gnc":12090,"ĠHTML":12091,"MPLE":12092,"Ġfreed":12093,"275":12094,"644":12095,"LOAT":12096,"Ġresolution":12097,"starts":12098,"Ġie":12099,"dra":12100,"ĠSI":12101,"Ġfh":12102,"ITLE":12103,"642":12104,"Ġ232":12105,"Ġlocked":12106,"Ġcmdline":12107,"accessible":12108,"Hz":12109,"missions":12110,"constpointer":12111,"UDP":12112,"autilus":12113,"ACL":12114,"Ġ**)(_":12115,"bulk":12116,"Ġmade":12117,"Ġxdr":12118,"297":12119,"capabilities":12120,"Ġprod":12121,"nounce":12122,"WRITABLE":12123,"ĠINIT":12124,"346":12125,"340":12126,"hits":12127,"vtk":12128,"router":12129,"Samples":12130,"bindings":12131,"wake":12132,"ĠExit":12133,"Ġnative":12134,"WCHAR":12135,"interpol":12136,"Serial":12137,"Ġtell":12138,".);":12139,"atum":12140,"XGOTREF":12141,"321":12142,"Ġpixmap":12143,"Ġdirent":12144,"(\"_":12145,"Ġplat":12146,"MULT":12147,"Oid":12148,"Ġconverted":12149,"Ġber":12150,"322":12151,"[_":12152,"Ġfocus":12153,"Structure":12154,"Ġgeometry":12155,"ĠHIDWORD":12156,"piece":12157,"roid":12158,"UNSIGNED":12159,"urb":12160,"ABC":12161,"ptime":12162,"968":12163,"Replace":12164,"65536":12165,"ĠVerify":12166,"strv":12167,"ĠShow":12168,"NumberOf":12169,"Ġletter":12170,"Ġtransport":12171,"ĠPyArrayObject":12172,"Ġogg":12173,"QueryInterface":12174,"rBay":12175,"Ġargp":12176,"bitmask":12177,"scape":12178,"ENCODING":12179,"Ġtoggle":12180,"Ġnpy":12181,"anc":12182,"ĠAnd":12183,"supp":12184,"Ġ75":12185,"EGL":12186,"Ġsending":12187,"Attachment":12188,"Ġtimespec":12189,"Ġafs":12190,"Ġarga":12191,"Seek":12192,"Abstract":12193,"Im":12194,"anging":12195,"neigh":12196,"example":12197,"GetBuffer":12198,"ĠxmlXPath":12199,"uvloop":12200,"292":12201,"havior":12202,"preferred":12203,"recursive":12204,"pivot":12205,"osd":12206,"msr":12207,"ĠSetup":12208,"pkts":12209,"Ġendian":12210,"ctdb":12211,"Ġ116":12212,"unichar":12213,"Ġmsr":12214,"Ġinitialization":12215,"Ġids":12216,"pevent":12217,"Ġcanvas":12218,"ĠNODE":12219,"333":12220,"NOTICE":12221,"<<(":12222,"solution":12223,"Ġerrval":12224,"])(":12225,"Ġattempt":12226,"TAX":12227,"1274":12228,"ĠPACK":12229,"DIFF":12230,"nbits":12231,"xD":12232,"isoc":12233,"ValaSource":12234,"hello":12235,"letter":12236,"grade":12237,"catalog":12238,"CURSOR":12239,"Ġcaddr":12240,"ĠND":12241,"wk":12242,"398":12243,"argnames":12244,"verity":12245,"ven":12246,"Ġ320":12247,"Ġinflate":12248,"IW":12249,"locations":12250,"vpn":12251,"Ġ(*__":12252,"vertical":12253,"Ġcpssp":12254,"Os":12255,"iece":12256,"ĠĠĠĠĠĠĠĠĠĠĠĠĉ":12257,"Ġflagsa":12258,"ĠEXTERNAL":12259,"LIGHT":12260,"ĠIdeally":12261,"CREAT":12262,"ĠCudd":12263,"ĠMASK":12264,"Ġ*),":12265,"quota":12266,"Metadata":12267,"ssi":12268,"information":12269,"ĠNV":12270,"Ġhints":12271,"Ġmer":12272,"Ġagent":12273,"ĠstartIdx":12274,"mitted":12275,"sper":12276,"intp":12277,"ĠCannot":12278,"keyval":12279,"Ġcu":12280,"NoneStruct":12281,"Ġcharset":12282,"1652":12283,"aln":12284,"indirect":12285,"acct":12286,"404":12287,"252":12288,"25519":12289,"Ġfuture":12290,"mpc":12291,"sizea":12292,"EDGE":12293,"endl":12294,"NOTIFY":12295,"GSI":12296,"Ġqp":12297,"sampling":12298,"Pixels":12299,"Ġsens":12300,"ĠDBus":12301,"Ġshouldn":12302,"bmap":12303,"Ġtorture":12304,"strto":12305,"AES":12306,"Ġga":12307,"JNIEnv":12308,"Ġbroken":12309,"Ġexpi":12310,"318":12311,"Ġthree":12312,"ĠXtVa":12313,")(((":12314,"AMD":12315,"PERM":12316,"ĠDetermine":12317,"stock":12318,"xkb":12319,"square":12320,"Ġvbox":12321,"HID":12322,"OY":12323,"sient":12324,"rax":12325,"spn":12326,"Colors":12327,"Runtime":12328,"itx":12329,"mixfa":12330,"ĠAgs":12331,"Ġskipping":12332,"bnd":12333,"erial":12334,"ĠCASE":12335,"BufPtr":12336,"SORT":12337,"APPLE":12338,"gres":12339,"ĠMATCH":12340,"qos":12341,"Ġgw":12342,"Ġmpd":12343,"Events":12344,"UNT":12345,"Btree":12346,"PROGRESS":12347,"Ġ].":12348,"Ġsmaller":12349,"ends":12350,"Ġuplo":12351,"Ġcorrectly":12352,"[:":12353,"Ġwq":12354,"700":12355,"country":12356,"tout":12357,"receiver":12358,"Ġ2000":12359,"Ġaccording":12360,"Ġ*)==":12361,"Interp":12362,"hm":12363,"doublereal":12364,"Ġ100000000":12365,"ĠDef":12366,"CN":12367,"Upper":12368,"oose":12369,"minimum":12370,"Ġrn":12371,"rects":12372,"Identity":12373,"It":12374,"ĠGSS":12375,"Ġhint":12376,"COORD":12377,"ĠTEXT":12378,"librdf":12379,"Ġcoda":12380,"ĠPS":12381,"Ġgetpid":12382,"776":12383,"ĠInitial":12384,"Ġgb":12385,"Ġintel":12386,"Ġ124":12387,"Ġrk":12388,"elts":12389,"versal":12390,"(;":12391,"ima":12392,"fullname":12393,"Ġsam":12394,"=((__":12395,"vnp":12396,"347":12397,"adm":12398,"FIID":12399,"CHOO":12400,"READONLY":12401,"ook":12402,"/\",":12403,"SENS":12404,"calendar":12405,"='%":12406,"CLU":12407,"bli":12408,"Ġ\"$":12409,"Ġschedule":12410,"sur":12411,"ASTATREG":12412,"DESCRIPT":12413,"########":12414,"ĠCHK":12415,"Ġchunks":12416,"WIDE":12417,"outlen":12418,"Enumerated":12419,"prhs":12420,"785":12421,"GIT":12422,"vectors":12423,"ĠPAN":12424,"HTSeq":12425,"BSD":12426,"plen":12427,"pygame":12428,"ĠCKR":12429,"ĠFE":12430,"Ġsecurity":12431,"always":12432,"Ġ69":12433,"Ġscheme":12434,"sint":12435,"Any":12436,"GFile":12437,"EXTERN":12438,"dial":12439,"...\");":12440,"ĠALIGN":12441,"alist":12442,"sksksp":12443,"Ġreturning":12444,"Ġ'<":12445,"Axis":12446,"Security":12447,"EITHER":12448,"RY":12449,"Ġresize":12450,"ĠPut":12451,"Ġdead":12452,"nrows":12453,"ABS":12454,"tptr":12455,"586":12456,"vk":12457,"Ġraster":12458,"nss":12459,"SIDE":12460,"Void":12461,"Ġdrive":12462,"SCHED":12463,"Ġ{(":12464,"shuffle":12465,"330":12466,"Ġcogl":12467,"Ġ)(__":12468,"HIGH":12469,"ĠASCII":12470,"ĠJim":12471,"Ġbinding":12472,"Ġprogname":12473,"Ġpurple":12474,"ĠRet":12475,"andidates":12476,"afs":12477,"inary":12478,"Ġ[@@":12479,"Ġ87":12480,"Ġ\"[%":12481,"Ġ264":12482,"<(":12483,"Ġbot":12484,"services":12485,"DST":12486,"Ġstrict":12487,"qb":12488,"Ġcls":12489,"nid":12490,"album":12491,"oot":12492,"xaa":12493,"Ġ**)(*(_":12494,"processed":12495,"Ġhwnd":12496,"ĠOBJ":12497,"TYP":12498,"342":12499,"Ġhome":12500,"Lower":12501,"four":12502,"ROUGH":12503,"LEAVE":12504,"ĠplA":12505,"Ġ(*)":12506,"Ġlang":12507,"perform":12508,"referenced":12509,"Ġauthentication":12510,"invoke":12511,"Ġvisit":12512,"pragma":12513,"fixture":12514,"inputs":12515,"nul":12516,"reading":12517,"385":12518,"Ġorg":12519,"uggest":12520,"Ġillegal":12521,"mpool":12522,"410":12523,"mous":12524,"CANT":12525,"ĠRecord":12526,"mkdir":12527,"UTH":12528,"Ġputc":12529,"365":12530,"errnum":12531,"Ġautomatic":12532,"indicator":12533,"SHELL":12534,"ĠSPI":12535,"Hi":12536,"Ġwcs":12537,"Ġ'\\'":12538,"Adjust":12539,"EH":12540,"ĠAO":12541,"srna":12542,"ĠVECT":12543,"REQUIRE":12544,"ĠDS":12545,"ĠDestroy":12546,"Ġfold":12547,"Ġcomponents":12548,"rBayesPrint":12549,"mip":12550,"boxes":12551,"430":12552,"Ġcrypt":12553,"ĠUnit":12554,"pice":12555,"448":12556,"Ġfg":12557,"Ġrename":12558,"ares":12559,"Ġol":12560,"Cut":12561,"oices":12562,"CISION":12563,"YES":12564,"fro":12565,"equiv":12566,"Ġanaly":12567,"sto":12568,"IMAP":12569,"LAYOUT":12570,"Ġunlikely":12571,"ldns":12572,"jobs":12573,"DIRECTORY":12574,"BLOB":12575,"Ġmsa":12576,"polynomial":12577,"Ġseems":12578,"STOCK":12579,"rLen":12580,"Ġgaia":12581,"ĠWindows":12582,"ĠĉĉĉĉĉĉĠĠĠĠĠĠ":12583,"222":12584,"rsc":12585,"STRIDES":12586,"ĠSELE":12587,"Distance":12588,"ĠNeed":12589,"nto":12590,"Ġjack":12591,"Ġblank":12592,"Ġprior":12593,"242":12594,"sps":12595,"graphics":12596,"Instruction":12597,"CRYPTO":12598,"ĠRcpp":12599,"Ġimages":12600,"wox":12601,"ĠInsert":12602,"Ġeditor":12603,"253":12604,"afka":12605,"subset":12606,"Leaf":12607,"FILENO":12608,"GetItemStr":12609,"mock":12610,"ĠARCH":12611,"DSPA":12612,"adb":12613,"Master":12614,"uwsgi":12615,"Ġincorrect":12616,"sibly":12617,"Ġ]);":12618,"Rout":12619,"EEE":12620,"gfs":12621,"Ġupb":12622,"sdr":12623,"ifs":12624,"ĠATTRIBUTE":12625,"DECLARE":12626,"globus":12627,"strand":12628,"7772":12629,"CHUNK":12630,"floating":12631,"VED":12632,"prefetch":12633,"Ġgetc":12634,"Ġrygel":12635,"ĠĉĉĉĉĉĉĉĠĠ":12636,"ante":12637,"Focus":12638,"Ġ++)":12639,"ĠCOLOR":12640,"ĠFMA":12641,"587":12642,"Ġcreation":12643,"combine":12644,"pvalue":12645,"Ġreach":12646,"Ġmatched":12647,"Atoms":12648,"pSrc":12649,"BODY":12650,"Printer":12651,"RP":12652,"648":12653,"ĠINS":12654,"ĠTSR":12655,"Ġgetting":12656,"Band":12657,"684":12658,"FX":12659,"breakpoint":12660,"even":12661,"ĠAVERROR":12662,"Perm":12663,"ZIP":12664,"Inv":12665,"ĠUI":12666,"libuna":12667,"336":12668,"secondary":12669,"ogle":12670,"MIME":12671,"tone":12672,"destructor":12673,"Ġunpack":12674,"YUV":12675,"cdr":12676,"prep":12677,"Ġrefresh":12678,"carry":12679,"Ġng":12680,"Ġ51":12681,"))[":12682,"285":12683,"ĠMust":12684,"Ġversions":12685,"wq":12686,"()\\":12687,"00110":12688,"PPsym":12689,"PACKAGE":12690,"Ġ\"@":12691,"ĠISC":12692,"ossible":12693,"Modifier":12694,"Uword":12695,"Ġgain":12696,"Ġoutfile":12697,"FIED":12698,"Ġ++*":12699,"TYPES":12700,"skeleton":12701,"TD":12702,"Ġrsp":12703,"ĀĀĀĀĀĀĀĀ":12704,"Ġlhs":12705,"locinfo":12706,"WK":12707,"AMP":12708,"Syn":12709,"dcc":12710,"334":12711,"SINGLE":12712,">>::_":12713,"Sta":12714,"Ġimplementation":12715,"ĠDEFAULT":12716,"authentic":12717,"addrlen":12718,"Keywords":12719,"portage":12720,"fvalue":12721,"Ġerrbuf":12722,"ĠLZ":12723,"Ġlineno":12724,"Ġcells":12725,"Certificate":12726,"polygon":12727,"Ġsess":12728,"Ġcent":12729,"602":12730,"ads":12731,"Ġprefs":12732,"Ġcoords":12733,"ĠTemp":12734,"deprecated":12735,"working":12736,"quival":12737,"fsp":12738,"ĠCAI":12739,"Ġencrypt":12740,"ILT":12741,"ĠENOMEM":12742,"ula":12743,"ntp":12744,"asio":12745,"Binding":12746,"REFERENCE":12747,"Ġdatad":12748,"dwmixfa":12749,"Border":12750,"strlcpy":12751,"SEPAR":12752,"\\\"\");":12753,"Ġcompress":12754,"completed":12755,"ĠPQ":12756,"ĠFNMS":12757,"Too":12758,"Da":12759,"nseq":12760,"Ġ\"./":12761,"Ġpsf":12762,"External":12763,"Partition":12764,"Alignment":12765,"Ġ:=":12766,"387":12767,"Hpi":12768,"Ġfew":12769,"icients":12770,"262":12771,"IsTrue":12772,"svg":12773,"ĠSN":12774,"Regs":12775,"ValadocContent":12776,"MISSING":12777,"ellip":12778,"ĠThese":12779,"ĠFLAG":12780,"har":12781,"GENERIC":12782,"ĠGLboolean":12783,"Pixbuf":12784,"SELECTION":12785,"Abs":12786,"Tk":12787,"Spa":12788,"Termin":12789,"369":12790,"cgi":12791,"ensity":12792,"ĠUChar":12793,"Transfer":12794,"Fields":12795,"Datatype":12796,"generator":12797,"FTP":12798,"1000000":12799,"todo":12800,"Ġsrca":12801,"lid":12802,"Ġones":12803,"ĠDesc":12804,"ĠCAIRO":12805,"bias":12806,"GlobalName":12807,"374":12808,"ĠTSRMLS":12809,"Ġquit":12810,"~~~~~~~~":12811,"+__":12812,"ĠGP":12813,"ticket":12814,"Ġpivot":12815,"ĠpNode":12816,"spmv":12817,"5584":12818,"ĠSource":12819,"bitrate":12820,"CHOOSER":12821,"Ġxfs":12822,"Ġoptind":12823,"playback":12824,"\"};":12825,"XF":12826,"usters":12827,"presence":12828,"BLK":12829,"ncol":12830,"week":12831,"PyFunction":12832,"1010":12833,"-*":12834,"Ġmakes":12835,"Linear":12836,"AsVal":12837,"fst":12838,"'):":12839,"ital":12840,"detect":12841,"Tracker":12842,"orph":12843,"Ġgrow":12844,"sockfd":12845,"Ġovs":12846,"RESH":12847,"Ġ'(":12848,"alth":12849,"ELEM":12850,"RELOC":12851,"Ste":12852,"framebuffer":12853,"FLUSH":12854,"blems":12855,"Ġack":12856,"copi":12857,"ENDOR":12858,"seqno":12859,"646":12860,"4294967":12861,"ĠCORE":12862,"Ġcpufreq":12863,"DDevice":12864,"startp":12865,"CAPS":12866,"GetModuleGlobalName":12867,"Ġudp":12868,"Ġbinop":12869,"450":12870,"tabs":12871,"kafka":12872,"enemy":12873,"registers":12874,"Ġavg":12875,"Ġ123":12876,"Ġwm":12877,"ĠMI":12878,"ategories":12879,"Ġnamed":12880,"795":12881,"ĠuStack":12882,"Ġchr":12883,"encrypted":12884,"contacts":12885,"Tp":12886,"requests":12887,"Ġreject":12888,"Ġwrites":12889,"Ġcopied":12890,"ners":12891,"prite":12892,"Ġlu":12893,"708":12894,"bond":12895,"ĠMin":12896,"urge":12897,"ĠRelease":12898,"Ġsljit":12899,"dependent":12900,"1395":12901,"Sw":12902,"Ġpathname":12903,"ĠGFile":12904,"SCAL":12905,"544":12906,"=*":12907,"Ġpitch":12908,"Ġqual":12909,"ĠLC":12910,"Ġnumeric":12911,"Ġ280":12912,"FastCall":12913,"016":12914,"ĠXK":12915,"Rank":12916,"strfree":12917,"ĠAst":12918,"Ġpaths":12919,"ĠGAsyncResult":12920,"BLAS":12921,"Strided":12922,"SURFACE":12923,"ĠXtSetArg":12924,"PLUS":12925,"ETH":12926,"ndims":12927,"Ġignoring":12928,"Ġbatch":12929,"VES":12930,"VERSE":12931,"Ġ111":12932,"rdat":12933,"ĠLin":12934,"ordered":12935,"CTYPE":12936,"Ġ**/":12937,"xr":12938,"separators":12939,"ĠINVALID":12940,"fence":12941,"Ġsigaction":12942,"Ġtz":12943,"Ġfz":12944,"ĠPyUnicode":12945,"ymous":12946,"mainw":12947,"Http":12948,"arshal":12949,"Ġ73":12950,"Ġ*/|":12951,"yuv":12952,"comments":12953,"vered":12954,"gcd":12955,"Ġprelude":12956,"Ġ'.'":12957,"Ġbw":12958,"gpe":12959,"Ġriid":12960,"BK":12961,"Ġpiglit":12962,"Ġbn":12963,"pll":12964,"erence":12965,"Ġnamea":12966,"Ġprot":12967,",&__":12968,"WARD":12969,"Ġtun":12970,"glVertex":12971,"Ġdlist":12972,"Scope":12973,"*(@@":12974,"striction":12975,"Allocate":12976,"bpf":12977,"pIn":12978,"Ġfeatures":12979,"bins":12980,"hci":12981,"Ġsockfd":12982,"pScrn":12983,"wgt":12984,"Plan":12985,"lite":12986,"Fun":12987,"flux":12988,"perimental":12989,"Results":12990,"ymax":12991,"amd":12992,"Ġcomputed":12993,"272":12994,"Second":12995,"Ġtolerance":12996,"BLI":12997,"Ġ4294":12998,"CHANGED":12999,"LIN":13000,"ĠSTATUS":13001,"stime":13002,"hnd":13003,"221":13004,"chrom":13005,"ĠGD":13006,"attack":13007,"Ġsdp":13008,"405":13009,"PUBLIC":13010,"352":13011,"ĠFLOAT":13012,"ĠTARGET":13013,"cbs":13014,"Ġmime":13015,"osp":13016,"poxy":13017,"Ġqueuebuf":13018,"LADE":13019,"cmsg":13020,"preset":13021,"Ġpts":13022,"msi":13023,"CENTER":13024,"Ġslab":13025,"ĠAlso":13026,"Ġyyg":13027,"Zip":13028,"]/":13029,"ymin":13030,"prox":13031,")*@@":13032,"traverse":13033,"lwork":13034,"Ġ429":13035,"_(@@":13036,"about":13037,"waiting":13038,"Ġsegments":13039,"Ġxd":13040,"Ġclone":13041,"ASM":13042,"Ġpasswd":13043,"deflate":13044,"pNext":13045,"ĠAss":13046,"fileName":13047,"abspath":13048,"TITLE":13049,"CONV":13050,"Ġfurther":13051,"symlink":13052,"iw":13053,"Mouse":13054,"tended":13055,".*/":13056,"ĠĠĠĠĠĠĠĠĠĠĠĠĠĠĠĠĠĠĠĠĠĠĠĠĠĠĠĠĠĠĠĠĠĠĠĠĠĠĠĠĠĠĠĠĠĠĠĠĠĠĠĠĠĠĠĠĠĠĠ":13057,"Direction":13058,"PCB":13059,"sS":13060,"ĠException":13061,"existing":13062,"Ġ115":13063,"little":13064,"atts":13065,"ĠVALA":13066,"imagelist":13067,"cout":13068,"Ġ!(_":13069,"archy":13070,"dI":13071,"Ġsigma":13072,"fer":13073,"ospf":13074,"243":13075,"bufptr":13076,"Ġctimer":13077,"stricmp":13078,"VISI":13079,"specs":13080,"iptr":13081,"VERTI":13082,"HORIZ":13083,"prn":13084,"FIXED":13085,"transl":13086,"Ġgrab":13087,"Ġcome":13088,")<":13089,"680":13090,"Ġdq":13091,"Ġcallbacks":13092,"Ġflip":13093,"PATTERN":13094,"middle":13095,"ining":13096,"opacity":13097,"Ġpen":13098,";;":13099,"nsupported":13100,"Ġsfp":13101,"Ġxm":13102,"504":13103,"nargs":13104,"Alg":13105,"GOOD":13106,"dE":13107,"Ġblocked":13108,"Ġefl":13109,"ĠHowever":13110,"Ġgeneration":13111,"BUILD":13112,"ĠSSH":13113,"iters":13114,"checkout":13115,"hooks":13116,"WD":13117,"ncols":13118,"pstr":13119,"Managed":13120,"Ġcoordinate":13121,"NUMERIC":13122,"nlmsg":13123,"Ġparts":13124,"6305584":13125,"4881274":13126,"63055844881274":13127,"63055844881274687":13128,"])[":13129,"ric":13130,"udata":13131,"filled":13132,"Ġepoxy":13133,"Ġterminate":13134,"stereo":13135,"Ġrules":13136,"Ġ[]":13137,"Ġgrad":13138,"Ġ}_":13139,"ĠChange":13140,"phdr":13141,"iconv":13142,"ĠRG":13143,"Ġmoved":13144,"Cfg":13145,"radix":13146,"timing":13147,"Aux":13148,"607":13149,"Ġduk":13150,"Ġ']":13151,"IGNUM":13152,"FINAL":13153,"ĠIM":13154,"Ġ*)((__":13155,"Ġhack":13156,"63055844881274687180":13157,"Ġeigen":13158,"ĠEnt":13159,"ĠRET":13160,"DateTime":13161,"COMPI":13162,"Pipe":13163,"Ġmg":13164,"Ġmf":13165,"123456":13166,"Ġtif":13167,"ĠGenerate":13168,"ĠRSA":13169,"MPEG":13170,"Ġem":13171,"Ġ85":13172,"Ġsucceeded":13173,"Best":13174,"ĠMy":13175,"ThreadState":13176,"kbd":13177,"Ġerts":13178,"RESSION":13179,"writel":13180,"VF":13181,"EXPAND":13182,"Ġldst":13183,"Ġ-->":13184,"mono":13185,"Ġlevels":13186,"Ġfu":13187,"Ġavail":13188,"INTS":13189,"Ġhtab":13190,"Allocation":13191,"intnode":13192,"EXCEPTION":13193,"ĠPH":13194,"Background":13195,"Ġbgp":13196,"arrays":13197,"Ġha":13198,"ĠĉĠĠĠĠĊ":13199,"maybe":13200,"interfaces":13201,"Ġresources":13202,"Remote":13203,"rna":13204,"00112":13205,"ternate":13206,"xpp":13207,"STRLEN":13208,"weapon":13209,"ĠJust":13210,"ĠMPL":13211,"seat":13212,"Ġclosing":13213,"CYTHON":13214,"erest":13215,"Ġ288":13216,"ĠVECTOR":13217,"296":13218,"Ġremain":13219,"Try":13220,"PyMethod":13221,"Ġreduce":13222,"quired":13223,"qq":13224,"Ġprinter":13225,"Ġexactly":13226,"pyargnames":13227,"DRI":13228,"tolerance":13229,"Ġscaling":13230,"Ags":13231,"linphone":13232,"ifa":13233,"Ġgobject":13234,"Ġinterpol":13235,"ges":13236,"366":13237,"TestCase":13238,"posed":13239,"Ġdrm":13240,"Objects":13241,"elapsed":13242,"Proto":13243,"topic":13244,"ĠJSON":13245,"cgroup":13246,"1048":13247,"Ġofs":13248,"Raster":13249,"Contact":13250,"ĠJS":13251,"ERRTAG":13252,"strs":13253,"Ġlst":13254,"updates":13255,"@@+=":13256,"GType":13257,"dome":13258,"Ġclosure":13259,"558":13260,"sna":13261,"Logger":13262,"hsize":13263,"cha":13264,"Ġldns":13265,"Exist":13266,"rex":13267,"hole":13268,"Ġud":13269,"OMIT":13270,"Ġnuma":13271,"Ġ109":13272,"well":13273,"Ġsyscall":13274,"Ġundo":13275,"Ġvisual":13276,"Desk":13277,"Assign":13278,"nest":13279,"orry":13280,"Ġeap":13281,"Ġoccurred":13282,"vect":13283,"mos":13284,"tear":13285,"skin":13286,"devs":13287,":/":13288,"Ġ&(@@":13289,"**(":13290,"erc":13291,"chg":13292,"Ġdebugging":13293,"Ġbpp":13294,"ĠControl":13295,"ITOR":13296,"SCR":13297,"ĠAct":13298,"ffi":13299,"BufPtrStrided":13300,"Ġdictionary":13301,"ĠEvas":13302,"ĠNormal":13303,"eries":13304,"READABLE":13305,"Ġtrap":13306,"ĠExp":13307,"./":13308,"ĠGSM":13309,"uli":13310,"RULE":13311,"gooS":13312,"Ġincludes":13313,"htab":13314,"Ġbackup":13315,"Ġpbuf":13316,"above":13317,"Ġsheet":13318,"matching":13319,"istream":13320,"569":13321,"ForEach":13322,"Password":13323,"trac":13324,"VAS":13325,"33333333":13326,"bz":13327,"repository":13328,"Ġ148":13329,"stored":13330,"aaaaaaaa":13331,"ĠFFERRTAG":13332,"trx":13333,"())())":13334,"),&":13335,"Ġ164":13336,"rpt":13337,"FM":13338,"Ġ---------":13339,"xmms":13340,"many":13341,"regexp":13342,"DRV":13343,"nested":13344,"Ġable":13345,"Ġshare":13346,"modifiers":13347,"ĠArgument":13348,"fullscreen":13349,"directive":13350,"WSTR":13351,"FORCE":13352,"Ġfour":13353,"ĠInfo":13354,"quick":13355,"Ġtriangular":13356,"Operator":13357,"Present":13358,"HEX":13359,"Ġ*/:":13360,"bon":13361,"XG":13362,"NativeEnumerated":13363,"508":13364,"JK":13365,"349":13366,"Power":13367,"pList":13368,"BATCH":13369,"endir":13370,"Ġinvert":13371,"@@)[@@":13372,"silon":13373,"clas":13374,"Ġcatch":13375,"SIMPLE":13376,"pea":13377,"Mix":13378,"Ġdwarf":13379,"Ġebp":13380,"reinterpret":13381,"environment":13382,"Ġlists":13383,"Ġdefaults":13384,"igrate":13385,"Ġ272":13386,"())[":13387,"Ġpas":13388,"Ġscanner":13389,"recipe":13390,"FFFFFFFF":13391,"Ġidle":13392,"ĠHDassert":13393,"Kernel":13394,"Ġmtx":13395,"bps":13396,"Ġgxg":13397,"395":13398,"dwarf":13399,"Ġthough":13400,"rbuf":13401,"Ġfake":13402,"Ġworkspace":13403,"PROTECT":13404,"bright":13405,"LW":13406,"ncp":13407,"ProcessHeap":13408,"Ġ(\\":13409,"Ġecx":13410,"ana":13411,"MOUSE":13412,"Ġnss":13413,"ASY":13414,"apl":13415,"ĠMatch":13416,"NEG":13417,"VENDOR":13418,"STROY":13419,"-=":13420,"Ġ*/]":13421,"Ġlinked":13422,"byname":13423,"nelem":13424,"statistics":13425,"Ġplai":13426,"Ġwide":13427,"KERNEL":13428,"ppc":13429,"MEMBER":13430,"Web":13431,"CSuccess":13432,"through":13433,"hrase":13434,"POSIX":13435,"ĠCommand":13436,"Ġvb":13437,"Ġve":13438,"Console":13439,"Ġ(*(*":13440,"CheckExact":13441,"ingerprint":13442,"ntop":13443,"1394":13444,"ĠRun":13445,"inverse":13446,"COMPLETE":13447,"@@&":13448,"Ġaut":13449,"ĠEGL":13450,"masks":13451,"ĠStream":13452,"xxxxxxxx":13453,"WHITE":13454,"LITREF":13455,"ĠELF":13456,"Cancellable":13457,"Ġproperly":13458,"ĠALLOC":13459,"ĠAGS":13460,"PJ":13461,"Ġxi":13462,"cab":13463,"expire":13464,"poison":13465,"Verbose":13466,"________":13467,"obuf":13468,"100000":13469,"udy":13470,"ĠSK":13471,"updated":13472,"Ġĉĉĉĉĉĉĉĉĉĉĉ":13473,"SECTION":13474,"strfreev":13475,"cand":13476,"Ġalph":13477,"Ġrefcount":13478,"@@)-":13479,"Ġbal":13480,"/*!<":13481,"ĠIPPROTO":13482,"ĠGV":13483,"TEL":13484,"glVertexAttrib":13485,"HAL":13486,"ĠAH":13487,"GETOPT":13488,"aging":13489,"Ġiovec":13490,"ĠBUF":13491,"ĠSUP":13492,"OPCODE":13493,"FORE":13494,"ĠBY":13495,"Ġum":13496,"ĠXtPointer":13497,"440":13498,"Ġfuse":13499,"Visual":13500,"ĠSIM":13501,"VALUES":13502,"MAR":13503,"]+=":13504,"Ġplist":13505,"MTP":13506,"ASERO":13507,"Ġbtrfs":13508,"Ġpipeline":13509,"@@?":13510,"Ġscsi":13511,"ZEND":13512,")>":13513,"gsi":13514,"compositor":13515,"ĠGCancellable":13516,"Ġgeom":13517,"orders":13518,"Mu":13519,"activity":13520,"lsr":13521,"482":13522,"ĠRequest":13523,"Browser":13524,"Ġdescr":13525,"TIMER":13526,"ĠEnable":13527,"Ġ*/.":13528,"outf":13529,"strcst":13530,"588":13531,"tat":13532,"Div":13533,"tape":13534,"Ġ'$":13535,"AO":13536,"lision":13537,"rho":13538,"Ġlb":13539,"Ġvariant":13540,"ĠTC":13541,"domains":13542,"istration":13543,"POWER":13544,"individual":13545,"004":13546,"Ġargva":13547,"declaration":13548,"cla":13549,"ĠSp":13550,"logging":13551,"buffered":13552,"ĠDR":13553,"Ġtrig":13554,"Ġhour":13555,"jd":13556,"261":13557,"HOME":13558,"loading":13559,"RING":13560,"REV":13561,"SPIN":13562,"riid":13563,"without":13564,"Received":13565,"stribution":13566,"jk":13567,"AGS":13568,"crl":13569,"ĠSELECT":13570,"sth":13571,"@@[(@@":13572,"UnitTest":13573,"Ġ\"../":13574,"Ġincrease":13575,"EXTENSION":13576,"keylen":13577,"QUENCE":13578,"Book":13579,"ĠCLASS":13580,"Ġintf":13581,"Ġlll":13582,"%\"":13583,"Ġ129":13584,"312":13585,"keyfile":13586,"BUSY":13587,"expanded":13588,"223372036854775":13589,"upstream":13590,"Ġee":13591,"aio":13592,"ĠDH":13593,"Ġagg":13594,"Closed":13595,"2222":13596,"Go":13597,"Ġvd":13598,"SHADOW":13599,"Fr":13600,"Ġhs":13601,",\",":13602,"\"););":13603,"into":13604,"rts":13605,"CPY":13606,");*/":13607,"efi":13608,"XtN":13609,"ĠRow":13610,"DIMEN":13611,"presentation":13612,")):":13613,"Ġhandles":13614,"chi":13615,"ftime":13616,"EGAL":13617,"uss":13618,"Ġinlen":13619,"ĠDUK":13620,"Blend":13621,"alty":13622,"xxx":13623,"PRIORITY":13624,"MultiTexCoord":13625,"CHAIN":13626,"Ġwrapper":13627,"lec":13628,"bases":13629,"inct":13630,"Ġdeflate":13631,"Ġuchar":13632,"ACTER":13633,"rpl":13634,"lica":13635,"PtrArray":13636,"ThreadJob":13637,"486":13638,"Ġ*(*(*(":13639,"Ġgmt":13640,"oly":13641,"pressed":13642,"_(&":13643,"ipaddr":13644,"950":13645,"madd":13646,"ĠFound":13647,"nCol":13648,"ĠCP":13649,"autof":13650,"Ġ2147483647":13651,"BOTTOM":13652,"Ġoverwrite":13653,"Ġ170":13654,"setsockopt":13655,"DIMENSION":13656,"ullet":13657,"iving":13658,"material":13659,"Ġreferences":13660,"Neg":13661,"sieve":13662,"SCOPE":13663,"GAM":13664,"dts":13665,"Ġrequests":13666,"ACCEPT":13667,"upload":13668,"Ġcontin":13669,"],@@":13670,"ATTRIB":13671,"ADATA":13672,"Ġconsole":13673,"Ġlseek":13674,"Drawable":13675,"CATION":13676,"reserve":13677,"brk":13678,"PROGRAM":13679,"physical":13680,"ĠQU":13681,"ĠFo":13682,"icc":13683,"parsing":13684,"301":13685,"601":13686,",(\"":13687,"Big":13688,"Ġexc":13689,"BCOR":13690,"constants":13691,"ĠvirThreadJob":13692,"ĠAvoid":13693,"Ġuwsgi":13694,"hdf":13695,"problem":13696,"sljit":13697,"ERTS":13698,"Ġpan":13699,"1028":13700,"Specific":13701,"scaling":13702,"ĠIDA":13703,"ĠNUL":13704,"ISSET":13705,"Ġherr":13706,"DES":13707,"ĠDCT":13708,"dbc":13709,"ternative":13710,"sap":13711,"CLIP":13712,"Ġcsound":13713,"ĠDOUBLE":13714,"422":13715,"BITMAP":13716,"hj":13717,"Verify":13718,"nA":13719,"ĠRFC":13720,"Ġcompleted":13721,"burst":13722,"ĠQString":13723,"href":13724,"SIS":13725,"SECOND":13726,"ĠMOVE":13727,"Iface":13728,"ssid":13729,"Ġorient":13730,")/(":13731,"Ġopj":13732,"THROUGH":13733,"capability":13734,"avc":13735,"Unsigned":13736,"boxed":13737,"@@]))":13738,"OPERATOR":13739,"Leave":13740,"regnum":13741,"Ġcn":13742,"Ġrnd":13743,"ĠED":13744,"ĠPRIx":13745,"Ġrid":13746,"readonly":13747,"iterable":13748,"ROR":13749,"ARITY":13750,"Ġ103":13751,"tres":13752,"MACS":13753,"ChI":13754,"SEXP":13755,"objs":13756,"SILON":13757,"regions":13758,"Ġiommu":13759,"gnost":13760,"rtl":13761,"kg":13762,"LICATION":13763,"Ġ'\\\\')":13764,"STOR":13765,"Ġ\"%.":13766,"Ġfallback":13767,"fdt":13768,"']":13769,"ĉĉĉĉĉĉĉĉĉĉĉĉĉĉĉĉ":13770,"Press":13771,"Ġdsr":13772,"ĠCommon":13773,"huff":13774,"cif":13775,"ilo":13776,"Assertion":13777,"Ġprovide":13778,"remoteDispatch":13779,"Compute":13780,"buddy":13781,"BCSR":13782,"Ġlabels":13783,"ĠHASH":13784,"canonical":13785,"tpm":13786,"ĠServer":13787,"zc":13788,"Gap":13789,"pher":13790,"Ġcodes":13791,"ĠIter":13792,"Ġ2088":13793,"Ġxs":13794,"Arc":13795,"ĠOFF":13796,"Ġmatrices":13797,"simd":13798,"Ġ(&(":13799,"EFT":13800,"bands":13801,"Custom":13802,"Ġopus":13803,"Tx":13804,"807":13805,"wnd":13806,"Ġka":13807,"iline":13808,"Bounds":13809,"414":13810,"ĠSTACK":13811,"ĠPUT":13812,"Ġprocesses":13813,"arante":13814,"Ġ4294967274":13815,"Ġopc":13816,"Ġinterrupt":13817,"contour":13818,"]<<":13819,"Ġmess":13820,"890":13821,"sof":13822,"queues":13823,"@@==@@":13824,"obi":13825,"sumer":13826,"zle":13827,",%%":13828,"Bra":13829,"Ġdeal":13830,"Ġslong":13831,"ecore":13832,"Ġfrequency":13833,"GLOBALS":13834,"FCT":13835,"Framebuffer":13836,"Ġsymtab":13837,"ĠGINT":13838,"memmove":13839,"Ġjobject":13840,"281":13841,"Ġ*)_":13842,"notice":13843,"entropy":13844,"406":13845,"FINISH":13846,"LB":13847,"ĠCM":13848,"\")),":13849,"rength":13850,"DESTROY":13851,"tips":13852,"swapped":13853,"Combo":13854,"Tests":13855,"BOARD":13856,"quir":13857,"intersect":13858,"VFS":13859,"Encoder":13860,"Ġplug":13861,"TimePeriod":13862,"Ġwine":13863,"***/":13864,"Environment":13865,"pctx":13866,"ĠĉĉĉĉĊ":13867,"ĠPort":13868,"ĠSUN":13869,"Ġdep":13870,"MACRO":13871,"393":13872,"msec":13873,"ToString":13874,"pagesize":13875,"Ġhappens":13876,"ILLEGAL":13877,"1072":13878,"GENERAL":13879,"@@|@@":13880,"ĠOr":13881,"Pars":13882,"Ġrepo":13883,"Ġ254":13884,"781":13885,"thumb":13886,"Ġcompletion":13887,"Place":13888,"Ġpseudo":13889,"Ġloader":13890,"Ġlg":13891,"Ġapi":13892,"friend":13893,"comma":13894,"Ġsimply":13895,"?\",":13896,"ĠUnknown":13897,"Ġmodes":13898,"fmpz":13899,"pval":13900,"Ġglob":13901,"isom":13902,"392":13903,"ARGE":13904,"ky":13905,"900":13906,"302":13907,"ciph":13908,"unsupported":13909,"Project":13910,"separ":13911,"Ġaccum":13912,"guard":13913,"RECTION":13914,"Ġperf":13915,"Ġ\")":13916,"calib":13917,"Ġpmix":13918,"ĠPacket":13919,"FRAG":13920,"Ġpacked":13921,"xv":13922,"Ġ107":13923,"Ġconfigured":13924,"Norm":13925,"gbl":13926,"BufferSize":13927,"Ġsuccessfully":13928,"RATE":13929,"cmpstr":13930,"pty":13931,"incoming":13932,"Ġdifference":13933,"Groups":13934,"ocky":13935,"ils":13936,"legacy":13937,"xpa":13938,"mday":13939,"WidgetClass":13940,"onic":13941,"ĠBack":13942,"Ġĉĉĉĉĉĉĉĉĉĉĉĉ":13943,"ĠEXP":13944,"Freq":13945,"Ġsur":13946,"ĠpW":13947,"ĠLUA":13948,"[__":13949,"Canvas":13950,"SYNTAX":13951,"Ġvaluea":13952,"555":13953,"ĠBLAS":13954,"'));":13955,"fortran":13956,"Ġends":13957,"Ġvoice":13958,"achine":13959,"IHTML":13960,"ĠElf":13961,"retch":13962,"pck":13963,"LCORE":13964,"Ġoutputs":13965,"Quad":13966,"edata":13967,"ĠURI":13968,"rena":13969,"Ġearly":13970,"Recur":13971,"Ġyes":13972,"cstring":13973,"scores":13974,"Look":13975,"Ġsquare":13976,"ieee":13977,"REAK":13978,"Ġfollowed":13979,"*/,":13980,"ĠFixed":13981,"Ġdfa":13982,"Ġtypedef":13983,"688":13984,"trk":13985,"ITCH":13986,"lllat":13987,"Br":13988,"Ġpkg":13989,"don":13990,"DEST":13991,"RIG":13992,"Ġgra":13993,"aliases":13994,"969":13995,"ssa":13996,"Ġ(((*(":13997,"Ġlllat":13998,"tin":13999,"765":14000,"Dot":14001,"1018":14002,"Purple":14003,"Ġke":14004,"blockrows":14005,"rxq":14006,"slow":14007,"Detect":14008,"403":14009,"Ġloading":14010,"Eq":14011,"Ġtrim":14012,"tell":14013,"Selector":14014,"Ġ\"../../../../../../":14015,"smtp":14016,"251":14017,"PARAMA":14018,"Resize":14019,"ĠMPIDI":14020,"truep":14021,"lsp":14022,"Ġdataf":14023,"pointers":14024,"Ġbuilt":14025,"NOERROR":14026,"ĠoptInTimePeriod":14027,"ĠUSB":14028,"ĠPMIX":14029,"Ġimplicit":14030,"Ti":14031,"piglit":14032,"LIBC":14033,"sge":14034,"dsr":14035,"PARAMAV":14036,"YgooS":14037,"Ġ113":14038,"ĠCI":14039,"ffile":14040,"backward":14041,"DIGEST":14042,"enq":14043,"xsane":14044,"igar":14045,"tmpbuf":14046,"UNICODE":14047,"Ġterminated":14048,"438":14049,"compatibility":14050,"Ġhsize":14051,"Ġscaled":14052,"Hook":14053,"ĠLib":14054,"DROP":14055,"Children":14056,"ims":14057,"------------------------------------------------------------------------":14058,"PROJECT":14059,"Ġnick":14060,"ĠCharPtr":14061,"Ġ}\\":14062,"Abort":14063,"Ġcptr":14064,"targ":14065,"suspend":14066,"Cvar":14067,"506":14068,"Ġextents":14069,"clamp":14070,"Ġterms":14071,"Ġsge":14072,"507":14073,"mplemented":14074,"ĠAny":14075,"lun":14076,"Ġ_(\"%":14077,"ĠTABLE":14078,"ĠFAILURE":14079,"follow":14080,"Ġwps":14081,"ĠPTR":14082,"FIND":14083,"273":14084,"interactive":14085,"placed":14086,"PTHREAD":14087,"0000000000000000":14088,"],&":14089,"frameset":14090,"ĠKRB":14091,"Trigger":14092,"Ġ*)(*((_":14093,"ĠJNICALL":14094,"wps":14095,"Ġcw":14096,"ĠPage":14097,"ĠGtkText":14098,"CSR":14099,"ifindex":14100,"KeyInfo":14101,"ĠXSRETURN":14102,"tpl":14103,"ĠTrans":14104,"fstat":14105,"343":14106,"tar":14107,"LESS":14108,"Ġocc":14109,"based":14110,"PPC":14111,"Ġptrdiff":14112,"ĠUPDATE":14113,"Ġserv":14114,"Ġsilk":14115,"Ġalloca":14116,"pulse":14117,"arbage":14118,"byteorder":14119,"?\\":14120,"replay":14121,"fns":14122,"damage":14123,"ĠRA":14124,"Ġ((*__":14125,"GetInt":14126,"wrk":14127,"TypeTest":14128,"Ġsteps":14129,"Rich":14130,"blockcols":14131,"Ġvertical":14132,"5555":14133,"energy":14134,"))(*(":14135,"Ġvid":14136,"ji":14137,"Ã©":14138,"ptp":14139,"Ġalgo":14140,"Ġconnections":14141,"ĠREQ":14142,"Ġ79":14143,"workers":14144,"hsp":14145,"Ġgsm":14146,"irp":14147,"241":14148,"invalidate":14149,"lee":14150,"bear":14151,"Beg":14152,"ONTAL":14153,"0123456":14154,"pac":14155,"Ġ199":14156,"peated":14157,"ĠENOENT":14158,"Inf":14159,"fonts":14160,"smooth":14161,"Ġcapture":14162,"ĠScalar":14163,"pR":14164,"keywords":14165,"pCur":14166,"MOTE":14167,"FFT":14168,"challenge":14169,"SEPARATOR":14170,"DLL":14171,"ĠThen":14172,"Ġfacet":14173,"Ġpcm":14174,"ĠFrom":14175,"Ġfilled":14176,")(__":14177,"ĠPCI":14178,"decomp":14179,"shortcut":14180,"Ġannot":14181,"guestfs":14182,"Ġsender":14183,"(\\":14184,"Prob":14185,"attribs":14186,"printw":14187,"basis":14188,"585":14189,"Ġmips":14190,"769":14191,"Family":14192,"Ġsalt":14193,"Pt":14194,"ĠAtom":14195,"regcache":14196,"glX":14197,"Coverage":14198,"484":14199,"ĠpIdx":14200,"Ġ130":14201,"Macro":14202,"issuer":14203,"bsize":14204,"OneArg":14205,"489":14206,"mins":14207,"bsd":14208,"Ġsanity":14209,"ĠContext":14210,"Ġshutdown":14211,"HRESULT":14212,"Ġpot":14213,"Ġchip":14214,"GVariant":14215,"fseek":14216,"ĠEntry":14217,");\");":14218,"CallOneArg":14219,"Ġrespon":14220,"Ġpicture":14221,"INHER":14222,"Literal":14223,"specified":14224,"mprintf":14225,"Ġaff":14226,"Ġcategory":14227,"SSS":14228,"SUFF":14229,"zzle":14230,"BORDER":14231,"Ġcrm":14232,"INUE":14233,"Arch":14234,"fade":14235,"4294967295":14236,"fully":14237,"IVATE":14238,"dont":14239,"@@)(":14240,"*>(":14241,"Abc":14242,"ĠGO":14243,"Transport":14244,"mef":14245,"Ġ((-":14246,"ĠThrow":14247,"ĠToken":14248,"ĠĠĠĠĠĠĠĊ":14249,"CURL":14250,"379":14251,"*);":14252,"Ġ*)(_":14253,"Mc":14254,"hover":14255,"ĠOne":14256,"363":14257,"fileno":14258,"Ġdeprecated":14259,"msgid":14260,"ĠXkb":14261,"NAS":14262,"Picture":14263,"FALL":14264,"JJ":14265,"OTE":14266,"arse":14267,"hal":14268,"784":14269,"ĠSPA":14270,"Ġdirty":14271,"REGNUM":14272,"::~":14273,"xmlSec":14274,"disks":14275,"Ġice":14276,"dos":14277,"ĠFin":14278,"Ġdatalen":14279,"uge":14280,"Ġwi":14281,"contin":14282,"mfn":14283,"DECODE":14284,"ĠLWIP":14285,"dealloc":14286,"Ġextend":14287,"Character":14288,"eee":14289,"COMMENT":14290,"Ġ\",\"":14291,"NOERR":14292,"TRANSFORM":14293,"ĠpPager":14294,"ĠLink":14295,"ches":14296,"ĠĠĠĠĠĠĠĠĠĠĠĠĠĠĠĠĠĠĠĠĠĠĠĠĠĠĠĠĠĠĠĠĠĠĠĠĠĠĠĠĠĠĠĠĠĠĠĠĠĠĠĠĠĠĠĠĠĠĠĠĠ":14297,"keysym":14298,"Ġymm":14299,"ĠResult":14300,"Ġkk":14301,"indexes":14302,"ĠSTREAM":14303,"mic":14304,"Ġrsa":14305,"linked":14306,"Ġcross":14307,"tempts":14308,"Ġ)))":14309,"yyg":14310,"LOOK":14311,"Ġmovement":14312,"271":14313,"POLY":14314,"uptr":14315,"647":14316,"fire":14317,"Sim":14318,"TET":14319,"thunkpos":14320,"Ġvq":14321,"mips":14322,"Ġvresult":14323,"Ġ'[":14324,"gbe":14325,"Palette":14326,"gwen":14327,"?\");":14328,"Ġgnm":14329,"407":14330,"printerr":14331,"645":14332,"erior":14333,"Ġmemb":14334,"fli":14335,"Ġweechat":14336,"Ġerret":14337,"NEED":14338,"314":14339,"ilen":14340,"Ġinherit":14341,"constructed":14342,"SETTINGS":14343,"Ġerrcode":14344,"vli":14345,"ĠBM":14346,"stemd":14347,"pFile":14348,"zen":14349,"Ġcandidate":14350,"Ġ(*((":14351,"ĠFail":14352,"CANVAS":14353,"REN":14354,"pfx":14355,"Merge":14356,"AIL":14357,"issa":14358,"ĠFFTW":14359,"After":14360,"cxt":14361,"ntoa":14362,"Ġgettimeofday":14363,"Ġdemux":14364,"Declaration":14365,"bbbb":14366,"pPage":14367,"Ġcomma":14368,":*/":14369,"ĠĠĠĠĠĠĠĠĠĠĊ":14370,"ĠTMP":14371,"ĠFO":14372,"States":14373,"MACH":14374,"OOM":14375,"jh":14376,"Ġinputs":14377,"amb":14378,"Ġrlen":14379,"icons":14380,"Ġhmm":14381,"Ġdyn":14382,"Ġdgettext":14383,"Compat":14384,"Windows":14385,"yn":14386,"REPLACE":14387,"Ġlibc":14388,"tsd":14389,"Ġtau":14390,"shdr":14391,"gers":14392,"Ġthisa":14393,"ĠTree":14394,"362":14395,"443":14396,"ĠPATH":14397,"Descr":14398,"Same":14399,"NAT":14400,"EPSILON":14401,"icm":14402,"Ġmed":14403,"Ġactions":14404,"InfoPtr":14405,"lane":14406,"Ġctr":14407,"Ġzeros":14408,"stencil":14409,"Ġslow":14410,"Ġpreviously":14411,"ĠGAMMA":14412,"Ġ\"(%":14413,"flo":14414,"Mtx":14415,"Bank":14416,"COUNTER":14417,"deon":14418,"iteria":14419,"CONSTRUCT":14420,"Ġtranspose":14421,"Ġseparate":14422,"cay":14423,"Ġwhitespace":14424,"warf":14425,"Ġboost":14426,"ĠEXTRACT":14427,"ĠTT":14428,"gee":14429,"Ġconsider":14430,"Ġlista":14431,"Selected":14432,"Material":14433,"Ġbook":14434,"HL":14435,"alu":14436,"401":14437,"FFFFFFF":14438,"Ġgpgme":14439,"bts":14440,"Language":14441,"GtkText":14442,"ĠEINTR":14443,"hevc":14444,"ĠGLADE":14445,"Gda":14446,"Ġ\\'%":14447,"Ġaddrinfo":14448,"@@,\"%":14449,"PyType":14450,"Ġsite":14451,"ĠĠĠĠĠĠĠĠĠĠĠĠĠĠĠĠĊ":14452,"pgs":14453,"Ġ((\"":14454,"Ġpcap":14455,"HORIZONTAL":14456,"History":14457,"Ġ\")\",":14458,"ificant":14459,"hier":14460,"nfkc":14461,"LOCATION":14462,"ĠpCur":14463,"bench":14464,"station":14465,"Ġincr":14466,"uris":14467,"ĠPost":14468,"@@[],":14469,"Ġtracker":14470,"outline":14471,"jac":14472,"repr":14473,"Ġcomparison":14474,"Ġstbi":14475,"ĠTrace":14476,"ĠĠĠĠĠĠĠĠĠĠĠĠĠĠĠĠĠĠĠĠĠĠĠĠĠĠĠĠĠĠĠĠĠĠĠĠĠĠĠĠĠĠĠĠĠĠĠĠĠĠĠĠĠĠĠĠĠĠĠĠ":14477,"LAPACK":14478,"Ġcollection":14479,"Ġsocklen":14480,"tps":14481,"VG":14482,"gran":14483,"adapt":14484,"rfc":14485,"Ġranges":14486,"*)((":14487,"ĠFts":14488,"subst":14489,"ĠFP":14490,"Ġsequences":14491,"thumbnail":14492,"Ġpairs":14493,"readed":14494,"yyscanner":14495,"GetNext":14496,"converter":14497,"blen":14498,"ĠWOR":14499,"wfar":14500,"timezone":14501,"Wrong":14502,"Cb":14503,"Two":14504,"Phy":14505,"hywfar":14506,"ĠAlias":14507,"Ġmus":14508,"ĠPath":14509,";{":14510,"hig":14511,"Ġ600":14512,"mass":14513,"Ġinstructions":14514,"ValaCCodeIdentifier":14515,"ctk":14516,"ĠGlobal":14517,"Ġ'{":14518,"ĠHIBYTE":14519,"remain":14520,"Ġconcat":14521,"Equals":14522,"XSARGS":14523,"Ġexceeds":14524,"Ġlibrdf":14525,"402":14526,"nodep":14527,"Ġtreat":14528,"GetError":14529,"Tick":14530,"WSA":14531,"SIZEOF":14532,"subtitle":14533,"Ġ)[":14534,"ĠCRYPT":14535,"king":14536,"Ġxt":14537,"mol":14538,"ĠVI":14539,"Plane":14540,"registered":14541,"ABI":14542,"Au":14543,"TSS":14544,"pcc":14545,"BaseModule":14546,"Ġmr":14547,"loss":14548,"Reverse":14549,"ValaCCodeBaseModule":14550,"ĠMULTIPLY":14551,"intext":14552,"Shadow":14553,"totype":14554,"Ġkb":14555,"hed":14556,"sessions":14557,"ĠVM":14558,"Quantum":14559,"ĠJNIEXPORT":14560,"gts":14561,"<<<":14562,"Der":14563,"Agg":14564,"Ġ3735928559":14565,"ĠGwy":14566,"parity":14567,"exoid":14568,"cks":14569,"gcry":14570,"players":14571,"rtcp":14572,"RIC":14573,"Ġfli":14574,"Ġskipped":14575,"]\"":14576,"pch":14577,"prt":14578,"ĠBLOCK":14579,"xffffffffffffffff":14580,"Diag":14581,"huge":14582,")(-":14583,"GLint":14584,"vbuf":14585,"Bot":14586,"Ġroll":14587,"Ġglade":14588,"Ġlj":14589,"ILED":14590,"ĠCLUTTER":14591,"Alias":14592,"Oct":14593,"ĠRegion":14594,"HANDLER":14595,"282":14596,"constructor":14597,"prov":14598,"487":14599,"realize":14600,"ĠDP":14601,"zalloc":14602,"Alt":14603,"////////////////////////////////":14604,"Ġaes":14605,"Ġsetsockopt":14606,"latitude":14607,"Ġ*/];":14608,"Ġlibusb":14609,"dri":14610,"AYBACK":14611,"anned":14612,"pem":14613,"autofree":14614,"ĠpIn":14615,"msgbuf":14616,"ĠIV":14617,"umulator":14618,"blks":14619,"zf":14620,"Ġ'!":14621,"Ġvg":14622,"Paint":14623,"jt":14624,"ĠUPB":14625,"ĠGo":14626,"RPC":14627,"Ġredraw":14628,"ĠNEXT":14629,"Ġnread":14630,"Ġhighest":14631,"Ġtodo":14632,"magick":14633,"EIO":14634,"mus":14635,"UF":14636,"mess":14637,"omic":14638,"Ġadapter":14639,"Ġguess":14640,"lapse":14641,"ĠLPC":14642,"Ġlibspectrum":14643,"ĠNIL":14644,"7654":14645,"ĠTp":14646,"URATION":14647,"ENGINE":14648,"Ġascii":14649,"zp":14650,"FILENAME":14651,"Ġfore":14652,"unity":14653,"822":14654,"Ring":14655,"pcre":14656,"dictionary":14657,"diagonal":14658,"Ġconditions":14659,"*/;":14660,"getopt":14661,"skb":14662,"AILA":14663,"ĠCRYPTO":14664,"IDs":14665,"AMEL":14666,"Ġlargest":14667,"HINT":14668,"ĠComple":14669,"ĠValNode":14670,"pE":14671,"coverage":14672,"TIAL":14673,"Ġaverage":14674,"Ġneighbors":14675,"neon":14676,"bundle":14677,"704":14678,"deref":14679,"fini":14680,"hres":14681,"Ġactor":14682,"ĠDECODE":14683,"71828":14684,"atial":14685,"artist":14686,"prf":14687,"PMD":14688,"Ġlx":14689,"ppd":14690,"Ġmarked":14691,"imin":14692,"ROLE":14693,"FETCH":14694,"tele":14695,"Ġrespect":14696,"White":14697,"ĠĠĠĠĉĠĠĠ":14698,"Url":14699,"Ġpstr":14700,"ALE":14701,"Ġstatistics":14702,"RID":14703,"Ġmh":14704,"Ġsections":14705,"ĉĉĊ":14706,"ĠExec":14707,"librpc":14708,"routines":14709,"angled":14710,"Ġformats":14711,"ĠSOL":14712,"ĠDLL":14713,",&@@":14714,"Disk":14715,"ĠxmlNodePtr":14716,"bet":14717,"ĠGLOBAL":14718,"scn":14719,"gwenhywfar":14720,"Testing":14721,"Ġcolour":14722,"NECTED":14723,"INHERIT":14724,"Ġrotate":14725,"313":14726,"Ġ167772":14727,"sax":14728,"567":14729,"800000000":14730,"rency":14731,"Ġcombo":14732,"Ġrotation":14733,"CLEAN":14734,"ĠxmlNode":14735,"Feat":14736,"005":14737,"Ġevaluate":14738,"SLE":14739,"ĠXSet":14740,"Ġjit":14741,"Ġzoom":14742,"KEEP":14743,"nread":14744,"creation":14745,"NAN":14746,"Stage":14747,"kin":14748,"ĠHY":14749,"524":14750,"uniform":14751,"vlen":14752,"octet":14753,"Ġlengths":14754,"Static":14755,"Ġextraout":14756,"suboffsets":14757,"Ġfraction":14758,"xo":14759,"ĠPyString":14760,"translation":14761,"Ġtyp":14762,"Truth":14763,"Other":14764,"dsize":14765,"498":14766,"ucer":14767,"rtsp":14768,"RNDN":14769,"ĠADIO":14770,"CBC":14771,"cth":14772,"emitter":14773,"Ġ'/');":14774,"objfile":14775,"GSM":14776,"mgmt":14777,"<@@":14778,"Ġ)*":14779,"[++":14780,"Ġimag":14781,"squ":14782,"ĠXFree":14783,"fixup":14784,"ĠMagickFalse":14785,"chart":14786,"182845":14787,"cds":14788,"conj":14789,"OBJMASK":14790,"Words":14791,"sqr":14792,"IDA":14793,"cop":14794,"VIRT":14795,"pScreen":14796,"'d":14797,"needle":14798,"8192":14799,"usable":14800,"ĠISO":14801,"MINOR":14802,"authority":14803,"clutter":14804,"904":14805,"Ġlibfdata":14806,"Break":14807,"ĠLet":14808,"fffffff":14809,"GETARG":14810,"71828182845":14811,"nome":14812,"RTP":14813,"oti":14814,"Ġthink":14815,"Ġtakes":14816,"Ġslave":14817,"epsg":14818,"ĠSND":14819,"TAILQ":14820,"Ġindicate":14821,"ASSIGN":14822,"bold":14823,"Public":14824,"already":14825,"Ġdrawing":14826,"ĠuECC":14827,"649":14828,"gtype":14829,"UTIL":14830,"OLDER":14831,"Ġ125":14832,"HAND":14833,"attery":14834,"ĠPySequence":14835,"aro":14836,"animation":14837,")],":14838,"BV":14839,"arily":14840,"ving":14841,"randint":14842,"iob":14843,"Ġ((*@@":14844,"ĠIPP":14845,"ĠVala":14846,"question":14847,"EFF":14848,"smission":14849,"atory":14850,"perms":14851,"antissa":14852,"fpu":14853,"keycode":14854,"luma":14855,"[?":14856,"ĠButton":14857,"(\"[%":14858,"CRT":14859,"sval":14860,"Plot":14861,"afp":14862,"Ġusers":14863,"Ġnelems":14864,"((-":14865,"Ġtaken":14866,"UNDEFINED":14867,"setopt":14868,"ĠUV":14869,"ĠPER":14870,"compact":14871,"GRP":14872,"@@).":14873,"Camel":14874,"INF":14875,"ablish":14876,"')))":14877,"numbers":14878,"writable":14879,"Ġguarante":14880,"Ġregistered":14881,"TEMPLATE":14882,"Tok":14883,"GDB":14884,"clp":14885,"?\"":14886,"Json":14887,"epoch":14888,"pOp":14889,"AVAILA":14890,"METADATA":14891,"Ġwho":14892,"447":14893,"UBY":14894,"Ġ94":14895,"353":14896,"Ġche":14897,"ĠHere":14898,"Ġraptor":14899,"rowse":14900,"ErrMsg":14901,"LINEAR":14902,"VectorCopy":14903,"Ġnullptr":14904,"teardown":14905,"gda":14906,"sistant":14907,"Ġpfn":14908,"within":14909,"Drag":14910,"TLE":14911,"valp":14912,"sH":14913,"ĠLY":14914,"641":14915,"AndSize":14916,"Ġauthor":14917,"deli":14918,"Ġbank":14919,"Matches":14920,"Fragment":14921,"SMB":14922,"Ġasprintf":14923,"DIST":14924,"Ġtoupper":14925,"501":14926,"particle":14927,"Ġmetric":14928,"slices":14929,"ĠDD":14930,"DSA":14931,"AMIC":14932,"Ġguid":14933,"Ġply":14934,"ĠJava":14935,"PIM":14936,"]][":14937,"parents":14938,"755":14939,"SUN":14940,"ĠSign":14941,"overwrite":14942,"Ġdecoded":14943,"()(":14944,"writing":14945,"449":14946,"dls":14947,"ĠHOST":14948,"Ġtk":14949,"quivalent":14950,"Fatal":14951,"quee":14952,"ptra":14953,"ProgramUniform":14954,"Ġ100000":14955,"trav":14956,"ures":14957,"hood":14958,"341":14959,"cas":14960,"Ġcbf":14961,"xslt":14962,"DISPATCH":14963,"Coords":14964,"Ġ81":14965,"MAXIM":14966,"factors":14967,"VARIABLE":14968,"ĠTX":14969,"SIST":14970,"Ġbufp":14971,"lpc":14972,"illed":14973,"Ġphi":14974,"upp":14975,"wich":14976,"East":14977,"pes":14978,"Comb":14979,"trash":14980,"Ġenvp":14981,"ĠCGAL":14982,"Ġ32767":14983,"verbosity":14984,"TRANSP":14985,"gnm":14986,"Ġtriangle":14987,"exchange":14988,"tcase":14989,"Ġwb":14990,"ĠMET":14991,"ĠSB":14992,"Ġchoose":14993,"ĠDBL":14994,"CONNECTED":14995,"SHAPE":14996,"PCI":14997,"UPT":14998,"eeded":14999,"sname":15000,"MONITOR":15001,"Ġprops":15002,"Ġbuilder":15003,"license":15004,"Ġcontrols":15005,"igt":15006,"XM":15007,"ĠCtrl":15008,"xmlStr":15009,";\",":15010,"java":15011,"Ġ188":15012,"ĠGroup":15013,"PENDING":15014,"ĠCERT":15015,"Ġifp":15016,"mongoc":15017,"remap":15018,"673":15019,"Cube":15020,"pretty":15021,"Cg":15022,"@@[])":15023,"Ġlogging":15024,"Ġvals":15025,"cling":15026,"Ġwa":15027,"ĠCV":15028,"libfdata":15029,"ĠWork":15030,"nP":15031,"clen":15032,"ĠpData":15033,"ĠAppend":15034,"GetBufferAnd":15035,"ĠXtN":15036,"NETWORK":15037,"949":15038,"ention":15039,"Ġnfs":15040,"Ġdri":15041,"CONSTR":15042,"),(":15043,"Kind":15044,"ĠINSERT":15045,"AK":15046,"Blue":15047,"Ġexplicitly":15048,"\",*":15049,"ĠOPER":15050,"GtkTreeModel":15051,"908":15052,"Ġpartic":15053,"Optional":15054,"Cleanup":15055,"RANK":15056,"fan":15057,"ĠEnsure":15058,"())[*":15059,"GetBufferAndValidate":15060,"Cols":15061,"opr":15062,"allest":15063,"Ġ\"|":15064,"ĠTHETA":15065,"qc":15066,"ĠĠĠĠĠĠĠĠĠĠĠĠĠĠĠĠĠĠĠĠĠĠĠĠĠĠĠĠĠĠĠĠĠĠĠĠĠĠĠĠĠĠĠĠĠĠĠĠĠĠĠĠĠĠĠĠĠĠ":15067,"grib":15068,"Ġports":15069,"sides":15070,"ĠInteger":15071,"Visitor":15072,"NORTH":15073,"Ev":15074,"Ġunreachable":15075,"oystick":15076,"mib":15077,"Ġblend":15078,"ĠUnable":15079,"])));":15080,"paned":15081,"filesize":15082,"Recv":15083,"dge":15084,"Ġ**,":15085,"0123456789":15086,"Bottom":15087,"Ġbuiltin":15088,"331":15089,"Ġcpp":15090,"3210":15091,"Opcode":15092,"otonic":15093,"Ġanchor":15094,"358":15095,"Ġconstants":15096,"VISIBLE":15097,"Parm":15098,"Ġbel":15099,"]&":15100,"TRUN":15101,"feof":15102,"ĠOk":15103,"Extract":15104,"Ġsupports":15105,"566":15106,"==@@":15107,"Curve":15108,"Jump":15109,"desired":15110,"MIPS":15111,"SFER":15112,"Ġfifo":15113,"certs":15114,"Clutter":15115,"unicast":15116,"ibi":15117,"APPLICATION":15118,"GtkTreeIter":15119,"Ġsnapshot":15120,"ĠRIG":15121,"556":15122,"SERIAL":15123,"AVAILABLE":15124,"ĠPAM":15125,"Ġmach":15126,"slp":15127,"EMU":15128,"Side":15129,"Ġinverse":15130,"MK":15131,"Ġcups":15132,"tiles":15133,"CRC":15134,"EAST":15135,"Ġcq":15136,"Namespace":15137,"strp":15138,">\";":15139,"Ġhelper":15140,"SHARED":15141,"Using":15142,"JPEG":15143,"gpio":15144,"Ġsnmp":15145,"creat":15146,"eness":15147,"Ġsmart":15148,"Ġembed":15149,"316":15150,"Person":15151,"WB":15152,"Ġunset":15153,"Cred":15154,"Ġ*)(@@":15155,"Ġrounding":15156,"ifile":15157,"MPID":15158,"camel":15159,"yaml":15160,"Ġirc":15161,"itect":15162,"csum":15163,"bracket":15164,"Dh":15165,"Ġpri":15166,"Ġdeclaration":15167,"belle":15168,"Ġppc":15169,"ftype":15170,"mpath":15171,"ATYPE":15172,"dic":15173,"Ġstk":15174,"ĠZEND":15175,"ByteArray":15176,"medium":15177,"SEM":15178,"logic":15179,"ĠYPfab":15180,"Ġsystems":15181,"ckey":15182,"qname":15183,"pars":15184,"estimate":15185,"Ġindirect":15186,"=====":15187,"INFIN":15188,"AMPLE":15189,"cbc":15190,"GLfloat":15191,"Ġrpntr":15192,"Ġallows":15193,"Ġremainder":15194,"cpath":15195,"daa":15196,"Ġspect":15197,"GetData":15198,"dprint":15199,"Ġdisc":15200,"Ġbmp":15201,"horizontal":15202,"gnoring":15203,"Ġextensions":15204,"Ġsieve":15205,"descriptors":15206,"silent":15207,"datasize":15208,"Ġ89":15209,"Ġ71":15210,"ayer":15211,"Ġrelocation":15212,"SOLN":15213,"ffected":15214,"wanted":15215,"Columns":15216,"Ġsampler":15217,"fru":15218,"Ġweights":15219,"ari":15220,"passed":15221,"ĠpF":15222,"central":15223,"slope":15224,"ora":15225,"Ġvtx":15226,"genome":15227,"ĠPass":15228,"Ġbcf":15229,"levant":15230,"Polygon":15231,"esys":15232,"rote":15233,"atp":15234,"retcode":15235,"->_.":15236,"(*((_":15237,"Ġsummary":15238,"==-":15239,"ĠPCRE":15240,"ĠPsych":15241,"ctex":15242,"ĠNB":15243,"ventory":15244,"Td":15245,"Est":15246,"361":15247,"IMPLE":15248,"ĠTCG":15249,"Ġgfs":15250,"glf":15251,"Sz":15252,"sst":15253,"tector":15254,"mut":15255,
[...]
